{"0": "\u0000", "1": "\u0001", "2": "\u0002", "3": "\u0003", "4": "\u0004", "5": "\u0005", "6": "\u0006", "7": "\u0007", "8": "\b", "9": "\t", "10": "\n", "11": "\u000b", "12": "\f", "13": "\r", "14": "\u000e", "15": "\u000f", "16": "\u0010", "17": "\u0011", "18": "\u0012", "19": "\u0013", "20": "\u0014", "21": "\u0015", "22": "\u0016", "23": "\u0017", "24": "\u0018", "25": "\u0019", "26": "\u001a", "27": "\u001b", "28": "\u001c", "29": "\u001d", "30": "\u001e", "31": "\u001f", "32": " ", "33": "!", "34": "\"", "35": "#", "36": "$", "37": "%", "38": "&", "39": "'", "40": "(", "41": ")", "42": "*", "43": "+", "44": ",", "45": "-", "46": ".", "47": "/", "48": "0", "49": "1", "50": "2", "51": "3", "52": "4", "53": "5", "54": "6", "55": "7", "56": "8", "57": "9", "58": ":", "59": ";", "60": "<", "61": "=", "62": ">", "63": "?", "64": "@", "65": "A", "66": "B", "67": "C", "68": "D", "69": "E", "70": "F", "71": "G", "72": "H", "73": "I", "74": "J", "75": "K", "76": "L", "77": "M", "78": "N", "79": "O", "80": "P", "81": "Q", "82": "R", "83": "S", "84": "T", "85": "U", "86": "V", "87": "W", "88": "X", "89": "Y", "90": "Z", "91": "[", "92": "\\", "93": "]", "94": "^", "95": "_", "96": "`", "97": "a", "98": "b", "99": "c", "100": "d", "101": "e", "102": "f", "103": "g", "104": "h", "105": "i", "106": "j", "107": "k", "108": "l", "109": "m", "110": "n", "111": "o", "112": "p", "113": "q", "114": "r", "115": "s", "116": "t", "117": "u", "118": "v", "119": "w", "120": "x", "121": "y", "122": "z", "123": "{", "124": "|", "125": "}", "126": "~", "127": "\u007f", "128": "\u0080", "129": "\u0081", "130": "\u0082", "131": "\u0083", "132": "\u0084", "133": "\u0085", "134": "\u0086", "135": "\u0087", "136": "\u0088", "137": "\u0089", "138": "\u008a", "139": "\u008b", "140": "\u008c", "141": "\u008d", "142": "\u008e", "143": "\u008f", "144": "\u0090", "145": "\u0091", "146": "\u0092", "147": "\u0093", "148": "\u0094", "149": "\u0095", "150": "\u0096", "151": "\u0097", "152": "\u0098", "153": "\u0099", "154": "\u009a", "155": "\u009b", "156": "\u009c", "157": "\u009d", "158": "\u009e", "159": "\u009f", "160": "\u00a0", "161": "\u00a1", "162": "\u00a2", "163": "\u00a3", "164": "\u00a4", "165": "\u00a5", "166": "\u00a6", "167": "\u00a7", "168": "\u00a8", "169": "\u00a9", "170": "\u00aa", "171": "\u00ab", "172": "\u00ac", "173": "\u00ad", "174": "\u00ae", "175": "\u00af", "176": "\u00b0", "177": "\u00b1", "178": "\u00b2", "179": "\u00b3", "180": "\u00b4", "181": "\u00b5", "182": "\u00b6", "183": "\u00b7", "184": "\u00b8", "185": "\u00b9", "186": "\u00ba", "187": "\u00bb", "188": "\u00bc", "189": "\u00bd", "190": "\u00be", "191": "\u00bf", "192": "\u00c0", "193": "\u00c1", "194": "\u00c2", "195": "\u00c3", "196": "\u00c4", "197": "\u00c5", "198": "\u00c6", "199": "\u00c7", "200": "\u00c8", "201": "\u00c9", "202": "\u00ca", "203": "\u00cb", "204": "\u00cc", "205": "\u00cd", "206": "\u00ce", "207": "\u00cf", "208": "\u00d0", "209": "\u00d1", "210": "\u00d2", "211": "\u00d3", "212": "\u00d4", "213": "\u00d5", "214": "\u00d6", "215": "\u00d7", "216": "\u00d8", "217": "\u00d9", "218": "\u00da", "219": "\u00db", "220": "\u00dc", "221": "\u00dd", "222": "\u00de", "223": "\u00df", "224": "\u00e0", "225": "\u00e1", "226": "\u00e2", "227": "\u00e3", "228": "\u00e4", "229": "\u00e5", "230": "\u00e6", "231": "\u00e7", "232": "\u00e8", "233": "\u00e9", "234": "\u00ea", "235": "\u00eb", "236": "\u00ec", "237": "\u00ed", "238": "\u00ee", "239": "\u00ef", "240": "\u00f0", "241": "\u00f1", "242": "\u00f2", "243": "\u00f3", "244": "\u00f4", "245": "\u00f5", "246": "\u00f6", "247": "\u00f7", "248": "\u00f8", "249": "\u00f9", "250": "\u00fa", "251": "\u00fb", "252": "\u00fc", "253": "\u00fd", "254": "\u00fe", "255": "\u00ff", "256": "<|endoftext|>", "257": " t", "258": " a", "259": "he", "260": "in", "261": "re", "262": " the", "263": "on", "264": " s", "265": "er", "266": " w", "267": "at", "268": " o", "269": "en", "270": " c", "271": "it", "272": "an", "273": "is", "274": " b", "275": "or", "276": "es", "277": " p", "278": "ing", "279": " f", "280": "ed", "281": "ou", "282": "al", "283": " an", "284": "ar", "285": " to", "286": " m", "287": " in", "288": " of", "289": " d", "290": " h", "291": "as", "292": "\u00e2\u0080", "293": "ic", "294": " and", "295": " th", "296": "le", "297": "om", "298": "ion", "299": "ent", "300": "il", "301": " l", "302": " n", "303": " re", "304": "st", "305": " e", "306": "ve", "307": "ro", "308": "ly", "309": " g", "310": " be", "311": "id", "312": "ac", "313": "ot", "314": "ut", "315": " T", "316": " on", "317": " that", "318": "ay", "319": " is", "320": " I", "321": "se", "322": "ow", "323": "ad", "324": "\u00e2\u0080\u0099", "325": "im", "326": "et", "327": "am", "328": " S", "329": "ig", "330": " for", "331": " A", "332": "ver", "333": "ol", "334": " st", "335": " u", "336": "ct", "337": "ur", "338": " C", "339": " y", "340": " it", "341": " he", "342": "el", "343": "ir", "344": " wh", "345": "ith", "346": " B", "347": "ter", "348": "ation", "349": "ce", "350": " with", "351": " M", "352": "ill", "353": " al", "354": " as", "355": "nd", "356": "ers", "357": "ch", "358": " \u00e2\u0080", "359": "ul", "360": " we", "361": " P", "362": "ld", "363": "ke", "364": " de", "365": " r", "366": " was", "367": " con", "368": " you", "369": "ate", "370": "ag", "371": "her", "372": " W", "373": " mo", "374": "ment", "375": "if", "376": "op", "377": " pro", "378": " ha", "379": " are", "380": " at", "381": " com", "382": " se", "383": "ri", "384": "est", "385": "and", "386": "us", "387": "ist", "388": "res", "389": " H", "390": " The", "391": "pp", "392": " D", "393": "ew", "394": " R", "395": "ain", "396": "igh", "397": "rom", "398": "ort", "399": " F", "400": "os", "401": " 1", "402": "ant", "403": "un", "404": "um", "405": "'s", "406": "\u00e2\u0080\u009d", "407": " 2", "408": "art", "409": "ity", "410": " v", "411": "em", "412": "oo", "413": " ex", "414": "ould", "415": "ive", "416": " not", "417": "ab", "418": " E", "419": "qu", "420": " or", "421": "ess", "422": " have", "423": " (", "424": " sh", "425": " N", "426": " by", "427": " from", "428": "nt", "429": " su", "430": " G", "431": "out", "432": "ust", "433": "oc", "434": " this", "435": " le", "436": "pe", "437": " pl", "438": "ight", "439": "end", "440": " sa", "441": "ear", "442": " L", "443": "red", "444": "ack", "445": " has", "446": "ies", "447": "th", "448": "The", "449": " ab", "450": " \u00e2\u0080\u009c", "451": " ch", "452": " J", "453": "ard", "454": "ally", "455": "all", "456": "ap", "457": " O", "458": "ast", "459": "ome", "460": " j", "461": "gh", "462": "ud", "463": "iv", "464": " his", "465": " tr", "466": "ak", "467": " do", "468": " but", "469": "our", "470": " said", "471": " can", "472": "ge", "473": " they", "474": "00", "475": " will", "476": " whe", "477": "ff", "478": " k", "479": " wor", "480": " int", "481": " all", "482": "ich", "483": "rou", "484": " who", "485": " U", "486": "ell", "487": " \"", "488": "ans", "489": "ial", "490": " ne", "491": "one", "492": " out", "493": " go", "494": "ide", "495": "pl", "496": "ther", "497": "ine", "498": "ike", "499": " their", "500": " more", "501": "ice", "502": "age", "503": "ame", "504": " up", "505": "ure", "506": "ect", "507": "ong", "508": "od", "509": "act", "510": "ous", "511": "ia", "512": "ra", "513": " ad", "514": "ore", "515": " about", "516": "ions", "517": "ie", "518": " ag", "519": "ep", "520": " one", "521": "ub", "522": " comp", "523": " off", "524": "are", "525": "ated", "526": " me", "527": " en", "528": " im", "529": " un", "530": " were", "531": "ake", "532": " which", "533": " us", "534": "iz", "535": "ind", "536": "cc", "537": " cont", "538": " K", "539": " cl", "540": "per", "541": "so", "542": "ber", "543": " so", "544": " would", "545": " year", "546": "very", "547": "ime", "548": "ip", "549": "ue", "550": "ks", "551": " been", "552": " ev", "553": "au", "554": "pt", "555": "ace", "556": " like", "557": "ost", "558": "og", "559": " sp", "560": "ire", "561": "ere", "562": " had", "563": " Th", "564": "ays", "565": " St", "566": "ite", "567": "cl", "568": "01", "569": " man", "570": "ary", "571": "ign", "572": " pe", "573": " qu", "574": "able", "575": "ord", "576": "ail", "577": " res", "578": "ry", "579": "ib", "580": "ood", "581": "mer", "582": "ose", "583": " over", "584": " other", "585": " te", "586": "king", "587": " also", "588": " there", "589": " new", "590": " ar", "591": "ress", "592": "ical", "593": "ople", "594": " bec", "595": " In", "596": " some", "597": "ence", "598": " per", "599": " sc", "600": " part", "601": "int", "602": " than", "603": "ru", "604": "own", "605": "ough", "606": "ations", "607": "ile", "608": "ll", "609": " when", "610": "ass", "611": " dis", "612": "ens", "613": " her", "614": "..", "615": "ach", "616": " people", "617": "ult", "618": " just", "619": "ond", "620": "ance", "621": " tw", "622": " app", "623": " its", "624": "ount", "625": "ree", "626": "port", "627": " into", "628": " It", "629": " what", "630": "fter", "631": "av", "632": " get", "633": "wn", "634": "ish", "635": "ory", "636": " kn", "637": "ident", "638": " them", "639": " rec", "640": " 201", "641": "lic", "642": " Y", "643": "ound", "644": " any", "645": " your", "646": "orm", "647": " pol", "648": " time", "649": "ason", "650": "'t", "651": "ction", "652": "irst", "653": "reat", "654": " pre", "655": "ase", "656": "vel", "657": " \u00e2\u0080\u0094", "658": " she", "659": " if", "660": "ors", "661": "itt", "662": " no", "663": "ang", "664": " Ch", "665": "ick", "666": " play", "667": " 3", "668": "ink", "669": "du", "670": " ro", "671": ".\u00e2\u0080\u009d", "672": "ian", "673": "ition", "674": "ob", "675": "ne", "676": "ause", "677": " V", "678": "ates", "679": "ook", "680": "ings", "681": "ild", "682": " la", "683": " my", "684": " our", "685": "ade", "686": " two", "687": "erv", "688": " after", "689": " first", "690": "old", "691": ",\u00e2\u0080\u009d", "692": " how", "693": " most", "694": " acc", "695": "vers", "696": "nder", "697": "ious", "698": "low", "699": " back", "700": " him", "701": " -", "702": "ict", "703": " could", "704": " <", "705": "hed", "706": "amp", "707": " only", "708": "ual", "709": " bet", "710": "ark", "711": " am", "712": "oy", "713": "hing", "714": " spe", "715": "ck", "716": " work", "717": " att", "718": "ning", "719": ".\"", "720": " inv", "721": " comm", "722": " now", "723": "ces", "724": ",\"", "725": " \u00e2\u0080\u0093", "726": " po", "727": "round", "728": " [", "729": " He", "730": " act", "731": " did", "732": " pr", "733": " des", "734": " co", "735": "te", "736": " years", "737": "ons", "738": "ok", "739": "day", "740": "rough", "741": "man", "742": "form", "743": "ump", "744": " because", "745": " fe", "746": " 19", "747": "clud", "748": "tern", "749": "ft", "750": "\u00e2\u0080\u009c", "751": " want", "752": " bu", "753": " again", "754": "ater", "755": " make", "756": "ments", "757": "ublic", "758": "ents", "759": " even", "760": "urn", "761": " under", "762": " know", "763": " where", "764": "und", "765": " bl", "766": "fere", "767": "we", "768": " show", "769": "ise", "770": "iss", "771": " We", "772": "rit", "773": " every", "774": " sec", "775": " cons", "776": " Tr", "777": " supp", "778": " inc", "779": " And", "780": "sel", "781": " rem", "782": " don", "783": " 4", "784": "row", "785": "fore", "786": " these", "787": "ved", "788": "pect", "789": "vern", "790": "ced", "791": " em", "792": " imp", "793": " being", "794": " add", "795": " But", "796": "Th", "797": "ating", "798": " own", "799": "meric", "800": " ind", "801": " def", "802": "uch", "803": " see", "804": "ational", "805": "ful", "806": " need", "807": " many", "808": "ty", "809": " reg", "810": "ng", "811": " should", "812": " Wh", "813": "other", "814": "van", "815": "ath", "816": " pos", "817": "ec", "818": " last", "819": " then", "820": " may", "821": " right", "822": "ble", "823": "ative", "824": " $", "825": "aking", "826": " pres", "827": " includ", "828": " Un", "829": "ven", "830": "ject", "831": "ased", "832": " dec", "833": " does", "834": "ting", "835": "ron", "836": " sy", "837": " rel", "838": " think", "839": "In", "840": "xt", "841": "arg", "842": " say", "843": " way", "844": " This", "845": " through", "846": " Americ", "847": "ific", "848": " those", "849": "oth", "850": "ove", "851": "ities", "852": "les", "853": " govern", "854": " end", "855": " sm", "856": " col", "857": "hen", "858": "ters", "859": " dif", "860": " very", "861": " gu", "862": " br", "863": "ren", "864": " state", "865": " down", "866": " 5", "867": "als", "868": " fin", "869": " ph", "870": "ts", "871": " ent", "872": " call", "873": "uring", "874": " use", "875": "ix", "876": " start", "877": "ics", "878": "ied", "879": "ible", "880": "lect", "881": "ving", "882": "ange", "883": " sur", "884": " count", "885": "ss", "886": "ited", "887": " ke", "888": " before", "889": " much", "890": "ax", "891": "iew", "892": " fl", "893": "ular", "894": " going", "895": "ward", "896": "ower", "897": "oun", "898": " stud", "899": "ues", "900": " lead", "901": "...", "902": " New", "903": "rib", "904": "ram", "905": "air", "906": " eff", "907": " run", "908": " op", "909": " long", "910": "ock", "911": " point", "912": "ually", "913": " set", "914": "ier", "915": "any", "916": " team", "917": " well", "918": "its", "919": "omet", "920": " good", "921": "ner", "922": " says", "923": "stem", "924": "erm", "925": " law", "926": " gen", "927": "cess", "928": " still", "929": "ince", "930": " wee", "931": "\u00c2\u00ad", "932": "It", "933": " mon", "934": " such", "935": "ork", "936": " hel", "937": "io", "938": " mod", "939": "ull", "940": " game", "941": " government", "942": "ife", "943": "erson", "944": "ars", "945": "ouse", "946": "com", "947": "ists", "948": "ility", "949": " report", "950": "illion", "951": "ady", "952": "\u00e2\u0080\u0094", "953": " made", "954": " ret", "955": "ily", "956": " while", "957": "bs", "958": "ash", "959": " rep", "960": " 6", "961": " sign", "962": " prov", "963": " cr", "964": "000", "965": " around", "966": "ures", "967": " num", "968": "irect", "969": " trans", "970": " ass", "971": "up", "972": " inter", "973": " Re", "974": " Ar", "975": " el", "976": "imes", "977": " season", "978": " gr", "979": "way", "980": "ices", "981": "ives", "982": "ci", "983": "gg", "984": " Trump", "985": "ets", "986": "ee", "987": " min", "988": "ween", "989": "con", "990": "atch", "991": "olog", "992": " inst", "993": "),", "994": "cy", "995": " serv", "996": " same", "997": " help", "998": " ed", "999": " system", "1000": " here", "1001": "ox", "1002": " bel", "1003": "ert", "1004": " str", "1005": " sim", "1006": "ever", "1007": " high", "1008": " ac", "1009": "ys", "1010": "hes", "1011": "ands", "1012": " between", "1013": ").", "1014": " differe", "1015": " against", "1016": "ense", "1017": "ern", "1018": " take", "1019": " De", "1020": "ism", "1021": " support", "1022": "uss", "1023": " produ", "1024": " cle", "1025": " really", "1026": " found", "1027": "hip", "1028": " world", "1029": " fact", "1030": "self", "1031": "ames", "1032": " though", "1033": "gan", "1034": " three", "1035": "uff", "1036": "led", "1037": " cour", "1038": "ves", "1039": " tal", "1040": "alth", "1041": " offic", "1042": " ins", "1043": "velop", "1044": "az", "1045": " det", "1046": " great", "1047": " Al", "1048": " 200", "1049": "ode", "1050": "cept", "1051": " iss", "1052": "ton", "1053": "akes", "1054": " ear", "1055": "oot", "1056": "eral", "1057": " med", "1058": " As", "1059": "ision", "1060": " mem", "1061": "ank", "1062": " used", "1063": "roup", "1064": "rent", "1065": "ollow", "1066": " invest", "1067": " somet", "1068": " open", "1069": " both", "1070": " exp", "1071": "We", "1072": " Cl", "1073": " 10", "1074": " real", "1075": " '", "1076": " public", "1077": " wom", "1078": " bus", "1079": " loc", "1080": " Com", "1081": "ution", "1082": " plan", "1083": "ered", "1084": " happ", "1085": "ph", "1086": "ording", "1087": "cial", "1088": " got", "1089": " cent", "1090": "oh", "1091": " cor", "1092": " ser", "1093": " few", "1094": "ying", "1095": "ines", "1096": " place", "1097": " look", "1098": " sol", "1099": "erest", "1100": "Wh", "1101": " fam", "1102": " contro", "1103": " 8", "1104": " belie", "1105": "ins", "1106": " che", "1107": " big", "1108": " cur", "1109": "aj", "1110": " disc", "1111": "iness", "1112": "arch", "1113": "ah", "1114": " week", "1115": "the", "1116": " ext", "1117": "pr", "1118": " cap", "1119": " If", "1120": "med", "1121": "ave", "1122": " cre", "1123": "ages", "1124": " person", "1125": " direct", "1126": "cent", "1127": "iel", "1128": " home", "1129": " Is", "1130": "arge", "1131": "ared", "1132": " requ", "1133": "ody", "1134": "ather", "1135": " told", "1136": " sub", "1137": " group", "1138": "aw", "1139": " each", "1140": " sl", "1141": " develop", "1142": "uro", "1143": "ivers", "1144": " contin", "1145": "riend", "1146": "ms", "1147": " too", "1148": " find", "1149": " They", "1150": " vot", "1151": " fun", "1152": "orth", "1153": " polit", "1154": " put", "1155": "ool", "1156": "ention", "1157": "ex", "1158": " You", "1159": " head", "1160": "tt", "1161": " another", "1162": "ants", "1163": "uc", "1164": "der", "1165": "get", "1166": " tri", "1167": "ically", "1168": " sch", "1169": "ene", "1170": "ale", "1171": "This", "1172": " car", "1173": " 0", "1174": "ient", "1175": " post", "1176": " lot", "1177": " ep", "1178": " might", "1179": " during", "1180": " allow", "1181": " aut", "1182": "land", "1183": " resp", "1184": " expl", "1185": " child", "1186": "ric", "1187": " poss", "1188": " fil", "1189": " never", "1190": " dem", "1191": " ref", "1192": " art", "1193": "ral", "1194": " power", "1195": " met", "1196": " follow", "1197": " 7", "1198": " exper", "1199": " conf", "1200": " inf", "1201": " hum", "1202": " different", "1203": "ov", "1204": " month", "1205": "att", "1206": " since", "1207": "ling", "1208": " prog", "1209": " ob", "1210": " US", "1211": "ined", "1212": "ittle", "1213": " top", "1214": " seem", "1215": " rele", "1216": " including", "1217": " company", "1218": " far", "1219": " bre", "1220": "ple", "1221": "ired", "1222": " hand", "1223": " Rep", "1224": " care", "1225": " An", "1226": " things", "1227": "ope", "1228": " prot", "1229": " interest", "1230": " That", "1231": " \u00e2\u0080\u0098", "1232": " second", "1233": " opp", "1234": " better", "1235": " Bl", "1236": ".[", "1237": " war", "1238": " build", "1239": " proble", "1240": " leg", "1241": " day", "1242": " comple", "1243": "ering", "1244": " turn", "1245": "ately", "1246": " wr", "1247": " something", "1248": " next", "1249": " Fr", "1250": " pri", "1251": "to", "1252": " pay", "1253": " es", "1254": " epis", "1255": "istr", "1256": " dep", "1257": " best", "1258": "ross", "1259": "ains", "1260": "gy", "1261": " rest", "1262": " gl", "1263": " bro", "1264": "ways", "1265": "'re", "1266": "thing", "1267": "ama", "1268": " life", "1269": " camp", "1270": " appro", "1271": "ret", "1272": "orn", "1273": " hard", "1274": "ized", "1275": " mil", "1276": " job", "1277": "ged", "1278": "ield", "1279": "--", "1280": " del", "1281": " come", "1282": "ead", "1283": " sw", "1284": " pass", "1285": " number", "1286": "ug", "1287": "ably", "1288": "osed", "1289": "ator", "1290": "bers", "1291": " quest", "1292": " million", "1293": " Sh", "1294": " mark", "1295": "less", "1296": " keep", "1297": " Ind", "1298": " ide", "1299": "inal", "1300": " effect", "1301": "ten", "1302": "ize", "1303": " There", "1304": "iet", "1305": "app", "1306": " av", "1307": "ute", "1308": " recent", "1309": " commun", "1310": "ned", "1311": " tax", "1312": "ked", "1313": "els", "1314": " little", "1315": "used", "1316": " without", "1317": " read", "1318": " main", "1319": " Ob", "1320": " Evan", "1321": "ency", "1322": "ohn", "1323": " four", "1324": " For", "1325": "oney", "1326": " business", "1327": " small", "1328": "ready", "1329": "ature", "1330": " police", "1331": "But", "1332": "conom", "1333": " import", "1334": " Euro", "1335": "ards", "1336": " pop", "1337": " near", "1338": " country", "1339": " beh", "1340": "nce", "1341": "ised", "1342": " partic", "1343": " level", "1344": "chn", "1345": " soc", "1346": " 12", "1347": "aps", "1348": " par", "1349": " already", "1350": "ital", "1351": " result", "1352": "ata", "1353": " prev", "1354": "iving", "1355": "ience", "1356": " move", "1357": " American", "1358": "ided", "1359": " news", "1360": "resident", "1361": "ploy", "1362": "ER", "1363": " why", "1364": " 20", "1365": " 9", "1366": "ract", "1367": " women", "1368": "hor", "1369": " ann", "1370": " line", "1371": " ele", "1372": " always", "1373": " How", "1374": "ness", "1375": " story", "1376": " let", "1377": " incre", "1378": " econom", "1379": " est", "1380": "ained", "1381": " list", "1382": " health", "1383": " hist", "1384": " Jew", "1385": "ney", "1386": "ished", "1387": "ides", "1388": "LE", "1389": "He", "1390": " pat", "1391": " eas", "1392": " deal", "1393": " city", "1394": "line", "1395": " doesn", "1396": " adv", "1397": " left", "1398": " didn", "1399": "son", "1400": "ior", "1401": "ik", "1402": "here", "1403": "augh", "1404": " oper", "1405": " friend", "1406": "uck", "1407": " win", "1408": " current", "1409": " char", "1410": " Europe", "1411": "eg", "1412": "aim", "1413": " past", "1414": " episode", "1415": " Bro", "1416": " lo", "1417": " change", "1418": " chang", "1419": "ntil", "1420": "arent", "1421": " prof", "1422": " loo", "1423": "view", "1424": " vis", "1425": " dri", "1426": "be", "1427": " val", "1428": " president", "1429": " money", "1430": " fund", "1431": " She", "1432": " Obama", "1433": " .", "1434": " edit", "1435": " Ph", "1436": "co", "1437": " rese", "1438": "ott", "1439": " thing", "1440": " less", "1441": "atter", "1442": " percent", "1443": " away", "1444": "err", "1445": " project", "1446": " happen", "1447": " bas", "1448": "aff", "1449": " mar", "1450": " free", "1451": " expect", "1452": " adm", "1453": "ream", "1454": "itive", "1455": "formation", "1456": "ajor", "1457": " Buff", "1458": " reason", "1459": " making", "1460": " using", "1461": "ians", "1462": "ds", "1463": " large", "1464": " clear", "1465": " called", "1466": " ve", "1467": " view", "1468": " Pro", "1469": " #", "1470": "side", "1471": "rat", "1472": " kill", "1473": " techn", "1474": " ever", "1475": " So", "1476": " Con", "1477": "reen", "1478": " process", "1479": " case", "1480": "ruct", "1481": "ional", "1482": " players", "1483": " prom", "1484": " least", "1485": " spec", "1486": " const", "1487": "ury", "1488": " los", "1489": " Republic", "1490": " Br", "1491": "ush", "1492": "acy", "1493": " cost", "1494": "An", "1495": " attack", "1496": "ertain", "1497": "atur", "1498": " official", "1499": "work", "1500": " enough", "1501": " Pl", "1502": "iversity", "1503": " tell", "1504": " record", "1505": "me", "1506": "aign", "1507": " form", "1508": " stand", "1509": " deb", "1510": " Sp", "1511": " Be", "1512": "ued", "1513": "idence", "1514": " until", "1515": " done", "1516": "ology", "1517": " won", "1518": " human", "1519": "iven", "1520": "itter", "1521": " air", "1522": " John", "1523": "rap", "1524": "alf", "1525": " program", "1526": "cher", "1527": "'ve", "1528": " major", "1529": " important", "1530": " days", "1531": " cut", "1532": " President", "1533": "verage", "1534": "urity", "1535": " today", "1536": " hour", "1537": " campaign", "1538": "by", "1539": " intern", "1540": " grow", "1541": "resent", "1542": " ra", "1543": " ,", "1544": "iously", "1545": "ina", "1546": "anc", "1547": "ample", "1548": "EN", "1549": " short", "1550": " claim", "1551": " House", "1552": "ality", "1553": " term", "1554": " room", "1555": " political", "1556": " conc", "1557": " become", "1558": "que", "1559": "ger", "1560": "ccess", "1561": "As", "1562": "50", "1563": " must", "1564": " feel", "1565": " --", "1566": "urs", "1567": "ris", "1568": "most", "1569": "aining", "1570": " kind", "1571": " five", "1572": "vert", "1573": "ront", "1574": "oll", "1575": "ending", "1576": " return", "1577": " prob", "1578": " old", "1579": "rop", "1580": "10", "1581": " class", "1582": " Mar", "1583": "ases", "1584": "99", "1585": " dist", "1586": "ots", "1587": "gin", "1588": "enn", "1589": " took", "1590": " later", "1591": " gener", "1592": " elect", "1593": " able", "1594": " United", "1595": "stand", "1596": "aring", "1597": " test", "1598": " design", "1599": " charac", "1600": " arg", "1601": "ones", "1602": "iver", "1603": "ald", "1604": "There", "1605": " times", "1606": " 18", "1607": "ogn", "1608": "oard", "1609": " impro", "1610": " fac", "1611": "yp", "1612": "ister", "1613": "ched", "1614": "'m", "1615": " rece", "1616": " proper", "1617": " polic", "1618": " data", "1619": "raft", "1620": "ither", "1621": " according", "1622": "idd", "1623": "MA", "1624": " sing", "1625": " games", "1626": " bit", "1627": " Tw", "1628": "crib", "1629": " working", "1630": " equ", "1631": " Buffy", "1632": "ggest", "1633": "ball", "1634": " stop", "1635": " control", "1636": " ago", "1637": "ane", "1638": " At", "1639": " suggest", "1640": " invol", "1641": " Le", "1642": "ured", "1643": " Can", "1644": "yn", "1645": " vide", "1646": " stat", "1647": " sk", "1648": " came", "1649": "oph", "1650": "ember", "1651": " often", "1652": " Ad", "1653": " X", "1654": " school", "1655": " problem", "1656": " order", "1657": " family", "1658": " full", "1659": "ential", "1660": " makes", "1661": " Mc", "1662": " product", "1663": " aff", "1664": " Russ", "1665": "season", "1666": "lo", "1667": " sure", "1668": " having", "1669": " ant", "1670": " ]", "1671": " pot", "1672": " eng", "1673": "ulation", "1674": "ony", "1675": "inton", "1676": " sever", "1677": " prop", "1678": " press", "1679": " market", "1680": " miss", "1681": " early", "1682": "por", "1683": "ising", "1684": "arter", "1685": " possible", "1686": " information", "1687": "ified", "1688": " sit", "1689": " orig", "1690": " issue", "1691": " cond", "1692": "rew", "1693": "af", "1694": "St", "1695": " sex", "1696": " former", "1697": " compet", "1698": " believe", "1699": "ries", "1700": "ortun", "1701": "br", "1702": " mean", "1703": " mus", "1704": " hold", "1705": "ware", "1706": "back", "1707": "ails", "1708": " var", "1709": " sour", "1710": " media", "1711": " bill", "1712": " Comm", "1713": " Cal", "1714": "rist", "1715": "outh", "1716": "leg", "1717": " went", "1718": " actually", "1719": "ories", "1720": "empt", "1721": " give", "1722": " State", "1723": "rest", "1724": "for", "1725": "artment", "1726": "aken", "1727": " meet", "1728": " night", "1729": " lear", "1730": " appear", "1731": " York", "1732": " 11", "1733": " seen", "1734": "oint", "1735": "mber", "1736": " water", "1737": " children", "1738": "istic", "1739": "ensive", "1740": "ended", "1741": "ators", "1742": " success", "1743": " saf", "1744": " milit", "1745": " men", "1746": "use", "1747": " several", "1748": " mom", "1749": " local", "1750": "ley", "1751": "ived", "1752": " @", "1753": "ument", "1754": "If", "1755": " priv", "1756": " along", "1757": " across", "1758": " Z", "1759": "ster", "1760": "ote", "1761": " employ", "1762": " When", "1763": "ird", "1764": "allen", "1765": "LEX", "1766": " represent", "1767": " cust", "1768": " Or", "1769": " Aust", "1770": " ident", "1771": "ipp", "1772": "ashing", "1773": " low", "1774": " course", "1775": " close", "1776": " University", "1777": " Q", "1778": "year", "1779": "ider", "1780": "ALEX", "1781": " known", "1782": " doing", "1783": " comb", "1784": " anim", "1785": "orts", "1786": " young", "1787": " non", "1788": " activ", "1789": "utes", "1790": "iting", "1791": "iam", "1792": "ann", "1793": " organ", "1794": " Sc", "1795": "\u00c3\u00a9", "1796": "ocrat", "1797": "imate", "1798": "iol", "1799": "ague", "1800": " yet", "1801": " isn", "1802": " history", "1803": " author", "1804": " Te", "1805": " =", "1806": "aged", "1807": " six", "1808": " indust", "1809": " event", "1810": " almost", "1811": " What", "1812": "icle", "1813": "ada", "1814": "IS", "1815": "Ch", "1816": "201", "1817": " whether", "1818": " writ", "1819": " que", "1820": " national", "1821": " investig", "1822": "ilar", "1823": "iber", "1824": " half", "1825": " foot", "1826": " entire", "1827": " book", "1828": " Am", "1829": "let", "1830": " study", "1831": " occ", "1832": " hig", "1833": " fut", "1834": " Col", "1835": " thought", "1836": " idea", "1837": " example", "1838": " court", "1839": " behind", "1840": " All", "1841": " vers", "1842": "ivid", "1843": "ium", "1844": " name", "1845": " dev", "1846": "unch", "1847": "raw", "1848": "ially", "1849": " quick", "1850": " dr", "1851": " compl", "1852": " added", "1853": " One", "1854": " Clinton", "1855": "ubl", "1856": "oci", "1857": " within", "1858": " reported", "1859": " given", "1860": " Har", "1861": " Dem", "1862": " 30", "1863": " sus", "1864": " question", "1865": " light", "1866": " access", "1867": " opt", "1868": " comes", "1869": " colle", "1870": " asked", "1871": "oto", "1872": "osp", "1873": "ization", "1874": "ief", "1875": " social", "1876": " sent", "1877": " getting", "1878": " avail", "1879": " Brit", "1880": ".,", "1881": " stre", "1882": " once", "1883": " months", "1884": " Se", "1885": "elf", "1886": "12", "1887": " land", "1888": "nect", "1889": "erman", "1890": "aul", "1891": " ban", "1892": " among", "1893": " Cr", "1894": " started", "1895": " side", "1896": " Sen", "1897": "though", "1898": "inc", "1899": " particular", "1900": " based", "1901": " announ", "1902": "sw", "1903": "What", "1904": " video", "1905": " perform", "1906": " fig", "1907": " No", "1908": " America", "1909": " Ang", "1910": "ted", "1911": "itional", "1912": " services", "1913": " music", "1914": " lim", "1915": " future", "1916": "cially", "1917": "aces", "1918": " trying", "1919": " sound", "1920": " pret", "1921": " means", "1922": " States", "1923": " Sy", "1924": " Pr", "1925": "gle", "1926": "ederal", "1927": "And", "1928": "//", "1929": " pur", "1930": " fr", "1931": " evidence", "1932": " else", "1933": " Im", "1934": "itions", "1935": " viol", "1936": " redu", "1937": " office", "1938": " members", "1939": " likely", "1940": " community", "1941": " ca", "1942": " others", "1943": " concern", "1944": "book", "1945": "11", "1946": " understand", "1947": " states", "1948": " present", "1949": " front", "1950": " complete", "1951": " crit", "1952": " certain", "1953": " On", "1954": " Min", "1955": " 2015", "1956": "ober", "1957": "ission", "1958": "gether", "1959": " together", "1960": " space", "1961": " saying", "1962": " ris", "1963": " party", "1964": " Don", "1965": " 2016", "1966": " doc", "1967": " custom", "1968": " cult", "1969": " GO", "1970": " Austral", "1971": " 199", "1972": "\u00c3\u00a1", "1973": "ery", "1974": "aper", "1975": " mult", "1976": " available", "1977": " Ex", "1978": " Christ", "1979": "CO", "1980": " mor", "1981": " individ", "1982": " fre", "1983": " bar", "1984": " anything", "1985": "ype", "1986": "orld", "1987": "bit", "1988": "arm", "1989": "You", "1990": "Evan", "1991": " pick", "1992": " fight", "1993": "ograp", "1994": "ificant", "1995": "19", "1996": " rul", "1997": " house", "1998": " following", "1999": " fail", "2000": " decl", "2001": "ashington", "2002": " tre", "2003": " neg", "2004": " foc", "2005": " Republican", "2006": "wh", "2007": "urther", "2008": "sy", "2009": "not", "2010": "lement", "2011": "ability", "2012": " toward", "2013": " strong", "2014": " pract", "2015": " exist", "2016": " building", "2017": " anal", "2018": " average", "2019": " May", "2020": "of", "2021": "iron", "2022": "ades", "2023": " friends", "2024": " film", "2025": " bene", "2026": "sh", "2027": "gs", "2028": " treat", "2029": " taken", "2030": " shows", "2031": " service", "2032": " nothing", "2033": " cou", "2034": "rodu", "2035": "ourn", "2036": "itting", "2037": "20", "2038": " tot", "2039": " running", "2040": " looking", "2041": " fore", "2042": " fav", "2043": "\u00e2\u0080\u00a6", "2044": "ination", "2045": "eb", "2046": "Ad", "2047": " someone", "2048": " net", "2049": " individual", "2050": " either", "2051": " death", "2052": " cand", "2053": " bad", "2054": "\u00c3\u00b3", "2055": "play", "2056": "obal", "2057": "ien", "2058": "IN", "2059": "30", "2060": " military", "2061": " black", "2062": " Will", "2063": " 15", "2064": "For", "2065": "].", "2066": " series", "2067": " seems", "2068": " rather", "2069": " pain", "2070": " discuss", "2071": " above", "2072": " Jewish", "2073": " Bar", "2074": "ttp", "2075": "oke", "2076": "head", "2077": "Mac", "2078": " enc", "2079": " creat", "2080": " body", "2081": " North", "2082": " Democrat", "2083": "uge", "2084": "ongress", "2085": "inistr", "2086": "ept", "2087": "ev", "2088": " love", "2089": " function", "2090": " ey", "2091": " dam", "2092": " account", "2093": "ze", "2094": "itch", "2095": "ental", "2096": "ches", "2097": "ats", "2098": " wrong", "2099": " sum", "2100": " fire", "2101": " White", "2102": " Pol", "2103": "\u00c3\u00ad", "2104": " taking", "2105": " mill", "2106": " area", "2107": " Cent", "2108": "ung", "2109": "pite", "2110": "ef", "2111": "aster", "2112": " tem", "2113": " security", "2114": " live", "2115": " attempt", "2116": " Jan", "2117": "uly", "2118": "pecially", "2119": "body", "2120": "When", "2121": "On", "2122": " significant", "2123": " sense", "2124": " repl", "2125": " policy", "2126": " model", "2127": " issues", "2128": " became", "2129": " However", "2130": "arth", "2131": "Ian", "2132": ".)", "2133": " mess", "2134": " final", "2135": " bring", "2136": " Washington", "2137": " Dep", "2138": "ondon", "2139": "ado", "2140": "That", "2141": " wa", "2142": " single", "2143": " himself", "2144": " 2014", "2145": "ply", "2146": "medi", "2147": "ison", "2148": "ino", "2149": "inking", "2150": "cle", "2151": "MacIan", "2152": "EvanMacIan", "2153": " specific", "2154": " coming", "2155": " Intern", "2156": " Congress", "2157": " 2012", "2158": "igr", "2159": "cing", "2160": "atures", "2161": "ai", "2162": " wanted", "2163": " similar", "2164": " meas", "2165": " leaders", "2166": " key", "2167": " economic", "2168": " benef", "2169": " Sec", "2170": " Mr", "2171": " Gu", "2172": " Fl", "2173": "sc", "2174": "mb", "2175": "ently", "2176": "atic", "2177": "ana", "2178": "aut", "2179": " probably", "2180": " playing", "2181": " player", "2182": " connect", "2183": " Co", "2184": "read", "2185": "irl", "2186": "iday", "2187": "'ll", "2188": " watch", "2189": " targ", "2190": " solar", "2191": " mass", "2192": " hit", "2193": " challen", "2194": " coun", "2195": " ball", "2196": " amount", "2197": " ap", "2198": " European", "2199": " i", "2200": "umb", "2201": "ively", "2202": "ibility", "2203": "cer", "2204": "asing", "2205": "anies", "2206": "acebook", "2207": "15", "2208": " provide", "2209": " imm", "2210": " begin", "2211": " Ag", "2212": "une", "2213": "nes", "2214": " wal", "2215": " trad", "2216": " laws", "2217": " charg", "2218": " ce", "2219": "oud", "2220": "oice", "2221": "anders", "2222": "aced", "2223": "ault", "2224": "LU", "2225": "AT", "2226": "://", "2227": " special", "2228": " pretty", "2229": " larg", "2230": " however", "2231": " describ", "2232": " answ", "2233": " To", "2234": " Ge", "2235": " City", "2236": " 100", "2237": " &", "2238": "rote", "2239": "lier", "2240": "itted", "2241": " industry", "2242": " fall", "2243": " env", "2244": " decision", "2245": " character", "2246": "oogle", "2247": "ecut", "2248": "22", "2249": " sen", "2250": " points", "2251": " pie", "2252": " mag", "2253": " War", "2254": " National", "2255": "oring", "2256": "ites", "2257": " speak", "2258": " quite", "2259": " events", "2260": " candid", "2261": "iter", "2262": "iety", "2263": " whole", "2264": " threat", "2265": " dom", "2266": " break", "2267": "ww", "2268": "udge", "2269": "ude", "2270": "ming", "2271": "ires", "2272": "go", "2273": "angu", "2274": "ape", "2275": " wrote", "2276": " true", "2277": " protect", "2278": " potential", "2279": " instead", "2280": " hours", "2281": " food", "2282": " everyone", "2283": "sk", "2284": "ried", "2285": "ograph", "2286": "ivil", "2287": "fully", "2288": " suff", "2289": " especially", "2290": " cal", "2291": " Pal", "2292": "ners", "2293": "ference", "2294": "era", "2295": "chers", "2296": " talk", "2297": " takes", "2298": " super", "2299": " stri", "2300": " officials", "2301": " dru", "2302": " continue", "2303": "irt", "2304": " wasn", "2305": " ste", "2306": " soon", "2307": " minutes", "2308": " exact", "2309": " create", "2310": " companies", "2311": " changes", "2312": " cy", "2313": " 16", "2314": "selves", "2315": " weap", "2316": " require", "2317": " finan", "2318": " federal", "2319": " 17", "2320": " 14", "2321": "ural", "2322": "rael", "2323": "put", "2324": "par", "2325": "ler", "2326": "ilt", "2327": "ccording", "2328": " try", "2329": " tra", "2330": " relations", "2331": " recently", "2332": " rate", "2333": " mov", "2334": " experience", "2335": " dou", "2336": " countries", "2337": " broad", "2338": " below", "2339": " Man", "2340": " Dav", "2341": "okes", "2342": "oor", "2343": "off", "2344": "hood", "2345": "ham", "2346": "ging", "2347": "ech", "2348": "cil", "2349": "attle", "2350": " statement", "2351": " respons", "2352": " research", "2353": " outside", "2354": " improve", "2355": " billion", "2356": " agree", "2357": " Just", "2358": "lu", "2359": "ilities", "2360": "ids", "2361": "fic", "2362": "error", "2363": "ergy", "2364": "They", "2365": "So", "2366": "ENT", "2367": " weeks", "2368": " site", "2369": " position", "2370": " moment", "2371": " mind", "2372": " include", "2373": " face", "2374": " World", "2375": " Sch", "2376": " Red", "2377": " Hill", "2378": " En", "2379": " Crash", "2380": "\u00c4\u00b1", "2381": "iddle", "2382": "How", "2383": " ur", "2384": " role", "2385": " profess", "2386": " publ", "2387": " opportun", "2388": " jobs", "2389": " action", "2390": " Twitter", "2391": " London", "2392": " Ed", "2393": "my", "2394": "ify", "2395": "ibr", "2396": "16", "2397": " surpr", "2398": " released", "2399": " release", "2400": " ple", "2401": " itself", "2402": " inj", "2403": " forward", "2404": " conv", "2405": " Sw", "2406": " Eng", "2407": "ua", "2408": "ples", "2409": "oss", "2410": "over", "2411": "lev", "2412": "ittee", "2413": "ique", "2414": "ask", "2415": " rights", "2416": " langu", "2417": " involved", "2418": " due", "2419": " Oct", "2420": "pro", "2421": "lish", "2422": "light", "2423": "iles", "2424": "add", "2425": " words", "2426": " vote", "2427": " parent", "2428": " further", "2429": " Su", "2430": " Part", "2431": " Israel", "2432": " Gr", "2433": " Google", "2434": " Calif", "2435": " 2017", "2436": "olution", "2437": "ety", "2438": " situ", "2439": " oil", "2440": " obs", "2441": " living", "2442": " jo", "2443": " host", "2444": " capt", "2445": " administr", "2446": " West", "2447": " TV", "2448": " Inst", "2449": " 198", "2450": "ctor", "2451": " field", "2452": " comment", "2453": " check", "2454": " With", "2455": " Do", "2456": "ironment", "2457": " version", "2458": " simply", "2459": " protest", "2460": " immedi", "2461": " dest", "2462": " consum", "2463": " These", "2464": " 50", "2465": " z", "2466": "ption", "2467": "haps", "2468": "fer", "2469": "ems", "2470": "bo", "2471": "RA", "2472": "BC", "2473": " shot", "2474": " slow", "2475": " red", "2476": " higher", "2477": " exc", "2478": " card", "2479": " abs", "2480": " Wal", "2481": "ournal", "2482": "omes", "2483": "ees", "2484": "ances", "2485": " step", "2486": " offer", "2487": " late", "2488": " interview", "2489": " Paul", "2490": " Car", "2491": " Ass", "2492": "like", "2493": "iple", "2494": "iding", "2495": "erry", "2496": "ero", "2497": "aid", "2498": "MB", "2499": "At", "2500": " ways", "2501": " stay", "2502": " private", "2503": " held", "2504": " development", "2505": " El", "2506": "str", "2507": "gr", "2508": "astic", "2509": "MENT", "2510": " works", "2511": " spent", "2512": " property", "2513": " base", "2514": " arrest", "2515": "time", "2516": "ese", "2517": "ender", "2518": "ON", "2519": " needs", "2520": " defin", "2521": " contract", "2522": " comput", "2523": " cell", "2524": " boy", "2525": " anti", "2526": "where", "2527": "ored", "2528": "ico", "2529": "ients", "2530": "fect", "2531": "ends", "2532": "17", "2533": " woman", "2534": " self", "2535": " resident", "2536": " online", "2537": " lat", "2538": " init", "2539": " everything", "2540": " address", "2541": " Sept", "2542": " News", "2543": " Mart", "2544": " Ir", "2545": " Friday", "2546": " Department", "2547": " Angel", "2548": "na", "2549": "mp", "2550": "itiz", "2551": "clus", "2552": "aur", "2553": " webs", "2554": " students", "2555": " phone", "2556": " object", "2557": " dead", "2558": " common", "2559": " began", "2560": " Not", "2561": "sec", "2562": "ression", "2563": "omb", "2564": "istrict", "2565": "irc", "2566": "FL", "2567": " wind", "2568": " played", "2569": "tr", "2570": "ctions", "2571": " track", "2572": " third", "2573": " regul", "2574": " rev", "2575": " nearly", "2576": " necess", "2577": " goes", "2578": " easy", "2579": " cred", "2580": " applic", "2581": " Res", "2582": " His", "2583": "elt", "2584": "AS", "2585": " sold", "2586": " quickly", "2587": " pack", "2588": " deep", "2589": " BLU", "2590": " App", "2591": "amed", "2592": "aging", "2593": " vict", "2594": " users", "2595": " total", "2596": " questions", "2597": " problems", "2598": " original", "2599": " mother", "2600": " mis", "2601": " div", "2602": " cover", "2603": "vertise", "2604": "val", "2605": "raq", "2606": "orters", "2607": "onse", "2608": "now", "2609": "no", "2610": "imum", "2611": "PJ", "2612": "MBER", "2613": " vol", "2614": " systems", "2615": " sal", "2616": " runs", "2617": " reve", "2618": " pict", "2619": " lost", "2620": " groups", "2621": " famil", "2622": " appe", "2623": " age", "2624": " Russia", "2625": " Rom", "2626": " Med", "2627": " British", "2628": " Americans", "2629": "uses", "2630": "reme", "2631": "oul", "2632": "irm", "2633": "hern", "2634": "hel", "2635": "ached", "2636": "2010", "2637": " personal", "2638": " mater", "2639": " global", "2640": " general", "2641": " eight", "2642": " door", "2643": " demand", "2644": " anyone", "2645": " After", "2646": "yle", "2647": "hold", "2648": "eng", "2649": "atory", "2650": "aries", "2651": "\".", "2652": " mot", "2653": " led", "2654": " lack", "2655": " guy", "2656": " energy", "2657": " earlier", "2658": " determ", "2659": " Me", "2660": " German", "2661": " Californ", "2662": " Aug", "2663": " 25", "2664": " 13", "2665": "rel", "2666": "raz", "2667": "lex", "2668": "iod", "2669": "ago", "2670": "MBERG", "2671": "COM", "2672": " upd", "2673": " target", "2674": " staff", "2675": " source", "2676": " sat", "2677": " risk", "2678": " language", "2679": " ground", "2680": " favor", "2681": " BLUMBERG", "2682": "ourt", "2683": "ops", "2684": "joy", "2685": "ager", "2686": " relig", "2687": " quarter", "2688": " currently", "2689": " created", "2690": " Ste", "2691": " Par", "2692": "uary", "2693": "ring", "2694": "ficult", "2695": " technology", "2696": " phys", "2697": " port", "2698": " financial", "2699": " execut", "2700": " engine", "2701": " di", "2702": " den", "2703": " bail", "2704": " announced", "2705": " Facebook", "2706": " California", "2707": " 2013", "2708": "ructure", "2709": "lt", "2710": "lam", "2711": "13", "2712": " workers", "2713": " wants", "2714": " value", "2715": " remains", "2716": " hon", "2717": "ucle", "2718": "uments", "2719": "imin", "2720": "ges", "2721": "den", "2722": " via", "2723": " thous", "2724": " surv", "2725": " mat", "2726": " impact", "2727": " emer", "2728": " consider", "2729": " PT", "2730": " Iraq", "2731": "using", "2732": "ursday", "2733": "rect", "2734": "oid", "2735": "itten", "2736": "ining", "2737": "ighb", "2738": "based", "2739": "LD", "2740": " squ", "2741": " relationship", "2742": " prim", "2743": " introdu", "2744": " environment", "2745": " boo", "2746": " board", "2747": " answer", "2748": " Fox", "2749": " Act", "2750": "rought", "2751": "ival", "2752": "ift", "2753": "aving", "2754": " typ", "2755": " stress", "2756": " mid", "2757": " lower", "2758": " happened", "2759": " election", "2760": " decided", "2761": " content", "2762": " Sm", "2763": " Off", "2764": " Gl", "2765": "epend", "2766": "antas", "2767": "To", "2768": "She", "2769": " themselves", "2770": " stru", "2771": " respond", "2772": " difficult", "2773": " cogn", "2774": " March", "2775": " Australia", "2776": " 40", "2777": "set", "2778": "rian", "2779": "lation", "2780": "iers", "2781": "Con", "2782": " text", "2783": " respect", "2784": " meeting", "2785": " material", "2786": " hope", "2787": " fans", "2788": " coll", "2789": " civil", "2790": " bud", "2791": " approach", "2792": " Thursday", "2793": " Gen", "2794": "\u00e2\u0080\u0093", "2795": "uesday", "2796": "rench", "2797": "reg", "2798": "gest", "2799": "ermal", "2800": "ban", "2801": "alo", "2802": "Ph", "2803": "14", "2804": " twe", "2805": " resear", "2806": " pers", "2807": " matter", "2808": " lives", "2809": " lab", "2810": " educ", "2811": " dig", "2812": " couple", "2813": " box", "2814": " Sund", "2815": " Some", "2816": " Sanders", "2817": " >", "2818": "ribut", "2819": "ought", "2820": "omm", "2821": "isc", "2822": "ermalink", "2823": "Permalink", "2824": "COMMENT", "2825": " worth", "2826": " surve", "2827": " strate", "2828": " results", "2829": " products", "2830": " killed", "2831": " international", "2832": " image", "2833": " goal", "2834": " concept", "2835": "ospital", "2836": "erous", "2837": "Re", "2838": "Al", "2839": " showed", "2840": " reports", "2841": " prep", "2842": " period", "2843": " perfect", "2844": " particip", "2845": " pull", "2846": " longer", "2847": " inside", "2848": " growth", "2849": " career", "2850": " crow", "2851": " allowed", "2852": " ability", "2853": " While", "2854": " Sunday", "2855": " Geor", "2856": " China", "2857": " {", "2858": "lying", "2859": "ips", "2860": "atives", "2861": " word", "2862": " white", "2863": " scope", "2864": " rad", "2865": " numbers", "2866": " norm", "2867": " gave", "2868": " enjoy", "2869": " complex", "2870": " Tuesday", "2871": " NFL", "2872": " ...", "2873": "\u00c3\u00b3n", "2874": "uit", "2875": "ounds", "2876": "itution", "2877": "ises", "2878": "ications", "2879": "iwork", "2880": "RE", "2881": "Bron", "2882": " talking", "2883": " stere", "2884": " saw", "2885": " response", "2886": " race", "2887": " performance", "2888": " medical", "2889": " Senate", "2890": " South", "2891": " Now", "2892": " Count", "2893": " Ben", "2894": "iny", "2895": "----", "2896": " secret", "2897": " records", "2898": " presidential", "2899": " neighb", "2900": " legal", "2901": " leave", "2902": " latest", "2903": " heart", "2904": " effects", "2905": " collect", "2906": " My", "2907": " Mich", "2908": " Jews", "2909": " EU", "2910": " August", "2911": "onday", "2912": "ixed", "2913": "ills", "2914": "estern", "2915": "eed", "2916": "berg", "2917": "?\u00e2\u0080\u009d", "2918": " wall", "2919": " simple", "2920": " sexual", "2921": " seven", "2922": " popular", "2923": " needed", "2924": " leading", "2925": " huge", "2926": " football", "2927": " estab", "2928": " demon", "2929": " cannot", "2930": " cam", "2931": " buy", "2932": " bo", "2933": " First", "2934": " Brown", "2935": "sych", "2936": "renia", "2937": "rs", "2938": "ows", "2939": "ophrenia", "2940": "oad", "2941": "izophrenia", "2942": "gress", "2943": "down", "2944": "atural", "2945": "aint", "2946": "No", "2947": " website", "2948": " terms", "2949": " ten", "2950": " shoot", "2951": " screen", "2952": " sell", "2953": " road", "2954": " population", "2955": " modern", "2956": " lay", "2957": " chance", "2958": " administration", "2959": " aud", "2960": " Pe", "2961": " Go", "2962": "uby", "2963": "upp", "2964": "ruction", "2965": "pped", "2966": "oe", "2967": "itizens", "2968": "icated", "2969": "iant", "2970": "AN", "2971": " spokes", "2972": " phot", "2973": " pred", "2974": " league", "2975": " gun", "2976": " exactly", "2977": " doll", "2978": " block", "2979": " article", "2980": " areas", "2981": " July", "2982": " David", "2983": " 24", "2984": " ill", "2985": "ule", "2986": "pre", "2987": "lim", "2988": "ij", "2989": "ares", "2990": " speech", "2991": " review", "2992": " quality", "2993": " poll", "2994": " pal", "2995": " esc", "2996": " center", "2997": " associ", "2998": " October", "2999": " January", "3000": " French", "3001": "tain", "3002": "ovember", "3003": "mon", "3004": "inks", "3005": "ille", "3006": "ecause", "3007": "apan", "3008": "action", "3009": "?\"", "3010": " visit", "3011": " share", "3012": " schizophrenia", "3013": " repe", "3014": " parts", "3015": " paper", "3016": " knew", "3017": " expected", "3018": " coach", "3019": " UK", "3020": " Tex", "3021": " India", "3022": "vertisement", "3023": "izing", "3024": "iction", "3025": "de", "3026": "ams", "3027": "airs", "3028": "Get", "3029": "\",", "3030": " worked", "3031": " turned", "3032": " terror", "3033": " stereot", "3034": " rules", "3035": " ones", "3036": " looks", "3037": " lic", "3038": " emb", "3039": " date", "3040": " September", "3041": " Monday", "3042": "vere", "3043": "uel", "3044": "ta", "3045": "han", "3046": "duct", "3047": "cast", "3048": " tit", "3049": " researchers", "3050": " request", "3051": " recogn", "3052": " plans", "3053": " member", "3054": " liter", "3055": " interesting", "3056": " hop", "3057": " forces", "3058": " details", "3059": " customers", "3060": " culture", "3061": " corpor", "3062": " controll", "3063": " club", "3064": " circ", "3065": " Af", "3066": " \u00c2", "3067": "pril", "3068": "oming", "3069": "ession", "3070": "eration", "3071": "cember", "3072": "Brony", "3073": "25", "3074": " safety", "3075": " rac", "3076": " gets", "3077": " girl", "3078": " features", "3079": " director", "3080": " debate", "3081": " bir", "3082": " attention", "3083": " Pat", "3084": " Japan", "3085": " Donald", "3086": "vent", "3087": "ek", "3088": "ST", "3089": " thousands", "3090": " teams", "3091": " tou", "3092": " ter", "3093": " reveal", "3094": " received", "3095": " prior", "3096": " owners", "3097": " nucle", "3098": " loss", "3099": " implement", "3100": " heav", "3101": " hor", "3102": " draw", "3103": " accept", "3104": " East", "3105": " (@", "3106": "order", "3107": "omp", "3108": "nesday", "3109": "isions", "3110": "inn", "3111": "iff", "3112": "ednesday", "3113": "Aniwork", "3114": " tool", "3115": " star", "3116": " resour", "3117": " published", "3118": " pan", "3119": " opportunity", "3120": " las", "3121": " bur", "3122": " affect", "3123": " Mus", "3124": " December", "3125": " 2011", "3126": " 21", "3127": " }", "3128": "urch", "3129": "room", "3130": "ellig", "3131": "chie", "3132": "aughter", "3133": "ander", "3134": "amb", "3135": " towards", "3136": " statist", "3137": " situation", "3138": " serious", "3139": " ready", "3140": " nation", "3141": " hear", "3142": " fell", "3143": " fair", "3144": " document", "3145": " alle", "3146": " aim", "3147": " Court", "3148": " Bre", "3149": "ysis", "3150": "right", "3151": "ray", "3152": "rast", "3153": "key", "3154": "imately", "3155": "ING", "3156": " tried", "3157": " separ", "3158": " remo", "3159": " reach", "3160": " progress", "3161": " mach", "3162": " levels", "3163": " guys", "3164": " cause", "3165": " cast", "3166": " Wednesday", "3167": " November", "3168": " Des", "3169": " Del", "3170": "osing", "3171": "ening", "3172": "cul", "3173": "cri", "3174": "80", "3175": "60", "3176": " veh", "3177": " various", "3178": " stra", "3179": " scient", "3180": " son", "3181": " price", "3182": " plat", "3183": " pen", "3184": " meth", "3185": " legis", "3186": " hy", "3187": " cities", "3188": " although", "3189": " agua", "3190": " Serv", "3191": " Ab", "3192": "pir", "3193": "nces", "3194": "While", "3195": "BI", "3196": "AP", "3197": " written", "3198": " wouldn", "3199": " voters", "3200": " trial", "3201": " sett", "3202": " regular", "3203": " multiple", "3204": " meaning", "3205": " investigation", "3206": " influ", "3207": " finally", "3208": " fem", "3209": " changed", "3210": " chief", "3211": " cop", "3212": " built", "3213": " bank", "3214": " achie", "3215": " June", "3216": " County", "3217": " April", "3218": " Ant", "3219": " 2008", "3220": "yond", "3221": "undred", "3222": "rio", "3223": "ledge", "3224": "ishing", "3225": "ground", "3226": "etro", "3227": "aturday", "3228": "One", "3229": " susp", "3230": " morning", "3231": " link", "3232": " email", "3233": " alleged", "3234": " Ruby", "3235": " IS", "3236": " CG", "3237": " /", "3238": "roll", "3239": "rain", "3240": "ports", "3241": "ously", "3242": "omen", "3243": "ibly", "3244": "enc", "3245": "cement", "3246": "ceed", "3247": "Sh", "3248": " wide", "3249": " travel", "3250": " trade", "3251": " subs", "3252": " size", "3253": " regard", "3254": " ran", "3255": " included", "3256": " immediately", "3257": " ens", "3258": " economy", "3259": " costs", "3260": " Play", "3261": " Jack", "3262": " Feb", "3263": " \u00e2", "3264": "ole", "3265": "idered", "3266": "aily", "3267": " starting", "3268": " restaur", "3269": " relative", "3270": " poor", "3271": " nic", "3272": " nature", "3273": " flow", "3274": " doub", "3275": " brought", "3276": " bal", "3277": " aren", "3278": " accused", "3279": " Tur", "3280": " Even", "3281": " Earth", "3282": "ties", "3283": "mit", "3284": "load", "3285": "itor", "3286": "ida", "3287": "iar", "3288": "ension", "3289": "arily", "3290": "With", "3291": "Tr", "3292": "200", "3293": " una", "3294": " provided", "3295": " previous", "3296": " officer", "3297": " movement", "3298": " movie", "3299": " libr", "3300": " extra", "3301": " except", "3302": " eventually", "3303": " et", "3304": " disapp", "3305": " dro", "3306": " conditions", "3307": " climate", "3308": " century", "3309": " bi", "3310": " arri", "3311": " agency", "3312": " ahead", "3313": " Saturday", "3314": " San", "3315": " Party", "3316": " Ev", "3317": " Canada", "3318": " By", "3319": " ut", "3320": " ir", "3321": "yan", "3322": "ume", "3323": "reet", "3324": "alled", "3325": "abil", "3326": " stories", "3327": " soft", "3328": " pressure", "3329": " leader", "3330": " integ", "3331": " http", "3332": " focus", "3333": " conserv", "3334": " Of", "3335": " Mon", "3336": " Kore", "3337": " Dr", "3338": " Black", "3339": " Big", "3340": "sequ", "3341": "ological", "3342": "gen", "3343": "erve", "3344": "ara", "3345": "affic", "3346": "__", "3347": "70", "3348": " traffic", "3349": " subject", "3350": " strugg", "3351": " rates", "3352": " path", "3353": " increasing", "3354": " histor", "3355": " Russian", "3356": " +", "3357": "uf", "3358": "icted", "3359": "icles", "3360": "icks", "3361": "eth", "3362": "ences", "3363": "come", "3364": "arks", "3365": "Don", "3366": "24", "3367": " weapons", "3368": " wond", "3369": " signed", "3370": " science", "3371": " region", "3372": " parents", "3373": " moving", "3374": " learn", "3375": " journal", "3376": " heard", "3377": " gone", "3378": " force", "3379": " despite", "3380": " cognitive", "3381": " characters", "3382": " additional", "3383": " Day", "3384": "\u00e2\u0080\u009d.", "3385": "uing", "3386": "odes", "3387": "idge", "3388": "aks", "3389": "New", "3390": "MAN", "3391": "18", "3392": " tur", "3393": " summer", "3394": " straight", "3395": " remain", "3396": " rout", "3397": " prevent", "3398": " perhaps", "3399": " particularly", "3400": " mob", "3401": " message", "3402": " majority", "3403": " middle", "3404": " log", "3405": " immigr", "3406": " hands", "3407": " fast", "3408": " efforts", "3409": " claims", "3410": " candidate", "3411": " calls", "3412": " animals", "3413": " Brook", "3414": "osition", "3415": "oron", "3416": "het", "3417": "enty", "3418": "'d", "3419": " unf", "3420": " treatment", "3421": " table", "3422": " named", "3423": " models", "3424": " increased", "3425": " increase", "3426": " figure", "3427": " fit", "3428": " dang", "3429": " James", "3430": "undrio", "3431": "ully", "3432": "ps", "3433": "ping", "3434": "pen", "3435": "ken", "3436": "i\u00c3\u00b3n", "3437": "edom", "3438": "band", "3439": " usually", "3440": " studies", "3441": " platform", "3442": " meant", "3443": " mention", "3444": " load", "3445": " launch", "3446": " hous", "3447": " exam", "3448": " directly", "3449": " damage", "3450": " conduct", "3451": " budget", "3452": " biggest", "3453": " Phil", "3454": " Mark", "3455": " Ital", "3456": "sp", "3457": "ros", "3458": "ores", "3459": "lant", "3460": "jer", "3461": "incess", "3462": "iment", "3463": "hest", "3464": "arr", "3465": "ags", "3466": "Now", "3467": "LDMAN", "3468": "Advertisement", "3469": " thinking", "3470": " tack", "3471": " street", "3472": " sometimes", "3473": " sil", "3474": " hospital", "3475": " grand", "3476": " contact", "3477": " computer", "3478": " carry", "3479": " arch", "3480": " Park", "3481": " GOLDMAN", "3482": " Center", "3483": "unt", "3484": "rem", "3485": "oti", "3486": "ny", "3487": "inally", "3488": "iminal", "3489": "ification", "3490": "emy", "3491": "aught", "3492": "Dundrio", "3493": "After", "3494": " speed", "3495": " sources", "3496": " remember", "3497": " reven", "3498": " positive", "3499": " patients", "3500": " items", "3501": " difference", "3502": " completely", "3503": " cases", "3504": " beaut", "3505": " addition", "3506": " Fa", "3507": "ords", "3508": "orter", "3509": "ky", "3510": "ka", "3511": "inated", "3512": "inary", "3513": "Pr", "3514": "33", "3515": " student", "3516": " stuff", "3517": " search", "3518": " scene", "3519": " sn", "3520": " plant", "3521": " liber", "3522": " inn", "3523": " dog", "3524": " died", "3525": " cycl", "3526": " crowd", "3527": " continued", "3528": " behav", "3529": " avoid", "3530": " assist", "3531": " Texas", "3532": " Mor", "3533": " Islam", "3534": " Em", "3535": " 2010", "3536": " ess", "3537": "ruary", "3538": "okn", "3539": "oknite", "3540": "lection", "3541": "face", "3542": "board", "3543": "ael", "3544": "OR", "3545": " whose", "3546": " spending", "3547": " range", "3548": " millions", "3549": " mur", "3550": " helped", "3551": " employees", "3552": " defense", "3553": " continues", "3554": " convers", "3555": " college", "3556": " closed", "3557": " basic", "3558": " Web", "3559": " Then", "3560": " Times", "3561": " Sing", "3562": " More", "3563": " Indian", "3564": " Coun", "3565": " 23", "3566": "viously", "3567": "avage", "3568": "IT", "3569": "AR", "3570": " \u00e2\u0080\u00a6", "3571": " virt", "3572": " uses", "3573": " training", "3574": " telev", "3575": " required", "3576": " powerful", "3577": " picture", "3578": " mostly", "3579": " forced", "3580": " credit", "3581": " cris", "3582": " citizens", "3583": " bott", "3584": " aw", "3585": " Ne", "3586": " Fed", "3587": " Bay", "3588": " |", "3589": "rial", "3590": "resh", "3591": "oose", "3592": "lands", "3593": "jeroknite", "3594": "iqu", "3595": "eff", "3596": "craft", "3597": "bur", "3598": "acing", "3599": "Cl", "3600": " rent", "3601": " rap", "3602": " previously", "3603": " piece", "3604": " page", "3605": " network", "3606": " nice", "3607": " manage", "3608": " independ", "3609": " gives", "3610": " effort", "3611": " charges", "3612": " certainly", "3613": " Here", "3614": " Her", "3615": " February", "3616": " il", "3617": "wise", "3618": "rown", "3619": "ria", "3620": "onent", "3621": "olar", "3622": "iring", "3623": "hi", "3624": "field", "3625": "estic", "3626": "cont", "3627": " town", "3628": " sens", "3629": " residents", "3630": " normal", "3631": " kids", "3632": " income", "3633": " hundred", "3634": " growing", "3635": " gra", "3636": " eyes", "3637": " disp", "3638": " consist", "3639": " cross", "3640": " beginning", "3641": " assault", "3642": " arrested", "3643": " analysis", "3644": " adult", "3645": " Rich", "3646": " Post", "3647": " Net", "3648": " Mic", "3649": " Bur", "3650": " Associ", "3651": " 22", "3652": "rupt", "3653": "outhern", "3654": "mann", "3655": "lebr", "3656": "iders", "3657": "eline", "3658": "atever", "3659": "akers", "3660": "75", "3661": " wife", "3662": " wat", "3663": " tweet", "3664": " safe", "3665": " sort", "3666": " rock", "3667": " rob", "3668": " reality", "3669": " production", "3670": " offered", "3671": " nuclear", "3672": " necessary", "3673": " hot", "3674": " extreme", "3675": " encour", "3676": " committee", "3677": " charge", "3678": " blood", "3679": " Union", "3680": " Oh", "3681": " Every", "3682": " Def", "3683": " Cap", "3684": "zen", "3685": "ruz", "3686": "roy", "3687": "ped", "3688": "overed", "3689": "itely", "3690": "iled", "3691": "hib", "3692": "bl", "3693": "acc", "3694": " taxes", "3695": " store", "3696": " purp", "3697": " purch", "3698": " pus", "3699": " paid", "3700": " overall", "3701": " method", "3702": " imag", "3703": " happy", "3704": " hom", "3705": " gas", "3706": " firm", "3707": " drive", "3708": " decades", "3709": " draft", "3710": " clos", "3711": " capital", "3712": " alone", "3713": " William", "3714": " Hillary", "3715": " Char", "3716": "ya", "3717": "onents", "3718": "oday", "3719": "new", "3720": "ker", "3721": "itz", "3722": "ented", "3723": "elligence", "3724": "elly", "3725": "aker", "3726": "40", "3727": " und", "3728": " throw", "3729": " type", "3730": " shown", "3731": " shop", "3732": " senior", "3733": " scen", "3734": " sun", "3735": " song", "3736": " san", "3737": " responsible", "3738": " pros", "3739": " opened", "3740": " incident", "3741": " har", "3742": " giving", "3743": " floor", "3744": " fill", "3745": " fear", "3746": " evan", "3747": " crime", "3748": " controvers", "3749": " compared", "3750": " beyond", "3751": " application", "3752": " allows", "3753": " aware", "3754": " Most", "3755": " King", "3756": " International", "3757": " George", "3758": " 26", "3759": "ocked", "3760": "just", "3761": "iance", "3762": "friend", "3763": "aren", "3764": "aked", "3765": "According", "3766": "AL", "3767": ".\u00e2\u0080\u0099", "3768": " wild", "3769": " upon", "3770": " tend", "3771": " suspect", "3772": " politics", "3773": " partners", "3774": " officers", "3775": " note", "3776": " nicot", "3777": " minimum", "3778": " maybe", "3779": " identity", "3780": " ideas", "3781": " express", "3782": " documents", "3783": " concerns", "3784": " clean", "3785": " cloud", "3786": " calling", "3787": " cards", "3788": " analy", "3789": " altern", "3790": " agreement", "3791": " Val", "3792": " Super", "3793": " Internet", "3794": " Bill", "3795": " AI", "3796": "\u00c3\u00bc", "3797": "wood", "3798": "vest", "3799": "uters", "3800": "urt", "3801": "sey", "3802": "men", "3803": "ivity", "3804": "icago", "3805": "ctors", "3806": "ales", "3807": " successful", "3808": " restr", "3809": " resources", "3810": " prem", "3811": " practice", "3812": " photo", "3813": " natural", "3814": " larger", "3815": " lose", "3816": " hair", "3817": " foreign", "3818": " fine", "3819": " entirely", "3820": " element", "3821": " education", "3822": " dise", "3823": " detail", "3824": " designed", "3825": " demonstr", "3826": " correct", "3827": " considered", "3828": " actual", "3829": " Sun", "3830": " Republicans", "3831": " Afric", "3832": "irection", "3833": "ingly", "3834": "icit", "3835": "ication", "3836": "ha", "3837": "fl", "3838": "encies", "3839": "acks", "3840": "Be", "3841": " wealth", "3842": " vill", "3843": " throughout", "3844": " reasons", "3845": " reb", "3846": " negoti", "3847": " illeg", "3848": " failed", "3849": " experien", "3850": " drug", "3851": " display", "3852": " developed", "3853": " critic", "3854": " celebr", "3855": " code", "3856": " batter", "3857": " ask", "3858": " appears", "3859": " Democratic", "3860": " Dan", "3861": " *", "3862": "utions", "3863": "ube", "3864": "uk", "3865": "thur", "3866": "rief", "3867": "ration", "3868": "][", "3869": "SE", "3870": " writing", "3871": " trou", "3872": " smart", "3873": " round", "3874": " rare", "3875": " promot", "3876": " passed", "3877": " opening", "3878": " massive", "3879": " investment", "3880": " includes", "3881": " funding", "3882": " eth", "3883": " drop", "3884": " crisis", "3885": " buff", "3886": " authorities", "3887": " Minister", "3888": " Mel", "3889": " IN", "3890": " Good", "3891": " Ber", "3892": "za", "3893": "oses", "3894": "lease", "3895": "irgin", "3896": "ipment", "3897": "gers", "3898": "eter", "3899": "aves", "3900": "anda", "3901": "abb", "3902": "ED", "3903": "!!", "3904": " yes", "3905": " ult", "3906": " quarterback", "3907": " push", "3908": " occur", "3909": " map", "3910": " lawy", "3911": " knows", "3912": " greater", "3913": " executive", "3914": " dollars", "3915": " counter", "3916": " cool", "3917": " cancer", "3918": " arm", "3919": " animal", "3920": " activity", "3921": " Smith", "3922": " Spe", "3923": " Mag", "3924": " Like", "3925": " Angeles", "3926": "wide", "3927": "ulate", "3928": "ufact", "3929": "stone", "3930": "pg", "3931": "net", "3932": "Tw", "3933": "IC", "3934": "AC", "3935": " values", "3936": " spot", "3937": " spend", "3938": " recomm", "3939": " limited", "3940": " internet", "3941": " highly", "3942": " feature", "3943": " families", "3944": " fat", "3945": " easily", "3946": " drugs", "3947": " choice", "3948": " cells", "3949": " attacks", "3950": " Street", "3951": " Star", "3952": " Ser", "3953": " Iran", "3954": " Int", "3955": " GOP", "3956": " Flor", "3957": " Att", "3958": " 80", "3959": " ver", "3960": "www", "3961": "itute", "3962": "itude", "3963": "inese", "3964": "iation", "3965": "ament", "3966": "aches", "3967": "Im", "3968": " television", "3969": " supposed", "3970": " status", "3971": " rough", "3972": " planet", "3973": " moved", "3974": " letter", "3975": " leaving", "3976": " green", "3977": " fan", "3978": " commer", "3979": " cas", "3980": " benefit", "3981": " bul", "3982": " attract", "3983": " apparent", "3984": " Soc", "3985": " Law", "3986": " Jones", "3987": " Council", "3988": " Cor", "3989": " Air", "3990": "wards", "3991": "ville", "3992": "uana", "3993": "owers", "3994": "oon", "3995": "ijuana", "3996": "icient", "3997": "iud", "3998": "iest", "3999": "http", "4000": "entially", "4001": "ened", "4002": "che", "4003": "ario", "4004": "anks", "4005": "Some", "4006": "GB", "4007": "100", "4008": " vision", "4009": " seemed", "4010": " receive", "4011": " pip", "4012": " ord", "4013": " negative", "4014": " manager", "4015": " max", "4016": " largest", "4017": " interested", "4018": " fal", "4019": " enfor", "4020": " defend", "4021": " dream", "4022": " advant", "4023": " Trans", "4024": " Other", "4025": " Michael", "4026": " Mike", "4027": " Los", "4028": " Chicago", "4029": " ign", "4030": "ste", "4031": "mar", "4032": "ights", "4033": "ferences", "4034": "ext", "4035": "change", "4036": "However", "4037": " turns", "4038": " supported", "4039": " strategy", "4040": " por", "4041": " observ", "4042": " measure", "4043": " mental", "4044": " lif", "4045": " haven", "4046": " freedom", "4047": " feed", "4048": " equipment", "4049": " creating", "4050": " criminal", "4051": " central", "4052": " catch", "4053": " bed", "4054": " battle", "4055": " Uk", "4056": " Step", "4057": " Plan", "4058": " Mos", "4059": " Mac", "4060": " Er", "4061": " Democrats", "4062": " Cruz", "4063": " Bel", "4064": " Asia", "4065": " According", "4066": " 29", "4067": " )", "4068": "wor", "4069": "term", "4070": "secut", "4071": "resa", "4072": "iudad", "4073": "ipped", "4074": "dom", "4075": "aph", "4076": "NN", "4077": "Is", "4078": "35", "4079": "26", "4080": " waiting", "4081": " uns", "4082": " spread", "4083": " showing", "4084": " removed", "4085": " related", "4086": " rule", "4087": " prec", "4088": " nicotine", "4089": " neighbor", "4090": " instru", "4091": " fresh", "4092": " felt", "4093": " expand", "4094": " enter", "4095": " electric", "4096": " described", "4097": " dark", "4098": " construction", "4099": " businesses", "4100": " appeared", "4101": " alleg", "4102": " Romney", "4103": " Press", "4104": " Images", "4105": " 35", "4106": "\u00c3\u00b1", "4107": "zz", "4108": "part", "4109": "ota", "4110": "more", "4111": "icip", "4112": "iced", "4113": "formed", "4114": "elling", "4115": "cos", "4116": "andom", "4117": "Ar", "4118": " worst", "4119": " wish", "4120": " tick", "4121": " sust", "4122": " society", "4123": " swe", "4124": " relatively", "4125": " pieces", "4126": " memory", "4127": " looked", "4128": " laun", "4129": " lines", "4130": " jail", "4131": " install", "4132": " hasn", "4133": " couldn", "4134": " competition", "4135": " cash", "4136": " brain", "4137": " argument", "4138": " adding", "4139": " Wind", "4140": " Wil", "4141": " Open", "4142": " Many", "4143": " Judge", "4144": " CE", "4145": " 60", "4146": "\u00c3\u00a1s", "4147": "rol", "4148": "reed", "4149": "oronto", "4150": "orney", "4151": "omew", "4152": "omas", "4153": "olute", "4154": "nown", "4155": "lin", "4156": "iable", "4157": "going", "4158": "fort", "4159": "cience", "4160": "box", "4161": "athon", "4162": "alt", "4163": "aga", "4164": "acity", "4165": "ables", "4166": " web", "4167": " subst", "4168": " restaurant", "4169": " rat", "4170": " para", "4171": " offensive", "4172": " missing", "4173": " machine", "4174": " location", "4175": " individuals", "4176": " frequ", "4177": " estim", "4178": " comments", "4179": " caused", "4180": " cat", "4181": " birth", "4182": " beautif", "4183": " banks", "4184": " Yes", "4185": " Western", "4186": " Tre", "4187": " Security", "4188": " Muslim", "4189": " Dis", "4190": " Because", "4191": "vention", "4192": "uth", "4193": "uries", "4194": "run", "4195": "ios", "4196": "gency", "4197": "amin", "4198": "TO", "4199": "All", "4200": " votes", "4201": " touch", "4202": " theory", "4203": " stream", "4204": " station", "4205": " spoke", "4206": " sounds", "4207": " sche", "4208": " roll", "4209": " prison", "4210": " perm", "4211": " psych", "4212": " onto", "4213": " library", "4214": " issued", "4215": " highest", "4216": " easier", "4217": " daughter", "4218": " believed", "4219": " achieve", "4220": " Ukrain", "4221": " Syria", "4222": " Ryan", "4223": " Liber", "4224": " Ke", "4225": " Cont", "4226": " Chinese", "4227": "\u00e2\u0080\u009d,", "4228": "yl", "4229": "oper", "4230": "ocol", "4231": "lymp", "4232": "house", "4233": "free", "4234": "anging", "4235": "acher", "4236": "abor", "4237": "These", "4238": "Mar", "4239": "Le", "4240": "**", "4241": ");", "4242": " write", "4243": " vast", "4244": " solution", "4245": " solid", "4246": " reporters", "4247": " reduce", "4248": " reached", "4249": " posted", "4250": " placebo", "4251": " nom", "4252": " manufact", "4253": " false", "4254": " father", "4255": " definitely", "4256": " district", "4257": " contribut", "4258": " challenge", "4259": " asse", "4260": " Yang", "4261": " Why", "4262": " Wall", "4263": " Road", "4264": " Mars", "4265": " League", "4266": " Johnson", "4267": " Germany", "4268": " Florida", "4269": " From", "4270": " Atlant", "4271": " 28", "4272": " 27", "4273": "usion", "4274": "ribution", "4275": "pping", "4276": "ortunately", "4277": "ogue", "4278": "met", "4279": "iverse", "4280": "irector", "4281": "inion", "4282": "illance", "4283": "ightly", "4284": "ests", "4285": "clusion", "4286": "agon", "4287": "NA", "4288": "Americ", "4289": " willing", "4290": " watching", "4291": " victim", "4292": " voice", "4293": " user", "4294": " unique", "4295": " train", "4296": " stim", "4297": " select", "4298": " sides", "4299": " projects", "4300": " places", "4301": " organiz", "4302": " neighborhood", "4303": " names", "4304": " marijuana", "4305": " mist", "4306": " match", "4307": " kept", "4308": " input", "4309": " grad", "4310": " gar", "4311": " fix", "4312": " deg", "4313": " dial", "4314": " conflic", "4315": " collection", "4316": " choose", "4317": " cru", "4318": " blog", "4319": " blow", "4320": " Rem", "4321": " Qu", "4322": " Britain", "4323": " Bush", "4324": "tw", "4325": "orial", "4326": "issions", "4327": "iling", "4328": "cient", "4329": "arian", "4330": "apore", "4331": "ansion", "4332": "anch", "4333": "SA", "4334": " wait", "4335": " urban", "4336": " transport", "4337": " seeing", "4338": " peace", "4339": " measures", "4340": " figh", "4341": " eye", "4342": " establish", "4343": " ended", "4344": " disease", "4345": " cuts", "4346": " corporate", "4347": " commit", "4348": " clearly", "4349": " claimed", "4350": " caught", "4351": " believes", "4352": " annual", "4353": " TH", "4354": " Sim", "4355": " Pri", "4356": " Mex", "4357": " General", "4358": " France", "4359": " England", "4360": " District", "4361": " Che", "4362": " er", "4363": "oles", "4364": "oices", "4365": "nergy", "4366": "la", "4367": "izes", "4368": "icate", "4369": "ception", "4370": "bon", "4371": "ading", "4372": "abs", "4373": "!\"", "4374": " upgr", "4375": " suggests", "4376": " stereotype", "4377": " shooting", "4378": " retail", "4379": " repeated", "4380": " putting", "4381": " professional", "4382": " plenty", "4383": " myself", "4384": " minor", "4385": " miles", "4386": " learning", "4387": " holding", "4388": " hearing", "4389": " followed", "4390": " fully", "4391": " decade", "4392": " color", "4393": " church", "4394": " core", "4395": " becoming", "4396": " beat", "4397": " basis", "4398": " Virgin", "4399": " Comp", "4400": " Cons", "4401": "see", "4402": "phone", "4403": "oman", "4404": "ma", "4405": "ictions", "4406": "ford", "4407": "erc", "4408": "azon", "4409": "apt", "4410": "Un", "4411": "Pro", "4412": "Do", "4413": " wonder", "4414": " trust", "4415": " surround", "4416": " standard", "4417": " style", "4418": " software", "4419": " schools", "4420": " send", "4421": " returned", "4422": " reading", "4423": " raise", "4424": " random", "4425": " partner", "4426": " pupp", "4427": " judge", "4428": " instance", "4429": " highlight", "4430": " figures", "4431": " factors", "4432": " dangerous", "4433": " conservative", "4434": " commercial", "4435": " clin", "4436": " ang", "4437": " Toronto", "4438": " Stud", "4439": " School", "4440": " Squ", "4441": " Rober", "4442": " Pre", "4443": " Gold", "4444": " Committee", "4445": " Alex", "4446": "\u00e2\u0097", "4447": "\u00e2\u0097\u008f", "4448": "while", "4449": "vis", "4450": "urance", "4451": "ula", "4452": "rows", "4453": "ownt", "4454": "istry", "4455": "ica", "4456": "eah", "4457": "coming", "4458": "Not", "4459": "AD", "4460": "23", "4461": " whom", "4462": " whatever", "4463": " spir", "4464": " proposed", "4465": " physical", "4466": " paying", "4467": " notice", "4468": " nor", "4469": " nine", "4470": " moves", "4471": " minister", "4472": " managed", "4473": " incred", "4474": " generally", "4475": " funds", "4476": " driving", "4477": " direction", "4478": " combat", "4479": " brother", "4480": " bat", "4481": " Reg", "4482": " Police", "4483": " Per", "4484": " Mal", "4485": " High", "4486": "\u00ea\u009c", "4487": "ror", "4488": "rim", "4489": "ourne", "4490": "ooking", "4491": "oly", "4492": "mat", "4493": "ifying", "4494": "how", "4495": "gl", "4496": "],", "4497": "45", "4498": " walk", "4499": " useful", "4500": " traditional", "4501": " tro", "4502": " surprise", "4503": " separate", "4504": " options", "4505": " occas", "4506": " notes", "4507": " legislation", "4508": " lands", "4509": " interests", "4510": " impl", "4511": " ge", "4512": " films", "4513": " fish", "4514": " existing", "4515": " etc", "4516": " dogs", "4517": " doctor", "4518": " device", "4519": " downt", "4520": " die", "4521": " coal", "4522": " books", "4523": " benefits", "4524": " beautiful", "4525": " bomb", "4526": " advantage", "4527": " Willow", "4528": " Palest", "4529": " Korea", "4530": " II", "4531": " Arthur", "4532": "zil", "4533": "vered", "4534": "pective", "4535": "level", "4536": "ean", "4537": "Donald", "4538": "28", "4539": "21", "4540": " unlike", "4541": " transition", "4542": " title", "4543": " statistical", "4544": " stage", "4545": " seasons", "4546": " remind", "4547": " prices", "4548": " owner", "4549": " operations", "4550": " located", "4551": " infrast", "4552": " illegal", "4553": " handle", "4554": " gay", "4555": " feet", "4556": " fra", "4557": " fol", "4558": " doubt", "4559": " directive", "4560": " destroy", "4561": " bond", "4562": " advan", "4563": " Weiss", "4564": " Since", "4565": " La", "4566": " Ham", "4567": " Guard", "4568": " Gra", "4569": " DC", "4570": " Bu", "4571": "urd", "4572": "ux", "4573": "rible", "4574": "razy", "4575": "ployment", "4576": "odies", "4577": "overy", "4578": "mark", "4579": "lick", "4580": "itect", "4581": "itable", "4582": "inger", "4583": "antly", "4584": "Last", "4585": "Here", "4586": "Getty", "4587": "BS", "4588": "29", "4589": " yourself", "4590": " weapon", "4591": " weight", "4592": " violence", "4593": " surveillance", "4594": " structure", "4595": " shad", "4596": " served", "4597": " religious", "4598": " raised", "4599": " provides", "4600": " programs", "4601": " primary", "4602": " policies", "4603": " plays", "4604": " plastic", "4605": " pic", "4606": " nav", "4607": " murder", "4608": " leads", "4609": " knowledge", "4610": " humans", "4611": " guard", "4612": " favorite", "4613": " facing", "4614": " fired", "4615": " explain", "4616": " effective", "4617": " download", "4618": " department", "4619": " defensive", "4620": " daily", "4621": " concerned", "4622": " compar", "4623": " cry", "4624": " cart", "4625": " autom", "4626": " associated", "4627": " allowing", "4628": " absolute", "4629": " Well", "4630": " TO", "4631": " Singapore", "4632": " Sant", "4633": " Olymp", "4634": " Hol", "4635": " Blake", "4636": " ice", "4637": "ums", "4638": "ulf", "4639": "org", "4640": "ocks", "4641": "mas", "4642": "lay", "4643": "igned", "4644": "icial", "4645": "ength", "4646": "but", "4647": "bed", "4648": "SP", "4649": "Photo", "4650": "PU", "4651": "By", "4652": "AM", "4653": " \u00c2\u00a3", "4654": " views", "4655": " tells", "4656": " sports", "4657": " smo", "4658": " sets", "4659": " revealed", "4660": " replace", "4661": " render", "4662": " reform", "4663": " rid", "4664": " properties", "4665": " placed", "4666": " offers", "4667": " mount", "4668": " learned", "4669": " joined", "4670": " hundreds", "4671": " happens", "4672": " glass", "4673": " feat", "4674": " explained", "4675": " ensure", "4676": " condition", "4677": " buffalo", "4678": " beg", "4679": " balance", "4680": " background", "4681": " aircraft", "4682": " Up", "4683": " Nor", "4684": " Mer", "4685": " Mat", "4686": " Light", "4687": " Lee", "4688": " Kelly", "4689": " Hall", "4690": " Great", "4691": " CEO", "4692": " Apple", "4693": " 2009", "4694": " 2005", "4695": "\u00e2\u0080\u00a2", "4696": "\u00e2\u0080\u0098", "4697": "umn", "4698": "tered", "4699": "pri", "4700": "ography", "4701": "ocr", "4702": "mo", "4703": "itation", "4704": "inois", "4705": "fire", "4706": "ection", "4707": "airy", "4708": "abilistic", "4709": "OT", "4710": " winning", "4711": " underst", "4712": " spokesman", "4713": " somew", "4714": " refer", "4715": " option", "4716": " offering", "4717": " m\u00c3\u00a1s", "4718": " finding", "4719": " female", "4720": " extremely", "4721": " confir", "4722": " cars", "4723": " behavior", "4724": " born", "4725": " amb", "4726": " afford", "4727": " actions", "4728": " Windows", "4729": " Teresa", "4730": " Service", "4731": " Scott", "4732": " Sports", "4733": " McC", "4734": " Govern", "4735": " Commission", "4736": " Chris", "4737": " Australian", "4738": " 196", "4739": "wny", "4740": "sky", "4741": "retch", "4742": "pie", "4743": "ocking", "4744": "known", "4745": "isher", "4746": "iner", "4747": "idering", "4748": "icy", "4749": "ga", "4750": "eller", "4751": "ears", "4752": "care", "4753": "aza", "4754": "ateg", "4755": "adium", "4756": "More", "4757": "Ex", "4758": "CC", "4759": "9999", "4760": " weekend", "4761": " victory", "4762": " thanks", "4763": " switch", "4764": " streng", "4765": " stock", "4766": " spring", "4767": " score", "4768": " scale", "4769": " save", "4770": " quot", "4771": " planning", "4772": " planned", "4773": " pm", "4774": " organization", "4775": " kid", "4776": " jump", "4777": " jud", "4778": " infrastructure", "4779": " housing", "4780": " hack", "4781": " fighting", "4782": " feels", "4783": " facts", "4784": " fram", "4785": " devices", "4786": " deliver", "4787": " corner", "4788": " copy", "4789": " conference", "4790": " capacity", "4791": " broken", "4792": " bigger", "4793": " brief", "4794": " advoc", "4795": " Who", "4796": " Tom", "4797": " Secret", "4798": " Ren", "4799": " Py", "4800": " PC", "4801": " Office", "4802": " Ol", "4803": " Martin", "4804": " English", "4805": " Const", "4806": " Canad", "4807": " Bern", "4808": " Are", "4809": "\u00ea\u009c\u00a3", "4810": "well", "4811": "verse", "4812": "roid", "4813": "owa", "4814": "outs", "4815": "obe", "4816": "min", "4817": "lets", "4818": "life", "4819": "gypt", "4820": "bre", "4821": "asc", "4822": "apped", "4823": "achmann", "4824": "aci\u00c3\u00b3n", "4825": "TM", "4826": "PS", "4827": "Of", "4828": "500", "4829": " understanding", "4830": " temper", "4831": " teen", "4832": " tour", "4833": " sustain", "4834": " supporters", "4835": " stands", "4836": " sitting", "4837": " reduced", "4838": " probabilistic", "4839": " politic", "4840": " perman", "4841": " penal", "4842": " parking", "4843": " owned", "4844": " offense", "4845": " newsp", "4846": " mayor", "4847": " maintain", "4848": " images", "4849": " household", "4850": " gold", "4851": " domestic", "4852": " conversation", "4853": " conclud", "4854": " chair", "4855": " calcul", "4856": " becomes", "4857": " band", "4858": " asking", "4859": " architect", "4860": " advice", "4861": " adop", "4862": " acqu", "4863": " Southern", "4864": " Rec", "4865": " Let", "4866": " 31", "4867": "\u00c4\u009f", "4868": "ugg", "4869": "sell", "4870": "rated", "4871": "pezil", "4872": "pret", "4873": "ilty", "4874": "cript", "4875": "bourne", "4876": "azing", "4877": "aug", "4878": "arn", "4879": "antasy", "4880": "amine", "4881": "Why", "4882": "Trump", "4883": "Mart", "4884": " worse", "4885": " visual", "4886": " telling", "4887": " tor", "4888": " subm", "4889": " stated", "4890": " religion", "4891": " reject", "4892": " popul", "4893": " pair", "4894": " operating", "4895": " noted", "4896": " movies", "4897": " leadership", "4898": " length", "4899": " internal", "4900": " independent", "4901": " honest", "4902": " generation", "4903": " farm", "4904": " fle", "4905": " explains", "4906": " elimin", "4907": " double", "4908": " covered", "4909": " charged", "4910": " canc", "4911": " appearance", "4912": " active", "4913": " Photo", "4914": " People", "4915": " Port", "4916": " Last", "4917": " Jackson", "4918": " Green", "4919": " Brad", "4920": " Both", "4921": " Bo", "4922": " 36", "4923": "uty", "4924": "ucky", "4925": "stream", "4926": "rier", "4927": "reci", "4928": "point", "4929": "osen", "4930": "orrow", "4931": "orbit", "4932": "ona", "4933": "kes", "4934": "ikes", "4935": "ius", "4936": "eding", "4937": "earch", "4938": "addam", "4939": "Pol", "4940": "FC", "4941": "ES", "4942": "DS", "4943": "ACh", "4944": "77", "4945": " treated", "4946": " ton", "4947": " supply", "4948": " suggested", "4949": " providing", "4950": " occup", "4951": " nar", "4952": " mech", "4953": " justice", "4954": " insurance", "4955": " influence", "4956": " guilty", "4957": " goals", "4958": " giant", "4959": " feeling", "4960": " familiar", "4961": " fa", "4962": " dism", "4963": " dram", "4964": " cleavage", "4965": " candidates", "4966": " camera", "4967": " appoint", "4968": " Melbourne", "4969": " Fort", "4970": " Energy", "4971": " Egypt", "4972": "uls", "4973": "stein", "4974": "ribute", "4975": "rig", "4976": "oms", "4977": "olis", "4978": "obb", "4979": "nel", "4980": "mosp", "4981": "ett", "4982": "dden", "4983": "cean", "4984": "aven", "4985": "OU", "4986": "OM", "4987": "My", "4988": "LO", "4989": "Just", "4990": "AChR", "4991": "AA", "4992": "48", "4993": ".'", "4994": " update", "4995": " teach", "4996": " revenue", "4997": " react", "4998": " purpose", "4999": " produced", "5000": " participants", "5001": " opposition", "5002": " operation", "5003": " ongoing", "5004": " none", "5005": " mobile", "5006": " loved", "5007": " harm", "5008": " fraud", "5009": " emergency", "5010": " elsewhere", "5011": " declined", "5012": " consumers", "5013": " considering", "5014": " combined", "5015": " assess", "5016": " appeal", "5017": " advis", "5018": " adults", "5019": " accounts", "5020": " Penn", "5021": " Over", "5022": " Mother", "5023": " Evans", "5024": " EMA", "5025": " Ari", "5026": " ing", "5027": "with", "5028": "win", "5029": "ups", "5030": "unk", "5031": "reens", "5032": "rate", "5033": "place", "5034": "pects", "5035": "pay", "5036": "osal", "5037": "mbol", "5038": "itutional", "5039": "itness", "5040": "ita", "5041": "isted", "5042": "ipe", "5043": "ias", "5044": "hens", "5045": "enses", "5046": "equ", "5047": "amental", "5048": "agues", "5049": "Princess", "5050": "66", "5051": "44", "5052": " wel", "5053": " vehicles", "5054": " trip", "5055": " talked", "5056": " subsid", "5057": " starts", "5058": " standing", "5059": " stick", "5060": " soldiers", "5061": " slightly", "5062": " shut", "5063": " sector", "5064": " scientists", "5065": " row", "5066": " requires", "5067": " rain", "5068": " produce", "5069": " markets", "5070": " mixed", "5071": " limit", "5072": " largely", "5073": " investors", "5074": " helps", "5075": " heavy", "5076": " faces", "5077": " enforcement", "5078": " digital", "5079": " critical", "5080": " connection", "5081": " conducted", "5082": " commission", "5083": " classic", "5084": " bound", "5085": " bought", "5086": " approved", "5087": " agencies", "5088": " Their", "5089": " Spike", "5090": " Rock", "5091": " Matt", "5092": " Japanese", "5093": " Jay", "5094": " Iowa", "5095": " Dig", "5096": " Colle", "5097": " Cath", "5098": " Bow", "5099": " Amazon", "5100": " \u00ce", "5101": " :", "5102": "\u00c3\u00ada", "5103": "\u0096\u0088", "5104": "which", "5105": "uration", "5106": "ricult", "5107": "riage", "5108": "orbitol", "5109": "ocal", "5110": "mail", "5111": "isation", "5112": "evin", "5113": "dog", "5114": "do", "5115": "alu", "5116": "alle", "5117": "agn", "5118": "ION", "5119": "!\u00e2\u0080\u009d", "5120": " vehicle", "5121": " van", "5122": " truly", "5123": " signs", "5124": " shift", "5125": " seek", "5126": " radio", "5127": " qual", "5128": " pointed", "5129": " perspective", "5130": " purs", "5131": " patch", "5132": " nAChR", "5133": " impress", "5134": " healthy", "5135": " finished", "5136": " equal", "5137": " episodes", "5138": " discussion", "5139": " depend", "5140": " audience", "5141": " apart", "5142": " accur", "5143": " Our", "5144": " Media", "5145": " Miss", "5146": " Leg", "5147": " Lake", "5148": " Harry", "5149": " Did", "5150": " Christian", "5151": " Blue", "5152": " Arch", "5153": "wing", "5154": "war", "5155": "wan", "5156": "uy", "5157": "pper", "5158": "orado", "5159": "okers", "5160": "inct", "5161": "inci", "5162": "igen", "5163": "cal", "5164": "anted", "5165": "TE", "5166": "See", "5167": "MO", "5168": "En", "5169": " zero", "5170": " watched", "5171": " voting", "5172": " truth", "5173": " tim", "5174": " surface", "5175": " supporting", "5176": " sudden", "5177": " specifically", "5178": " significantly", "5179": " setting", "5180": " returns", "5181": " reflect", "5182": " prepared", "5183": " princ", "5184": " opinion", "5185": " novel", "5186": " networ", "5187": " missed", "5188": " management", "5189": " marg", "5190": " keeping", "5191": " intended", "5192": " initi", "5193": " flight", "5194": " filed", "5195": " fly", "5196": " cutting", "5197": " construct", "5198": " conflict", "5199": " confirmed", "5200": " consequ", "5201": " comfort", "5202": " closer", "5203": " chem", "5204": " cheese", "5205": " brand", "5206": " bottom", "5207": " boost", "5208": " border", "5209": " arr", "5210": " arms", "5211": " approval", "5212": " apparently", "5213": " agreed", "5214": " af", "5215": " Week", "5216": " Out", "5217": " Magic", "5218": " Mod", "5219": " Institute", "5220": " God", "5221": " Director", "5222": " Barack", "5223": " Bank", "5224": " Association", "5225": " Art", "5226": " Army", "5227": " 2007", "5228": " era", "5229": "resp", "5230": "real", "5231": "rawn", "5232": "rad", "5233": "otic", "5234": "makers", "5235": "imm", "5236": "imal", "5237": "igan", "5238": "employment", "5239": "azi", "5240": "anto", "5241": "PA", "5242": "Image", "5243": " writer", "5244": " window", "5245": " wage", "5246": " types", "5247": " storm", "5248": " smaller", "5249": " section", "5250": " satell", "5251": " spl", "5252": " sle", "5253": " privacy", "5254": " prefer", "5255": " print", "5256": " possibility", "5257": " phil", "5258": " patient", "5259": " parties", "5260": " powers", "5261": " otherwise", "5262": " objects", "5263": " moral", "5264": " mechan", "5265": " mere", "5266": " launched", "5267": " interpret", "5268": " intelligence", "5269": " instrument", "5270": " homes", "5271": " hall", "5272": " focused", "5273": " flat", "5274": " fif", "5275": " expansion", "5276": " exchange", "5277": " emails", "5278": " dropped", "5279": " discovered", "5280": " decide", "5281": " din", "5282": " communities", "5283": " command", "5284": " carbon", "5285": " attend", "5286": " appl", "5287": " Thomas", "5288": " Saddam", "5289": " Rod", "5290": " Project", "5291": " Prime", "5292": " Palestin", "5293": " PEN", "5294": " Ohio", "5295": " Mary", "5296": " Justice", "5297": " Jer", "5298": " Jeff", "5299": " IM", "5300": " Hum", "5301": " Frank", "5302": " Found", "5303": " DNA", "5304": " College", "5305": " Cos", "5306": " Coll", "5307": " Bob", "5308": " Aut", "5309": " AP", "5310": "vious", "5311": "vard", "5312": "vant", "5313": "usiness", "5314": "uent", "5315": "rey", "5316": "plate", "5317": "pet", "5318": "oin", "5319": "lished", "5320": "istered", "5321": "istan", "5322": "idden", "5323": "ici", "5324": "henomen", "5325": "hat", "5326": "gment", "5327": "cut", "5328": "abilities", "5329": "Pwny", "5330": "ND", "5331": "Maria", "5332": "Every", "5333": "Bl", "5334": "34", "5335": " warr", "5336": " vs", "5337": " unable", "5338": " truck", "5339": " suc", "5340": " sport", "5341": " requirements", "5342": " refused", "5343": " presence", "5344": " pled", "5345": " pattern", "5346": " pun", "5347": " maint", "5348": " links", "5349": " killing", "5350": " join", "5351": " interact", "5352": " insp", "5353": " hero", "5354": " gam", "5355": " file", "5356": " expectations", "5357": " entry", "5358": " enemy", "5359": " elections", "5360": " downtown", "5361": " distance", "5362": " developers", "5363": " determined", "5364": " determine", "5365": " detect", "5366": " desire", "5367": " decisions", "5368": " debt", "5369": " dust", "5370": " ded", "5371": " council", "5372": " congress", "5373": " complain", "5374": " changing", "5375": " broadcast", "5376": " argue", "5377": " accident", "5378": " Str", "5379": " Seattle", "5380": " Sub", "5381": " Science", "5382": " Richard", "5383": " Ray", "5384": " Pay", "5385": " Lat", "5386": " Cathol", "5387": " Bat", "5388": " 70", "5389": " ---", "5390": "\u00c3\u00b6", "5391": "zy", "5392": "uct", "5393": "terday", "5394": "tion", "5395": "spe", "5396": "reland", "5397": "piece", "5398": "olved", "5399": "nam", "5400": "ivered", "5401": "ido", "5402": "ashion", "5403": "astern", "5404": "annel", "5405": "TA", "5406": "Mr", "5407": "Ind", "5408": "From", "5409": "De", "5410": "DA", "5411": " wearing", "5412": " virtual", "5413": " unc", "5414": " task", "5415": " tank", "5416": " symbol", "5417": " survey", "5418": " strateg", "5419": " stimul", "5420": " steps", "5421": " struct", "5422": " species", "5423": " ship", "5424": " sam", "5425": " recommend", "5426": " rape", "5427": " protests", "5428": " professor", "5429": " predict", "5430": " picked", "5431": " panel", "5432": " pit", "5433": " pet", "5434": " milk", "5435": " mentioned", "5436": " mer", "5437": " involve", "5438": " improved", "5439": " immigrants", "5440": " identified", "5441": " guess", "5442": " fundamental", "5443": " fellow", "5444": " explos", "5445": " experiment", "5446": " driver", "5447": " doctors", "5448": " defence", "5449": " cyclists", "5450": " controversial", "5451": " confident", "5452": " committed", "5453": " coverage", "5454": " capable", "5455": " brows", "5456": " bodies", "5457": " alternative", "5458": " ast", "5459": " Yet", "5460": " Turkey", "5461": " Swed", "5462": " Sam", "5463": " ISIS", "5464": " Franc", "5465": " Finn", "5466": " Commun", "5467": " Cam", "5468": " Bachmann", "5469": " Adam", "5470": " Av", "5471": " Ac", "5472": " AC", "5473": "\u00c3\u00ba", "5474": "vin", "5475": "usband", "5476": "urrent", "5477": "ucks", "5478": "rees", "5479": "owered", "5480": "onna", "5481": "olf", "5482": "obel", "5483": "inciples", "5484": "icul", "5485": "heim", "5486": "ellect", "5487": "eli", "5488": "dd", "5489": "cription", "5490": "cknow", "5491": "bing", "5492": "acific", "5493": "PD", "5494": "Fr", "5495": "Des", "5496": " yield", "5497": " yards", "5498": " weak", "5499": " witness", "5500": " veter", "5501": " tele", "5502": " stretch", "5503": " shouldn", "5504": " sea", "5505": " scenes", "5506": " south", "5507": " repeatedly", "5508": " regime", "5509": " pipeline", "5510": " photos", "5511": " paint", "5512": " pure", "5513": " phenomen", "5514": " older", "5515": " north", "5516": " multi", "5517": " male", "5518": " kick", "5519": " injury", "5520": " increasingly", "5521": " herself", "5522": " finish", "5523": " experts", "5524": " expensive", "5525": " elements", "5526": " elite", "5527": " disappoint", "5528": " definition", "5529": " cycle", "5530": " context", "5531": " colon", "5532": " caption", "5533": " brings", "5534": " basically", "5535": " attorney", "5536": " architecture", "5537": " aggress", "5538": " agents", "5539": " afterno", "5540": " adjust", "5541": " Two", "5542": " Today", "5543": " Phot", "5544": " Obs", "5545": " Mur", "5546": " Joy", "5547": " Jim", "5548": " Italy", "5549": " Island", "5550": " Instead", "5551": " Inc", "5552": " Columb", "5553": " Also", "5554": "\u00e2\u0096\u0088", "5555": "xual", "5556": "xit", "5557": "twitter", "5558": "sters", "5559": "related", "5560": "ooks", "5561": "ocolate", "5562": "liam", "5563": "liament", "5564": "jamin", "5565": "iti", "5566": "ipping", "5567": "ingu", "5568": "fish", "5569": "erved", "5570": "cribe", "5571": "ashed", "5572": "ari", "5573": "ampions", "5574": "Read", "5575": "OS", "5576": "NC", "5577": "American", "5578": "--------", "5579": " videos", "5580": " unless", "5581": " units", "5582": " twice", "5583": " tradition", "5584": " survival", "5585": " suppl", "5586": " stereotyp", "5587": " sites", "5588": " shared", "5589": " shape", "5590": " sad", "5591": " reporter", "5592": " rich", "5593": " phr", "5594": " ppg", "5595": " obviously", "5596": " numerous", "5597": " newspaper", "5598": " magaz", "5599": " mic", "5600": " lawsuit", "5601": " labor", "5602": " les", "5603": " incor", "5604": " immediate", "5605": " hate", "5606": " expert", "5607": " estimated", "5608": " established", "5609": " entertain", "5610": " ends", "5611": " defe", "5612": " combination", "5613": " challenges", "5614": " crop", "5615": " buildings", "5616": " belong", "5617": " bab", "5618": " atmosp", "5619": " argued", "5620": " armed", "5621": " applications", "5622": " apps", "5623": " allegedly", "5624": " alb", "5625": " advert", "5626": " absolutely", "5627": " award", "5628": " Your", "5629": " THE", "5630": " RE", "5631": " Que", "5632": " Middle", "5633": " Joe", "5634": " Android", "5635": " Ann", "5636": " Although", "5637": " Ave", "5638": " </", "5639": " 2000", "5640": "woman", "5641": "text", "5642": "top", "5643": "oyal", "5644": "ossible", "5645": "ortion", "5646": "opher", "5647": "ont", "5648": "ologist", "5649": "ocracy", "5650": "ni", "5651": "iller", "5652": "icco", "5653": "hips", "5654": "enced", "5655": "elled", "5656": "elfare", "5657": "bel", "5658": "apping", "5659": "apolis", "5660": "aped", "5661": "andon", "5662": "alk", "5663": "ala", "5664": "Other", "5665": "Let", "5666": "Jew", "5667": "IA", "5668": "DP", "5669": "Cicco", "5670": "Bro", "5671": "37", "5672": " walls", "5673": " valid", "5674": " unl", "5675": " turning", "5676": " trend", "5677": " trig", "5678": " thus", "5679": " teacher", "5680": " sword", "5681": " speakers", "5682": " shell", "5683": " seal", "5684": " scr", "5685": " sanctions", "5686": " revolution", "5687": " resist", "5688": " refuge", "5689": " rein", "5690": " puts", "5691": " prosecut", "5692": " please", "5693": " plane", "5694": " philos", "5695": " passing", "5696": " pitch", "5697": " opportunities", "5698": " mode", "5699": " mission", "5700": " marriage", "5701": " mainstream", "5702": " license", "5703": " improvement", "5704": " implemented", "5705": " graph", "5706": " gram", "5707": " gain", "5708": " faith", "5709": " existence", "5710": " engage", "5711": " depart", "5712": " delivered", "5713": " colleagues", "5714": " crazy", "5715": " categ", "5716": " breaking", "5717": " belief", "5718": " battery", "5719": " bag", "5720": " amazing", "5721": " afternoon", "5722": " admitted", "5723": " Which", "5724": " Wild", "5725": " Vict", "5726": " Spr", "5727": " Qantas", "5728": " Micro", "5729": " Mil", "5730": " Kent", "5731": " Kant", "5732": " Israeli", "5733": " Islamic", "5734": " Inter", "5735": " Ireland", "5736": " Gaza", "5737": " Doge", "5738": " Colorado", "5739": " Buffalo", "5740": " 90", "5741": " 197", "5742": "\u00c5\u009f", "5743": "ynam", "5744": "prise", "5745": "ortex", "5746": "oral", "5747": "onsanto", "5748": "ologies", "5749": "odd", "5750": "ntario", "5751": "night", "5752": "lor", "5753": "li", "5754": "itan", "5755": "inate", "5756": "illing", "5757": "iki", "5758": "igare", "5759": "ifa", "5760": "emies", "5761": "cott", "5762": "auc", "5763": "arant", "5764": "ancing", "5765": "ads", "5766": "US", "5767": "President", "5768": "PT", "5769": "MS", "5770": "During", "5771": "DE", "5772": "56", "5773": "32", "5774": ",\u00e2\u0080\u0099", "5775": " writes", "5776": " warned", "5777": " ultimately", "5778": " territ", "5779": " tough", "5780": " surprising", "5781": " suffering", "5782": " standards", "5783": " stars", "5784": " spirit", "5785": " speaking", "5786": " signal", "5787": " serve", "5788": " secretary", "5789": " seconds", "5790": " sales", "5791": " sav", "5792": " roughly", "5793": " recording", "5794": " realize", "5795": " readers", "5796": " proof", "5797": " porn", "5798": " originally", "5799": " optim", "5800": " myth", "5801": " moments", "5802": " matters", "5803": " ment", "5804": " maps", "5805": " leaves", "5806": " keeps", "5807": " innov", "5808": " injuries", "5809": " initially", "5810": " hyp", "5811": " grew", "5812": " files", "5813": " fuel", "5814": " flex", "5815": " fires", "5816": " fiction", "5817": " examples", "5818": " exclus", "5819": " entering", "5820": " eat", "5821": " degree", "5822": " carried", "5823": " blue", "5824": " ble", "5825": " appreci", "5826": " activities", "5827": " Wyn", "5828": " Secretary", "5829": " Sil", "5830": " Sal", "5831": " Paris", "5832": " Put", "5833": " M\u00c3\u00a9", "5834": " Jon", "5835": " Health", "5836": " Game", "5837": " DS", "5838": " Canadian", "5839": " Bron", "5840": " BBC", "5841": " 65", "5842": "ycl", "5843": "uest", "5844": "rog", "5845": "resents", "5846": "rick", "5847": "prof", "5848": "porary", "5849": "osure", "5850": "osis", "5851": "llinois", "5852": "ishes", "5853": "irty", "5854": "ionally", "5855": "inding", "5856": "inent", "5857": "gent", "5858": "fund", "5859": "fortunately", "5860": "etic", "5861": "engers", "5862": "endo", "5863": "enda", "5864": "atically", "5865": "andal", "5866": "aded", "5867": "UT", "5868": "Since", "5869": "Ab", "5870": "90", "5871": "55", "5872": " weren", "5873": " wire", "5874": " understood", "5875": " transfer", "5876": " thinks", "5877": " terr", "5878": " tens", "5879": " tact", "5880": " strange", "5881": " sovere", "5882": " seeking", "5883": " sequ", "5884": " seat", "5885": " soul", "5886": " session", "5887": " responsibility", "5888": " renew", "5889": " rise", "5890": " prove", "5891": " prohib", "5892": " presented", "5893": " plot", "5894": " plate", "5895": " ownership", "5896": " narrow", "5897": " maximum", "5898": " materials", "5899": " magic", "5900": " initial", "5901": " imagine", "5902": " heads", "5903": " heat", "5904": " happening", "5905": " husband", "5906": " hurt", "5907": " grid", "5908": " governor", "5909": " frame", "5910": " fourth", "5911": " forget", "5912": " famous", "5913": " environmental", "5914": " emot", "5915": " electricity", "5916": " donepezil", "5917": " discl", "5918": " declared", "5919": " drew", "5920": " crew", "5921": " crimes", "5922": " contain", "5923": " commitment", "5924": " cheap", "5925": " chocolate", "5926": " button", "5927": " busy", "5928": " bright", "5929": " baseball", "5930": " bunch", "5931": " assum", "5932": " appropri", "5933": " agent", "5934": " acknow", "5935": " Wood", "5936": " USA", "5937": " Those", "5938": " Sup", "5939": " ST", "5940": " Research", "5941": " Pack", "5942": " Mexico", "5943": " Mem", "5944": " Max", "5945": " Lou", "5946": " Jr", "5947": " Hy", "5948": " Francis", "5949": " Disney", "5950": " Another", "5951": " Ak", "5952": " 1990", "5953": "ye", "5954": "xico", "5955": "unting", "5956": "sts", "5957": "soft", "5958": "ski", "5959": "ruption", "5960": "ronic", "5961": "quote", "5962": "oston", "5963": "orthern", "5964": "oked", "5965": "lyn", "5966": "isf", "5967": "iami", "5968": "hedul", "5969": "emic", "5970": "antastic", "5971": "anche", "5972": "ancy", "5973": "allel", "5974": "Pe", "5975": "Many", "5976": "Leaks", "5977": "LL", "5978": "Another", "5979": "App", "5980": "88", "5981": "47", "5982": "39", "5983": "36", "5984": "):", "5985": " \u00e2\u009d", "5986": " youth", "5987": " violent", "5988": " univers", "5989": " tests", "5990": " talent", "5991": " surprised", "5992": " slowly", "5993": " simpl", "5994": " shots", "5995": " sentence", "5996": " sem", "5997": " schedul", "5998": " sample", "5999": " represents", "6000": " reasonable", "6001": " ride", "6002": " quant", "6003": " posts", "6004": " positions", "6005": " plug", "6006": " ped", "6007": " park", "6008": " output", "6009": " networks", "6010": " navig", "6011": " manufacture", "6012": " legisl", "6013": " lin", "6014": " gender", "6015": " funny", "6016": " forg", "6017": " earn", "6018": " developing", "6019": " depth", "6020": " democracy", "6021": " der", "6022": " consult", "6023": " condem", "6024": " comed", "6025": " column", "6026": " cann", "6027": " camer", "6028": " causes", "6029": " cert", "6030": " begins", "6031": " authority", "6032": " auth", "6033": " attempts", "6034": " attacked", "6035": " alt", "6036": " advanced", "6037": " Us", "6038": " Syrian", "6039": " Sky", "6040": " Robert", "6041": " PENIS", "6042": " Mont", "6043": " Mad", "6044": " Italian", "6045": " Goodell", "6046": " Fire", "6047": " Dream", "6048": " Bernie", "6049": " Asian", "6050": "zeged", "6051": "zegedi", "6052": "useum", "6053": "unte", "6054": "ulner", "6055": "uous", "6056": "under", "6057": "thon", "6058": "that", "6059": "rich", "6060": "ours", "6061": "osexual", "6062": "olan", "6063": "obby", "6064": "mond", "6065": "mm", "6066": "mal", "6067": "lig", "6068": "izz", "6069": "itzer", "6070": "illed", "6071": "ils", "6072": "illy", "6073": "ikiLeaks", "6074": "igenous", "6075": "esome", "6076": "cons", "6077": "cks", "6078": "arrass", "6079": "arp", "6080": "anes", "6081": "afe", "6082": "____", "6083": "Two", "6084": "LS", "6085": " \u00ce\u00b1", "6086": " writers", "6087": " winner", "6088": " variety", "6089": " uncle", "6090": " typical", "6091": " terrible", "6092": " tiny", "6093": " suddenly", "6094": " suit", "6095": " streets", "6096": " stopped", "6097": " stadium", "6098": " square", "6099": " representative", "6100": " regarding", "6101": " rapid", "6102": " rank", "6103": " pushed", "6104": " polls", "6105": " nearby", "6106": " metal", "6107": " marathon", "6108": " mouth", "6109": " literature", "6110": " lived", "6111": " lit", "6112": " injured", "6113": " holds", "6114": " hell", "6115": " gradu", "6116": " filled", "6117": " facilities", "6118": " flying", "6119": " fixed", "6120": " fashion", "6121": " estate", "6122": " encoun", "6123": " embr", "6124": " doors", "6125": " describe", "6126": " dairy", "6127": " controlled", "6128": " completed", "6129": " complicated", "6130": " components", "6131": " communications", "6132": " beer", "6133": " approx", "6134": " Xander", "6135": " Whe", "6136": " Valley", "6137": " Vill", "6138": " Viet", "6139": " Ukraine", "6140": " Spain", "6141": " Pacific", "6142": " OK", "6143": " M\u00c3\u00a9xico", "6144": " Met", "6145": " Irish", "6146": " Home", "6147": " Group", "6148": " Fre", "6149": " Deb", "6150": " Charl", "6151": " Central", "6152": " Brady", "6153": " Bet", "6154": " Ba", "6155": " Agency", "6156": " Aven", "6157": "\u00e2\u0096\u0088\u00e2\u0096\u0088", "6158": "ternal", "6159": "scale", "6160": "rozen", "6161": "rie", "6162": "ran", "6163": "ource", "6164": "ordin", "6165": "onym", "6166": "mbly", "6167": "list", "6168": "iques", "6169": "interest", "6170": "indle", "6171": "iors", "6172": "gery", "6173": "eping", "6174": "ensed", "6175": "ellectual", "6176": "elines", "6177": "called", "6178": "athan", "6179": "asts", "6180": "arters", "6181": "anged", "6182": "ademy", "6183": "abin", "6184": "Ps", "6185": "Our", "6186": "Oh", "6187": "Ob", "6188": "His", "6189": "Add", "6190": "38", "6191": "27", "6192": " vice", "6193": " trouble", "6194": " troub", "6195": " tested", "6196": " suffered", "6197": " routine", "6198": " responded", "6199": " remote", "6200": " remark", "6201": " relationships", "6202": " recall", "6203": " ratio", "6204": " rail", "6205": " practices", "6206": " plus", "6207": " palace", "6208": " overse", "6209": " obvious", "6210": " neither", "6211": " married", "6212": " migr", "6213": " literally", "6214": " lawyers", "6215": " je", "6216": " intention", "6217": " indeed", "6218": " importance", "6219": " hoping", "6220": " helping", "6221": " greatest", "6222": " grav", "6223": " forth", "6224": " folks", "6225": " fighters", "6226": " entre", "6227": " enemies", "6228": " emp", "6229": " drivers", "6230": " dynam", "6231": " competitive", "6232": " cook", "6233": " broke", "6234": " brew", "6235": " bills", "6236": " batt", "6237": " bare", "6238": " arrived", "6239": " agenda", "6240": " Supreme", "6241": " Sov", "6242": " Palestinian", "6243": " Ontario", "6244": " Mu", "6245": " Linc", "6246": " Kevin", "6247": " Gal", "6248": " Fe", "6249": " Despite", "6250": " Delhi", "6251": " Defense", "6252": " Chief", "6253": " Card", "6254": " Bowl", "6255": " Boston", "6256": " Atlantic", "6257": " 33", "6258": " 2006", "6259": " x", "6260": "zo", "6261": "vey", "6262": "ubic", "6263": "uan", "6264": "trans", "6265": "thew", "6266": "ston", "6267": "pton", "6268": "prene", "6269": "orse", "6270": "omsky", "6271": "obs", "6272": "loop", "6273": "itc", "6274": "iscal", "6275": "icon", "6276": "iot", "6277": "hered", "6278": "hy", "6279": "ghazi", "6280": "ensing", "6281": "apter", "6282": "agers", "6283": "Then", "6284": "GE", "6285": "Follow", "6286": "Conn", "6287": "CH", "6288": " yesterday", "6289": " welfare", "6290": " volunte", "6291": " volume", "6292": " vir", "6293": " updated", "6294": " universe", "6295": " unemployment", "6296": " trained", "6297": " tools", "6298": " tech", "6299": " talks", "6300": " strength", "6301": " stores", "6302": " stood", "6303": " squad", "6304": " spect", "6305": " shel", "6306": " seriously", "6307": " sister", "6308": " resolution", "6309": " reporting", "6310": " regulatory", "6311": " referred", "6312": " reward", "6313": " puppy", "6314": " param", "6315": " outl", "6316": " ng", "6317": " nations", "6318": " memories", "6319": " mut", "6320": " lots", "6321": " losing", "6322": " locations", "6323": " letters", "6324": " layer", "6325": " lawyer", "6326": " label", "6327": " invent", "6328": " honor", "6329": " height", "6330": " hol", "6331": " governments", "6332": " fifth", "6333": " fairly", "6334": " failure", "6335": " fo", "6336": " evalu", "6337": " enh", "6338": " embarrass", "6339": " deals", "6340": " creation", "6341": " county", "6342": " controller", "6343": " constit", "6344": " complaint", "6345": " ciudad", "6346": " bringing", "6347": " bridge", "6348": " burn", "6349": " assistant", "6350": " anywhere", "6351": " album", "6352": " agricult", "6353": " affected", "6354": " abuse", "6355": " Year", "6356": " Steve", "6357": " Read", "6358": " Nic", "6359": " Foundation", "6360": " Faun", "6361": " Federal", "6362": " Enter", "6363": " Club", "6364": " Catholic", "6365": " Cle", "6366": " CNN", "6367": " Beach", "6368": " Ariz", "6369": " Any", "6370": " Africa", "6371": " Adm", "6372": " Add", "6373": " AM", "6374": " 32", "6375": "urning", "6376": "unicip", "6377": "uas", "6378": "phal", "6379": "person", "6380": "pers", "6381": "oval", "6382": "ounded", "6383": "opard", "6384": "mod", "6385": "mes", "6386": "mart", "6387": "ibur", "6388": "ih", "6389": "ht", "6390": "edd", "6391": "dule", "6392": "aying", "6393": "aska", "6394": "ansas", "6395": "annon", "6396": "ano", "6397": "aiwan", "6398": "Per", "6399": "CT", "6400": "58", "6401": "57", "6402": " vulner", "6403": " unlikely", "6404": " unus", "6405": " terrorist", "6406": " template", "6407": " targets", "6408": " tackle", "6409": " tone", "6410": " sweet", "6411": " strikes", "6412": " somehow", "6413": " singing", "6414": " screens", "6415": " sought", "6416": " replaced", "6417": " relevant", "6418": " regulations", "6419": " reference", "6420": " publicly", "6421": " prompt", "6422": " possibly", "6423": " penalty", "6424": " pra", "6425": " pages", "6426": " overw", "6427": " opposed", "6428": " operator", "6429": " obst", "6430": " neut", "6431": " listen", "6432": " lets", "6433": " inspect", "6434": " harass", "6435": " hat", "6436": " goods", "6437": " gonna", "6438": " footage", "6439": " findings", "6440": " fewer", "6441": " faster", "6442": " exerc", "6443": " everybody", "6444": " endow", "6445": " encourage", "6446": " employment", "6447": " effectively", "6448": " discover", "6449": " denied", "6450": " connected", "6451": " classes", "6452": " clim", "6453": " causing", "6454": " cold", "6455": " backed", "6456": " atmosphere", "6457": " aid", "6458": " Williams", "6459": " Way", "6460": " Water", "6461": " UN", "6462": " Switzer", "6463": " Soviet", "6464": " Szegedi", "6465": " Right", "6466": " Public", "6467": " Please", "6468": " Olympic", "6469": " Michigan", "6470": " Miami", "6471": " Metro", "6472": " Link", "6473": " Jud", "6474": " Journal", "6475": " FBI", "6476": " Eastern", "6477": " During", "6478": " Den", "6479": " Dar", "6480": " Christie", "6481": " Benghazi", "6482": " Back", "6483": " Andrew", "6484": " 34", "6485": " 2001", "6486": "ynch", "6487": "ystem", "6488": "you", "6489": "vy", "6490": "standing", "6491": "ruit", "6492": "rones", "6493": "ript", "6494": "oln", "6495": "ola", "6496": "itors", "6497": "itar", "6498": "icits", "6499": "icine", "6500": "icide", "6501": "host", "6502": "game", "6503": "foot", "6504": "etroit", "6505": "etary", "6506": "erves", "6507": "ellent", "6508": "dogan", "6509": "cking", "6510": "cific", "6511": "bian", "6512": "bal", "6513": "awn", "6514": "Spe", "6515": "Rep", "6516": "Police", "6517": "Mc", "6518": "ASA", "6519": ",'", "6520": " weird", "6521": " wear", "6522": " victims", "6523": " upgrade", "6524": " tickets", "6525": " testing", "6526": " suffer", "6527": " subsequ", "6528": " stable", "6529": " spell", "6530": " scientific", "6531": " scheduled", "6532": " roof", "6533": " representation", "6534": " refere", "6535": " raising", "6536": " promise", "6537": " proced", "6538": " principles", "6539": " potentially", "6540": " playoff", "6541": " payments", "6542": " necessarily", "6543": " nut", "6544": " native", "6545": " motor", "6546": " mort", "6547": " latter", "6548": " item", "6549": " introduced", "6550": " intent", "6551": " inspir", "6552": " inflation", "6553": " inqu", "6554": " illust", "6555": " hyd", "6556": " hopes", "6557": " habit", "6558": " hitting", "6559": " gal", "6560": " frequently", "6561": " founded", "6562": " favour", "6563": " fiscal", "6564": " excited", "6565": " evening", "6566": " entr", "6567": " engineering", "6568": " empt", "6569": " elected", "6570": " edge", "6571": " criticism", "6572": " crack", "6573": " contrast", "6574": " clot", "6575": " chemical", "6576": " cameras", "6577": " boss", "6578": " bath", "6579": " asks", "6580": " arc", "6581": " approximately", "6582": " amounts", "6583": " allies", "6584": " aimed", "6585": " Tim", "6586": " Stand", "6587": " Second", "6588": " Sum", "6589": " Nov", "6590": " Minnes", "6591": " Microsoft", "6592": " Mount", "6593": " Lincoln", "6594": " Lib", "6595": " Eric", "6596": " DeCicco", "6597": " Collins", "6598": " Church", "6599": " Chomsky", "6600": " Burton", "6601": " Brian", "6602": " Bir", "6603": " 45", "6604": " 400", "6605": " 1982", "6606": " 150", "6607": "\u00c3\u00a7", "6608": "zens", "6609": "yr", "6610": "udd", "6611": "uild", "6612": "state", "6613": "skins", "6614": "roud", "6615": "plete", "6616": "plom", "6617": "perloop", "6618": "perform", "6619": "pm", "6620": "osite", "6621": "osh", "6622": "opoul", "6623": "oom", "6624": "inations", "6625": "ifies", "6626": "idency", "6627": "gia", "6628": "ffee", "6629": "from", "6630": "cluding", "6631": "bow", "6632": "asure", "6633": "angers", "6634": "ani", "6635": "Well", "6636": "PR", "6637": "Over", "6638": "OW", "6639": "Go", "6640": "Facebook", "6641": "Even", "6642": "Despite", "6643": "49", "6644": "199", "6645": " waste", "6646": " vac", "6647": " transp", "6648": " touchdown", "6649": " totally", "6650": " torrent", "6651": " techniques", "6652": " technical", "6653": " tag", "6654": " strain", "6655": " statistics", "6656": " solutions", "6657": " skills", "6658": " shark", "6659": " serving", "6660": " ske", "6661": " recycl", "6662": " rif", "6663": " promised", "6664": " profit", "6665": " pool", "6666": " physics", "6667": " passengers", "6668": " pil", "6669": " meters", "6670": " inner", "6671": " hardware", "6672": " guid", "6673": " guarant", "6674": " follows", "6675": " fee", "6676": " fed", "6677": " expression", "6678": " driven", "6679": " drawing", "6680": " division", "6681": " dismiss", "6682": " diplom", "6683": " deficits", "6684": " deficit", "6685": " convention", "6686": " concent", "6687": " comprom", "6688": " circum", "6689": " carrying", "6690": " billions", "6691": " arguments", "6692": " announcement", "6693": " alongside", "6694": " Wilson", "6695": " Wars", "6696": " Vot", "6697": " Tem", "6698": " Still", "6699": " Solar", "6700": " Planned", "6701": " Pap", "6702": " ON", "6703": " OF", "6704": " Nobel", "6705": " Minnesota", "6706": " Ma", "6707": " MMA", "6708": " Louis", "6709": " Lions", "6710": " Lead", "6711": " Jose", "6712": " Jes", "6713": " Indianapolis", "6714": " Illinois", "6715": " Howard", "6716": " Gall", "6717": " Fol", "6718": " Fam", "6719": " Christmas", "6720": " Camp", "6721": " Benjamin", "6722": " Ark", "6723": " 500", "6724": " 42", "6725": " ;", "6726": "ulated", "6727": "uction", "6728": "sect", "6729": "rical", "6730": "ourney", "6731": "oore", "6732": "onso", "6733": "nic", "6734": "mos", "6735": "inter", "6736": "inity", "6737": "icking", "6738": "gun", "6739": "endment", "6740": "enger", "6741": "emb", "6742": "een", "6743": "cosystem", "6744": "class", "6745": "cas", "6746": "arsh", "6747": "antic", "6748": "amber", "6749": "adle", "6750": "Who", "6751": "Ww", "6752": "WPrincess", "6753": "WPrincessPwny", "6754": "WPrincessPwnyWw", "6755": "VR", "6756": "Res", "6757": "Rel", "6758": "Once", "6759": "Dis", "6760": "Coin", "6761": "BA", "6762": "%.", "6763": " zone", "6764": " younger", "6765": " worry", "6766": " visited", "6767": " upcoming", "6768": " university", "6769": " therefore", "6770": " tub", "6771": " suspected", "6772": " surrounding", "6773": " succeed", "6774": " studio", "6775": " struggle", "6776": " stronger", "6777": " striking", "6778": " skill", "6779": " shopping", "6780": " settlement", "6781": " sale", "6782": " removal", "6783": " remaining", "6784": " registered", "6785": " regional", "6786": " rely", "6787": " rig", "6788": " rally", "6789": " purchase", "6790": " providers", "6791": " protes", "6792": " profile", "6793": " proceed", "6794": " pictures", "6795": " philosoph", "6796": " perfectly", "6797": " passes", "6798": " partnership", "6799": " palaces", "6800": " picks", "6801": " motiv", "6802": " moder", "6803": " liberal", "6804": " landsc", "6805": " laugh", "6806": " knowing", "6807": " instit", "6808": " incredible", "6809": " impossible", "6810": " heavily", "6811": " handed", "6812": " flag", "6813": " fees", "6814": " facility", "6815": " fantastic", "6816": " evil", "6817": " endowment", "6818": " editor", "6819": " ecosystem", "6820": " east", "6821": " dozen", "6822": " dinner", "6823": " diagn", "6824": " developer", "6825": " description", "6826": " deck", "6827": " drawn", "6828": " concluded", "6829": " complaints", "6830": " client", "6831": " centre", "6832": " cited", "6833": " bull", "6834": " authors", "6835": " ancient", "6836": " acting", "6837": " Women", "6838": " Wi", "6839": " VR", "6840": " Under", "6841": " Techn", "6842": " Tra", "6843": " Tig", "6844": " Ted", "6845": " Space", "6846": " Sign", "6847": " Redskins", "6848": " Reuters", "6849": " Prof", "6850": " Order", "6851": " Once", "6852": " Lo", "6853": " Kindle", "6854": " Harvard", "6855": " Harris", "6856": " Finnick", "6857": " Fund", "6858": " Fore", "6859": " Final", "6860": " Fin", "6861": " Fil", "6862": " Each", "6863": " Carl", "6864": " Before", "6865": " Arizona", "6866": " Again", "6867": " 300", "6868": " 2004", "6869": " 1970", "6870": " error", "6871": "\u00e2\u0080\u0099,", "6872": "utch", "6873": "scope", "6874": "sen", "6875": "ributed", "6876": "rep", "6877": "preced", "6878": "precedented", "6879": "phas", "6880": "opoulos", "6881": "olly", "6882": "oco", "6883": "izon", "6884": "isan", "6885": "iley", "6886": "ildren", "6887": "iat", "6888": "hand", "6889": "gu", "6890": "gar", "6891": "essel", "6892": "erring", "6893": "col", "6894": "amsung", "6895": "ador", "6896": "VI", "6897": "LA", "6898": "Inst", "6899": "IG", "6900": "HA", "6901": "Ed", "6902": "ET", "6903": "Although", "6904": "Also", "6905": "Ass", "6906": "59", "6907": "46", "6908": " worker", "6909": " wood", "6910": " voted", "6911": " vacc", "6912": " thr", "6913": " thick", "6914": " surgery", "6915": " span", "6916": " signing", "6917": " selling", "6918": " script", "6919": " scandal", "6920": " satisf", "6921": " roster", "6922": " reportedly", "6923": " rub", "6924": " politicians", "6925": " plants", "6926": " pump", "6927": " overl", "6928": " outcome", "6929": " orbit", "6930": " opens", "6931": " occurred", "6932": " obt", "6933": " neutral", "6934": " narr", "6935": " manner", "6936": " magazine", "6937": " municip", "6938": " lights", "6939": " legit", "6940": " isol", "6941": " involvement", "6942": " intervention", "6943": " inspired", "6944": " industrial", "6945": " increases", "6946": " inches", "6947": " identify", "6948": " gear", "6949": " gang", "6950": " frust", "6951": " flo", "6952": " fab", "6953": " experiences", "6954": " executives", "6955": " everywhere", "6956": " establishment", "6957": " essential", "6958": " elev", "6959": " dollar", "6960": " discovery", "6961": " cultural", "6962": " crops", "6963": " consumer", "6964": " craft", "6965": " bip", "6966": " ath", "6967": " ads", "6968": " Yeah", "6969": " Ult", "6970": " Taiwan", "6971": " Shell", "6972": " Roman", "6973": " Muslims", "6974": " Mayor", "6975": " MP", "6976": " Love", "6977": " Little", "6978": " Line", "6979": " Guardian", "6980": " Gar", "6981": " GM", "6982": " DogeCoin", "6983": " Cup", "6984": " Ciudad", "6985": " Avenue", "6986": " African", "6987": " 2003", "6988": "\u00c4\u00b1n", "6989": "yo", "6990": "yer", "6991": "who", "6992": "wWPrincessPwnyWw", "6993": "ushed", "6994": "ureau", "6995": "unter", "6996": "uine", "6997": "rooms", "6998": "ressed", "6999": "redit", "7000": "ouri", "7001": "oured", "7002": "opy", "7003": "oof", "7004": "nty", "7005": "matical", "7006": "mine", "7007": "laugh", "7008": "ko", "7009": "kay", "7010": "ixel", "7011": "ignty", "7012": "icious", "7013": "ican", "7014": "herd", "7015": "food", "7016": "ework", "7017": "eters", "7018": "essions", "7019": "esy", "7020": "ena", "7021": "arl", "7022": "ante", "7023": "ando", "7024": "agh", "7025": "acts", "7026": "WS", "7027": "OC", "7028": "News", "7029": "Ne", "7030": "LC", "7031": "FP", "7032": "CE", "7033": "53", "7034": ".\"[", "7035": " warming", "7036": " wins", "7037": " village", "7038": " unclear", "7039": " trees", "7040": " trail", "7041": " theme", "7042": " thin", "7043": " terrorism", "7044": " technique", "7045": " tales", "7046": " tackles", "7047": " tree", "7048": " suggesting", "7049": " strike", "7050": " stup", "7051": " spr", "7052": " scheme", "7053": " sick", "7054": " sending", "7055": " ruling", "7056": " ruled", "7057": " ridicul", "7058": " represented", "7059": " reput", "7060": " rendering", "7061": " remained", "7062": " register", "7063": " reaction", "7064": " rural", "7065": " quiet", "7066": " pointing", "7067": " personnel", "7068": " permanent", "7069": " percentage", "7070": " overwhel", "7071": " organizations", "7072": " opposite", "7073": " newly", "7074": " negotiations", "7075": " motion", "7076": " mole", "7077": " marketing", "7078": " mir", "7079": " master", "7080": " listening", "7081": " lies", "7082": " kiss", "7083": " joint", "7084": " involving", "7085": " innoc", "7086": " iPh", "7087": " humanity", "7088": " harassment", "7089": " gather", "7090": " femin", "7091": " factor", "7092": " fur", "7093": " expressed", "7094": " experienced", "7095": " essentially", "7096": " ending", "7097": " efficient", "7098": " drag", "7099": " domin", "7100": " directed", "7101": " detailed", "7102": " deli", "7103": " controls", "7104": " continuing", "7105": " contr", "7106": " consequences", "7107": " comfortable", "7108": " collabor", "7109": " champ", "7110": " breach", "7111": " brut", "7112": " bases", "7113": " awesome", "7114": " artist", "7115": " arrange", "7116": " apply", "7117": " alive", "7118": " activists", "7119": " Warner", "7120": " Time", "7121": " Tax", "7122": " Stone", "7123": " Society", "7124": " Sn", "7125": " Sher", "7126": " See", "7127": " Reno", "7128": " Rog", "7129": " Palace", "7130": " Pot", "7131": " Oper", "7132": " Lightbody", "7133": " Ken", "7134": " Jersey", "7135": " Islands", "7136": " Indigenous", "7137": " Invest", "7138": " Inf", "7139": " Ivan", "7140": " Gard", "7141": " Free", "7142": " DeMaria", "7143": " Du", "7144": " Daily", "7145": " Cow", "7146": " Browns", "7147": " Board", "7148": "\u00c3\u00a9s", "7149": "west", "7150": "water", "7151": "verty", "7152": "rency", "7153": "rehens", "7154": "razil", "7155": "raid", "7156": "ras", "7157": "pool", "7158": "orne", "7159": "orage", "7160": "oque", "7161": "ns", "7162": "lesh", "7163": "landers", "7164": "long", "7165": "ishop", "7166": "iments", "7167": "image", "7168": "hetic", "7169": "hent", "7170": "gor", "7171": "found", "7172": "ema", "7173": "eless", "7174": "ecutive", "7175": "dney", "7176": "calibur", "7177": "boy", "7178": "aylor", "7179": "aly", "7180": "Where", "7181": "Up", "7182": "Reuters", "7183": "NT", "7184": "IV", "7185": "Com", "7186": "CNN", "7187": "BO", "7188": "Any", "7189": "Am", "7190": "AV", "7191": "31", "7192": "300", "7193": " withd", "7194": " vital", "7195": " unit", "7196": " unt", "7197": " transl", "7198": " tun", "7199": " swim", "7200": " substant", "7201": " stimulus", "7202": " statements", "7203": " speaks", "7204": " spin", "7205": " sovereignty", "7206": " somewhat", "7207": " smoking", "7208": " sharks", "7209": " selected", "7210": " selection", "7211": " scored", "7212": " savings", "7213": " sight", "7214": " route", "7215": " regions", "7216": " proposal", "7217": " pray", "7218": " poverty", "7219": " pa", "7220": " overseas", "7221": " outs", "7222": " origin", "7223": " opponent", "7224": " narrative", "7225": " mistake", "7226": " minute", "7227": " mas", "7228": " mand", "7229": " loud", "7230": " likes", "7231": " introduction", "7232": " immigration", "7233": " homosexual", "7234": " hired", "7235": " hidden", "7236": " guards", "7237": " generate", "7238": " genuine", "7239": " finds", "7240": " falls", "7241": " excellent", "7242": " empty", "7243": " employee", "7244": " earned", "7245": " earth", "7246": " dozens", "7247": " dialogue", "7248": " describes", "7249": " deploy", "7250": " deleg", "7251": " dump", "7252": " crucial", "7253": " corp", "7254": " controversy", "7255": " config", "7256": " conce", "7257": " compete", "7258": " chose", "7259": " cere", "7260": " blocked", "7261": " batting", "7262": " breat", "7263": " ben", "7264": " assets", "7265": " anyway", "7266": " answers", "7267": " adds", "7268": " absor", "7269": " abortion", "7270": " Westphal", "7271": " Ta", "7272": " Social", "7273": " Run", "7274": " Rel", "7275": " Ocean", "7276": " Nation", "7277": " NH", "7278": " Maybe", "7279": " Human", "7280": " Ha", "7281": " Global", "7282": " Games", "7283": " Force", "7284": " Faunus", "7285": " Follow", "7286": " Cosby", "7287": " Conserv", "7288": " Brexit", "7289": " Bry", "7290": " Arab", "7291": " Academy", "7292": " AT", "7293": " 64", "7294": " 1980", "7295": "yard", "7296": "vas", "7297": "umble", "7298": "respond", "7299": "rimin", "7300": "piracy", "7301": "pha", "7302": "otted", "7303": "orough", "7304": "kish", "7305": "izer", "7306": "itchen", "7307": "ighter", "7308": "idad", "7309": "essor", "7310": "esity", "7311": "esc", "7312": "ensus", "7313": "ensions", "7314": "enny", "7315": "eman", "7316": "eland", "7317": "burg", "7318": "aws", "7319": "aters", "7320": "ashes", "7321": "arre", "7322": "apes", "7323": "aling", "7324": "akland", "7325": "agram", "7326": "agin", "7327": "SPN", "7328": "People", "7329": "Like", "7330": "Jewish", "7331": "%)", "7332": " \u00e2\u0082", "7333": " warrant", "7334": " walks", "7335": " versions", "7336": " utility", "7337": " usual", "7338": " unusual", "7339": " unw", "7340": " unknown", "7341": " upper", "7342": " ticket", "7343": " territory", "7344": " tied", "7345": " stupid", "7346": " string", "7347": " smokers", "7348": " sky", "7349": " shr", "7350": " seemingly", "7351": " sees", "7352": " soph", "7353": " rod", "7354": " regularly", "7355": " recorded", "7356": " recognize", "7357": " recognition", "7358": " receiving", "7359": " rising", "7360": " pushing", "7361": " purposes", "7362": " portray", "7363": " officially", "7364": " nAChRs", "7365": " mills", "7366": " menu", "7367": " meaningful", "7368": " mix", "7369": " mal", "7370": " jury", "7371": " jun", "7372": " joke", "7373": " island", "7374": " interior", "7375": " historic", "7376": " golden", "7377": " formal", "7378": " forms", "7379": " forcing", "7380": " flood", "7381": " fu", "7382": " explore", "7383": " exceed", "7384": " edition", "7385": " divided", "7386": " discussions", "7387": " diss", "7388": " devast", "7389": " desk", "7390": " default", "7391": " decre", "7392": " dying", "7393": " customer", "7394": " crowds", "7395": " critics", "7396": " crash", "7397": " corruption", "7398": " contains", "7399": " congressional", "7400": " comparison", "7401": " covers", "7402": " coffee", "7403": " closely", "7404": " clinical", "7405": " cleared", "7406": " champion", "7407": " choices", "7408": " casino", "7409": " campus", "7410": " browser", "7411": " boxes", "7412": " batteries", "7413": " bon", "7414": " bes", "7415": " allegations", "7416": " adapt", "7417": " actor", "7418": " accurate", "7419": " Vol", "7420": " Tigers", "7421": " Tok", "7422": " Studio", "7423": " Som", "7424": " Sl", "7425": " Rose", "7426": " Ron", "7427": " Ram", "7428": " Python", "7429": " Patri", "7430": " Parent", "7431": " PS", "7432": " Nick", "7433": " Nav", "7434": " Marathon", "7435": " LTE", "7436": " Kerry", "7437": " Its", "7438": " Hyperloop", "7439": " Hope", "7440": " Hind", "7441": " Hell", "7442": " Graham", "7443": " Government", "7444": " Get", "7445": " Francisco", "7446": " FO", "7447": " Elect", "7448": " Constitution", "7449": " Columbia", "7450": " Class", "7451": " Champions", "7452": " Carol", "7453": " Business", "7454": " Bell", "7455": " Ball", "7456": " 38", "7457": " \u00c3", "7458": " id", "7459": "world", "7460": "uz", "7461": "tte", "7462": "shire", "7463": "rence", "7464": "reek", "7465": "raction", "7466": "phones", "7467": "press", "7468": "po", "7469": "ova", "7470": "ounce", "7471": "olars", "7472": "ographs", "7473": "ographic", "7474": "lines", "7475": "ket", "7476": "ja", "7477": "isters", "7478": "intendo", "7479": "inf", "7480": "ili", "7481": "iev", "7482": "icing", "7483": "icer", "7484": "ibilities", "7485": "iants", "7486": "https", "7487": "fall", "7488": "essed", "7489": "eron", "7490": "erg", "7491": "ennes", "7492": "elia", "7493": "eds", "7494": "edia", "7495": "dale", "7496": "cked", "7497": "baugh", "7498": "assador", "7499": "arry", "7500": "adel", "7501": "aco", "7502": "abled", "7503": "UC", "7504": "Today", "7505": "May", "7506": "LT", "7507": "Gen", "7508": "Ds", "7509": "DC", "7510": "Can", "7511": "About", "7512": "2014", "7513": " widely", "7514": " welcome", "7515": " walking", "7516": " wages", "7517": " vegan", "7518": " valu", "7519": " troops", "7520": " trading", "7521": " threats", "7522": " targeted", "7523": " tile", "7524": " suspended", "7525": " stops", "7526": " shortly", "7527": " sho", "7528": " shif", "7529": " server", "7530": " severe", "7531": " scoring", "7532": " samples", "7533": " sand", "7534": " risks", "7535": " requests", "7536": " representatives", "7537": " remarks", "7538": " ren", "7539": " rpg", "7540": " riv", "7541": " protesters", "7542": " properly", "7543": " profits", "7544": " proven", "7545": " priority", "7546": " premium", "7547": " practical", "7548": " phrase", "7549": " proud", "7550": " ourselves", "7551": " operate", "7552": " newslet", "7553": " mechanism", "7554": " listed", "7555": " legend", "7556": " lie", "7557": " kinds", "7558": " invested", "7559": " indicated", "7560": " indic", "7561": " insect", "7562": " informed", "7563": " ideal", "7564": " handful", "7565": " ham", "7566": " guns", "7567": " guide", "7568": " gotten", "7569": " framework", "7570": " exit", "7571": " entreprene", "7572": " encounter", "7573": " distinct", "7574": " discussed", "7575": " disappear", "7576": " directives", "7577": " desp", "7578": " demanding", "7579": " dealing", "7580": " dry", "7581": " corporations", "7582": " confront", "7583": " component", "7584": " compens", "7585": " coast", "7586": " channel", "7587": " cease", "7588": " cable", "7589": " buying", "7590": " brill", "7591": " barely", "7592": " ballot", "7593": " baby", "7594": " attempted", "7595": " astron", "7596": " army", "7597": " affairs", "7598": " afraid", "7599": " advance", "7600": " abandon", "7601": " WikiLeaks", "7602": " Watch", "7603": " Top", "7604": " Take", "7605": " Steam", "7606": " Sur", "7607": " Sir", "7608": " Sin", "7609": " Sar", "7610": " Rev", "7611": " Real", "7612": " Policy", "7613": " Pet", "7614": " Orig", "7615": " Only", "7616": " Nev", "7617": " NY", "7618": " Maryland", "7619": " Monsanto", "7620": " Mo", "7621": " Men", "7622": " Mass", "7623": " Indeed", "7624": " Haw", "7625": " Giles", "7626": " Frags", "7627": " Bros", "7628": " Anim", "7629": " iron", "7630": "zer", "7631": "words", "7632": "velopment", "7633": "usal", "7634": "upt", "7635": "uits", "7636": "tery", "7637": "starter", "7638": "sing", "7639": "rave", "7640": "perial", "7641": "orders", "7642": "oria", "7643": "olve", "7644": "oken", "7645": "overs", "7646": "mpt", "7647": "ivision", "7648": "iry", "7649": "inder", "7650": "including", "7651": "ilit", "7652": "igs", "7653": "iform", "7654": "idth", "7655": "ickstarter", "7656": "iciency", "7657": "icity", "7658": "iro", "7659": "gram", "7660": "erver", "7661": "enth", "7662": "elman", "7663": "eld", "7664": "dy", "7665": "comes", "7666": "cow", "7667": "burgh", "7668": "bery", "7669": "bar", "7670": "athy", "7671": "ateur", "7672": "ato", "7673": "atial", "7674": "arly", "7675": "antamine", "7676": "anger", "7677": "anchester", "7678": "acle", "7679": "Shea", "7680": "Sur", "7681": "SS", "7682": "Part", "7683": "Because", "7684": "....", "7685": "\".[", "7686": " viewers", "7687": " unprecedented", "7688": " typically", "7689": " triple", "7690": " transm", "7691": " transit", "7692": " tom", "7693": " ther", "7694": " tea", "7695": " tiles", "7696": " tear", "7697": " swing", "7698": " swaps", "7699": " subt", "7700": " stereotypes", "7701": " sty", "7702": " sleep", "7703": " sharing", "7704": " seniors", "7705": " scholars", "7706": " sid", "7707": " rot", "7708": " root", "7709": " returning", "7710": " reputation", "7711": " reader", "7712": " references", "7713": " racial", "7714": " raw", "7715": " province", "7716": " processes", "7717": " primarily", "7718": " prepare", "7719": " pron", "7720": " possession", "7721": " phones", "7722": " permit", "7723": " package", "7724": " ordered", "7725": " operators", "7726": " noticed", "7727": " messages", "7728": " mathe", "7729": " lesbian", "7730": " leak", "7731": " journey", "7732": " investigators", "7733": " incredibly", "7734": " improvements", "7735": " improving", "7736": " healthcare", "7737": " hole", "7738": " hits", "7739": " grown", "7740": " gating", "7741": " functions", "7742": " franch", "7743": " fort", "7744": " formed", "7745": " failing", "7746": " faced", "7747": " extensive", "7748": " exposed", "7749": " exclusive", "7750": " exhib", "7751": " ethics", "7752": " emissions", "7753": " drone", "7754": " differences", "7755": " destroyed", "7756": " deaths", "7757": " dat", "7758": " dad", "7759": " contained", "7760": " consistent", "7761": " confirm", "7762": " confidence", "7763": " como", "7764": " clearing", "7765": " claiming", "7766": " cho", "7767": " chain", "7768": " cul", "7769": " coc", "7770": " brown", "7771": " appropriate", "7772": " anymore", "7773": " aggressive", "7774": " acknowled", "7775": " Ze", "7776": " Without", "7777": " Worth", "7778": " Wor", "7779": " Virginia", "7780": " Vietnam", "7781": " Unfortunately", "7782": " Though", "7783": " Thank", "7784": " Stephen", "7785": " Span", "7786": " Section", "7787": " Rob", "7788": " Rights", "7789": " Rest", "7790": " Prot", "7791": " Price", "7792": " Observ", "7793": " Matthew", "7794": " Main", "7795": " Li", "7796": " Korean", "7797": " Kim", "7798": " Kas", "7799": " Ka", "7800": " Iss", "7801": " Id", "7802": " Hen", "7803": " Full", "7804": " Fried", "7805": " Foot", "7806": " Food", "7807": " Excalibur", "7808": " Editor", "7809": " Davis", "7810": " Detroit", "7811": " Check", "7812": " Charg", "7813": " Cut", "7814": " Credit", "7815": " Brazil", "7816": " Boy", "7817": " Book", "7818": " Alaska", "7819": " Ap", "7820": " 49", "7821": " 47", "7822": " err", "7823": "zed", "7824": "urrently", "7825": "unction", "7826": "umpa", "7827": "ulse", "7828": "udes", "7829": "ubs", "7830": "uh", "7831": "stop", "7832": "sea", "7833": "ship", "7834": "road", "7835": "regon", "7836": "phia", "7837": "pack", "7838": "pa", "7839": "onymous", "7840": "olph", "7841": "ogent", "7842": "ocke", "7843": "obile", "7844": "oir", "7845": "lder", "7846": "iveness", "7847": "itual", "7848": "itches", "7849": "isin", "7850": "isers", "7851": "ircle", "7852": "illa", "7853": "iago", "7854": "fe", "7855": "ested", "7856": "erted", "7857": "eria", "7858": "duc", "7859": "controll", "7860": "coin", "7861": "brid", "7862": "ava", "7863": "athers", "7864": "attered", "7865": "aron", "7866": "apers", "7867": "ahah", "7868": "agles", "7869": "adelphia", "7870": "aching", "7871": "abeth", "7872": "aud", "7873": "ae", "7874": "Your", "7875": "TML", "7876": "Tube", "7877": "Te", "7878": "Sp", "7879": "RS", "7880": "RI", "7881": "Perhaps", "7882": "PC", "7883": "Or", "7884": "Most", "7885": "Ke", "7886": "Buff", "7887": "Bre", "7888": "67", "7889": "42", "7890": " \u00c2\u00b9", "7891": " wars", "7892": " wake", "7893": " vulnerable", "7894": " ven", "7895": " util", "7896": " updates", "7897": " treatments", "7898": " traged", "7899": " tourn", "7900": " ties", "7901": " tast", "7902": " supports", "7903": " struck", "7904": " spokeswoman", "7905": " spots", "7906": " spaces", "7907": " somewhere", "7908": " soccer", "7909": " smooth", "7910": " smartphone", "7911": " shares", "7912": " secre", "7913": " seats", "7914": " sorbitol", "7915": " resulting", "7916": " restaurants", "7917": " residential", "7918": " remove", "7919": " rejected", "7920": " regardless", "7921": " recovery", "7922": " recon", "7923": " rarely", "7924": " racist", "7925": " rational", "7926": " quoted", "7927": " purchased", "7928": " provision", "7929": " protection", "7930": " prospect", "7931": " proport", "7932": " principle", "7933": " presum", "7934": " prime", "7935": " pledge", "7936": " patches", "7937": " panels", "7938": " pin", "7939": " owns", "7940": " obsc", "7941": " nose", "7942": " myster", "7943": " merely", "7944": " mainly", "7945": " mine", "7946": " mel", "7947": " landscape", "7948": " lock", "7949": " lists", "7950": " killer", "7951": " km", "7952": " king", "7953": " institutions", "7954": " initiative", "7955": " incent", "7956": " impressive", "7957": " implementation", "7958": " iPhone", "7959": " https", "7960": " historical", "7961": " hadn", "7962": " guilt", "7963": " grass", "7964": " gro", "7965": " foundation", "7966": " fighter", "7967": " featuring", "7968": " featured", "7969": " farmers", "7970": " fallen", "7971": " explan", "7972": " enth", "7973": " emerged", "7974": " emphas", "7975": " defeat", "7976": " decline", "7977": " debut", "7978": " dip", "7979": " custody", "7980": " covering", "7981": " coup", "7982": " contracts", "7983": " contem", "7984": " constantly", "7985": " consistently", "7986": " conspiracy", "7987": " connections", "7988": " conclusion", "7989": " collected", "7990": " cognition", "7991": " coaching", "7992": " coordin", "7993": " challenging", "7994": " cha", "7995": " centers", "7996": " celebrate", "7997": " careful", "7998": " capabilities", "7999": " cow", "8000": " cigare", "8001": " blind", "8002": " banned", "8003": " banking", "8004": " aside", "8005": " applied", "8006": " anticip", "8007": " ampl", "8008": " advocates", "8009": " adj", "8010": " adequ", "8011": " accomp", "8012": " acad", "8013": " Young", "8014": " Wumpa", "8015": " Ukrainian", "8016": " Tokyo", "8017": " System", "8018": " Services", "8019": " Samsung", "8020": " Sab", "8021": " Rus", "8022": " Rick", "8023": " Rad", "8024": " Place", "8025": " Philadelphia", "8026": " Packers", "8027": " Pop", "8028": " Moscow", "8029": " Lind", "8030": " Jesus", "8031": " Jac", "8032": " Hel", "8033": " Field", "8034": " Executive", "8035": " Erdogan", "8036": " Es", "8037": " EC", "8038": " Dog", "8039": " Dark", "8040": " Click", "8041": " CO", "8042": " Broncos", "8043": " Batman", "8044": " Bureau", "8045": " Associated", "8046": " Arm", "8047": " Andre", "8048": " ABC", "8049": " 1996", "8050": "\u00e1\u00b8", "8051": "\u00c4\u00b0", "8052": "\u00c3\u00a3", "8053": "\u00c3\u00a3o", "8054": "week", "8055": "ulet", "8056": "uleta", "8057": "uis", "8058": "thers", "8059": "this", "8060": "style", "8061": "star", "8062": "pass", "8063": "outing", "8064": "osit", "8065": "orted", "8066": "ormal", "8067": "ora", "8068": "ompl", "8069": "olds", "8070": "mpire", "8071": "mates", "8072": "leveland", "8073": "lessly", "8074": "kow", "8075": "istics", "8076": "iph", "8077": "ials", "8078": "iy", "8079": "iens", "8080": "herent", "8081": "force", "8082": "erts", "8083": "enders", "8084": "emit", "8085": "ellow", "8086": "eling", "8087": "cious", "8088": "car", "8089": "can", "8090": "born", "8091": "bits", "8092": "aze", "8093": "athered", "8094": "abis", "8095": "away", "8096": "aver", "8097": "Though", "8098": "Those", "8099": "Se", "8100": "RT", "8101": "Post", "8102": "Please", "8103": "Pl", "8104": "PO", "8105": "Game", "8106": "Fi", "8107": "ERS", "8108": "Before", "8109": "95", "8110": "51", "8111": " weigh", "8112": " west", "8113": " visible", "8114": " virtually", "8115": " veget", "8116": " voices", "8117": " tox", "8118": " sufficient", "8119": " struggling", "8120": " stun", "8121": " storage", "8122": " stone", "8123": " stake", "8124": " skin", "8125": " shoulder", "8126": " sharp", "8127": " sevent", "8128": " schedule", "8129": " scar", "8130": " southern", "8131": " roles", "8132": " revenues", "8133": " retired", "8134": " removing", "8135": " reaching", "8136": " revel", "8137": " rounds", "8138": " pulled", "8139": " propag", "8140": " proved", "8141": " precise", "8142": " platforms", "8143": " pilot", "8144": " permission", "8145": " perce", "8146": " pod", "8147": " pock", "8148": " opponents", "8149": " openly", "8150": " nobody", "8151": " natur", "8152": " monit", "8153": " manufacturers", "8154": " logic", "8155": " lucky", "8156": " ju", "8157": " irre", "8158": " interviews", "8159": " interaction", "8160": " intim", "8161": " intellectual", "8162": " innocent", "8163": " highlights", "8164": " hardly", "8165": " fatal", "8166": " falling", "8167": " factory", "8168": " flesh", "8169": " fet", "8170": " fake", "8171": " extended", "8172": " export", "8173": " exists", "8174": " evolution", "8175": " equality", "8176": " entered", "8177": " emotional", "8178": " disag", "8179": " detention", "8180": " desper", "8181": " depending", "8182": " decks", "8183": " dim", "8184": " dates", "8185": " counterpart", "8186": " contribution", "8187": " constant", "8188": " concre", "8189": " convert", "8190": " collecting", "8191": " coinc", "8192": " click", "8193": " circumst", "8194": " circuit", "8195": " ceiling", "8196": " capture", "8197": " bug", "8198": " brilliant", "8199": " balls", "8200": " authent", "8201": " athlet", "8202": " aspects", "8203": " apolog", "8204": " apartment", "8205": " aims", "8206": " actors", "8207": " accompl", "8208": " Zero", "8209": " Xtext", "8210": " Xbox", "8211": " Van", "8212": " Turkish", "8213": " Tony", "8214": " Tel", "8215": " Standard", "8216": " Store", "8217": " Season", "8218": " Scot", "8219": " Santiago", "8220": " Saf", "8221": " River", "8222": " Raj", "8223": " Princess", "8224": " Prem", "8225": " Oliver", "8226": " Oakland", "8227": " Mosse", "8228": " McCl", "8229": " MM", "8230": " Leaf", "8231": " Long", "8232": " Kickstarter", "8233": " Joyce", "8234": " Jonathan", "8235": " Jul", "8236": " Intelligence", "8237": " Hung", "8238": " Have", "8239": " Hard", "8240": " HD", "8241": " Gov", "8242": " Fran", "8243": " Fantasy", "8244": " Egyptian", "8245": " ESPN", "8246": " Dou", "8247": " Die", "8248": " Dam", "8249": " Dak", "8250": " Below", "8251": " Beck", "8252": " Bol", "8253": " Attacks", "8254": " Arc", "8255": " Administr", "8256": " 75", "8257": " 2018", "8258": " icon", "8259": "zheim", "8260": "zheimer", "8261": "weet", "8262": "writ", "8263": "vania", "8264": "via", "8265": "vd", "8266": "uably", "8267": "syl", "8268": "sylvania", "8269": "rating", "8270": "orry", "8271": "onsored", "8272": "oma", "8273": "olves", "8274": "ok\u00c3\u00a9", "8275": "ocoa", "8276": "mun", "8277": "mony", "8278": "maker", "8279": "mad", "8280": "layer", "8281": "kin", "8282": "iversary", "8283": "istory", "8284": "iser", "8285": "irms", "8286": "irate", "8287": "ini", "8288": "inating", "8289": "ilight", "8290": "ierra", "8291": "idis", "8292": "ibson", "8293": "helsea", "8294": "helle", "8295": "haust", "8296": "high", "8297": "hard", "8298": "gorith", "8299": "gn", "8300": "gets", "8301": "ette", "8302": "ether", "8303": "enture", "8304": "endor", "8305": "ellar", "8306": "des", "8307": "date", "8308": "dad", "8309": "claim", "8310": "bound", "8311": "appy", "8312": "anny", "8313": "aming", "8314": "active", "8315": "achment", "8316": "Will", "8317": "Watch", "8318": "Under", "8319": "Station", "8320": "Su", "8321": "Sen", "8322": "Mean", "8323": "Fox", "8324": "First", "8325": "400", "8326": " \u00e2\u0082\u00ac", "8327": " wheel", "8328": " viewed", "8329": " veteran", "8330": " tweeted", "8331": " trials", "8332": " trick", "8333": " tomorrow", "8334": " thoughts", "8335": " thrown", "8336": " testim", "8337": " temperature", "8338": " temporary", "8339": " targeting", "8340": " trib", "8341": " tight", "8342": " suspension", "8343": " subur", "8344": " suicide", "8345": " streaming", "8346": " stayed", "8347": " stuck", "8348": " stations", "8349": " stabil", "8350": " spons", "8351": " spoken", "8352": " songs", "8353": " segment", "8354": " scream", "8355": " satellite", "8356": " snow", "8357": " retire", "8358": " resource", "8359": " requirement", "8360": " remarkable", "8361": " refugees", "8362": " recover", "8363": " realistic", "8364": " radical", "8365": " ramp", "8366": " publication", "8367": " prospects", "8368": " programme", "8369": " producing", "8370": " presentation", "8371": " preparing", "8372": " philosophy", "8373": " phenomenon", "8374": " personality", "8375": " perception", "8376": " painted", "8377": " observed", "8378": " odd", "8379": " modul", "8380": " methods", "8381": " metap", "8382": " magn", "8383": " machines", "8384": " laid", "8385": " luck", "8386": " locked", "8387": " liqu", "8388": " introduce", "8389": " interpretation", "8390": " intense", "8391": " houses", "8392": " hosted", "8393": " helmet", "8394": " headed", "8395": " harder", "8396": " hang", "8397": " guitar", "8398": " gameplay", "8399": " extension", "8400": " extend", "8401": " dynamic", "8402": " disorder", "8403": " disaster", "8404": " differently", "8405": " dialect", "8406": " delay", "8407": " defined", "8408": " dedicated", "8409": " datab", "8410": " dict", "8411": " cream", "8412": " convicted", "8413": " conver", "8414": " cro", "8415": " brutal", "8416": " breeding", "8417": " bear", "8418": " bom", "8419": " biz", "8420": " bike", "8421": " attractive", "8422": " attended", "8423": " aspect", "8424": " artists", "8425": " animation", "8426": " angry", "8427": " agon", "8428": " Walmart", "8429": " Where", "8430": " Vis", "8431": " Tit", "8432": " Ten", "8433": " Tal", "8434": " Sweden", "8435": " Stephan", "8436": " Station", "8437": " Spanish", "8438": " Show", "8439": " Sox", "8440": " Sand", "8441": " Rangers", "8442": " Prize", "8443": " Prince", "8444": " Polit", "8445": " Parenthood", "8446": " Pok\u00c3\u00a9", "8447": " Pinterest", "8448": " Peter", "8449": " Oregon", "8450": " Od", "8451": " Nevada", "8452": " Nig", "8453": " NASA", "8454": " Moore", "8455": " Manchester", "8456": " Lot", "8457": " Lin", "8458": " Life", "8459": " Lew", "8460": " Las", "8461": " Land", "8462": " Lab", "8463": " Kings", "8464": " Josh", "8465": " Jason", "8466": " Issa", "8467": " IT", "8468": " HTML", "8469": " Georgia", "8470": " Faith", "8471": " Four", "8472": " Digg", "8473": " Comics", "8474": " Cloud", "8475": " Christopher", "8476": " Carolina", "8477": " Cook", "8478": " Cocoa", "8479": " Civil", "8480": " Bridge", "8481": " Bor", "8482": " Bh", "8483": " 1999", "8484": " ($", "8485": "\u00e2\u0080\u0099.", "8486": "wr", "8487": "uster", "8488": "umber", "8489": "ulating", "8490": "strong", "8491": "sch", "8492": "quarters", "8493": "plus", "8494": "peare", "8495": "pread", "8496": "pot", "8497": "post", "8498": "operation", "8499": "omy", "8500": "ographer", "8501": "oded", "8502": "ocratic", "8503": "ocated", "8504": "merce", "8505": "mers", "8506": "mend", "8507": "mate", "8508": "large", "8509": "kins", "8510": "iverpool", "8511": "ivalent", "8512": "istration", "8513": "istance", "8514": "igious", "8515": "iffs", "8516": "iden", "8517": "hetor", "8518": "heast", "8519": "hab", "8520": "flix", "8521": "ensity", "8522": "endar", "8523": "elson", "8524": "dri", "8525": "def", "8526": "bled", "8527": "aya", "8528": "argo", "8529": "arlier", "8530": "arians", "8531": "angular", "8532": "anges", "8533": "alling", "8534": "akespeare", "8535": "aka", "8536": "ados", "8537": "ader", "8538": "adas", "8539": "aire", "8540": "Yes", "8541": "Story", "8542": "RO", "8543": "PM", "8544": "NBC", "8545": "Hey", "8546": "Gl", "8547": "FO", "8548": "Are", "8549": "?)", "8550": "54", "8551": "43", "8552": "\":", "8553": " worldwide", "8554": " worried", "8555": " websites", "8556": " wine", "8557": " western", "8558": " transg", "8559": " tragedy", "8560": " tournament", "8561": " temperatures", "8562": " telephone", "8563": " teachers", "8564": " tas", "8565": " synt", "8566": " structures", "8567": " strict", "8568": " steals", "8569": " stack", "8570": " somebody", "8571": " solve", "8572": " smoke", "8573": " skept", "8574": " situations", "8575": " shadow", "8576": " serves", "8577": " senator", "8578": " screensh", "8579": " scrap", "8580": " satellites", "8581": " ridiculous", "8582": " restrictions", "8583": " reads", "8584": " recept", "8585": " ranked", "8586": " ranking", "8587": " raises", "8588": " rival", "8589": " rating", "8590": " prominent", "8591": " preseason", "8592": " pounds", "8593": " outlets", "8594": " organized", "8595": " ordinary", "8596": " offices", "8597": " obesity", "8598": " neighborhoods", "8599": " monitor", "8600": " metaphor", "8601": " losses", "8602": " linked", "8603": " lunch", "8604": " lobby", "8605": " joining", "8606": " incorpor", "8607": " inform", "8608": " indu", "8609": " humor", "8610": " hur", "8611": " hook", "8612": " genes", "8613": " gross", "8614": " flav", "8615": " flash", "8616": " fulf", "8617": " fuck", "8618": " fought", "8619": " firms", "8620": " firing", "8621": " fasc", "8622": " exhaust", "8623": " excess", "8624": " equally", "8625": " engineers", "8626": " discussing", "8627": " desert", "8628": " degrees", "8629": " damages", "8630": " distr", "8631": " dil", "8632": " diet", "8633": " currency", "8634": " creates", "8635": " courts", "8636": " competing", "8637": " comprehens", "8638": " compelling", "8639": " comedy", "8640": " chosen", "8641": " chapter", "8642": " centuries", "8643": " breaks", "8644": " boycott", "8645": " bench", "8646": " bow", "8647": " bot", "8648": " bac", "8649": " attitude", "8650": " arena", "8651": " algorith", "8652": " alc", "8653": " adviser", "8654": " actively", "8655": " Vl", "8656": " Ver", "8657": " Veg", "8658": " Team", "8659": " Tip", "8660": " Sydney", "8661": " Stack", "8662": " Spring", "8663": " Shakespeare", "8664": " Sean", "8665": " Somet", "8666": " Sol", "8667": " Sac", "8668": " Russell", "8669": " Remar", "8670": " Ros", "8671": " PlayStation", "8672": " Patriots", "8673": " Point", "8674": " Offer", "8675": " Ok", "8676": " Nin", "8677": " Missouri", "8678": " Medical", "8679": " Leader", "8680": " Lynch", "8681": " Lim", "8682": " Kingdom", "8683": " Independ", "8684": " Hamas", "8685": " Gro", "8686": " Gord", "8687": " GPU", "8688": " Fight", "8689": " Eagles", "8690": " Draft", "8691": " Dec", "8692": " Charles", "8693": " Centre", "8694": " Cortex", "8695": " CA", "8696": " Bam", "8697": " Author", "8698": " Austin", "8699": " Antifa", "8700": " Action", "8701": " Acc", "8702": " 1997", "8703": "\u00f0\u009f", "8704": "uther", "8705": "ultane", "8706": "uded", "8707": "uzz", "8708": "tes", "8709": "rypt", "8710": "runner", "8711": "rosso", "8712": "rimination", "8713": "performing", "8714": "py", "8715": "ounced", "8716": "ouston", "8717": "otten", "8718": "orious", "8719": "opes", "8720": "only", "8721": "oned", "8722": "omer", "8723": "olen", "8724": "ogether", "8725": "oca", "8726": "nered", "8727": "note", "8728": "natural", "8729": "lington", "8730": "lem", "8731": "laughs", "8732": "jar", "8733": "itals", "8734": "ista", "8735": "isal", "8736": "irrel", "8737": "ipal", "8738": "inced", "8739": "inals", "8740": "illions", "8741": "idespread", "8742": "gence", "8743": "friendly", "8744": "founder", "8745": "everal", "8746": "ective", "8747": "ez", "8748": "dit", "8749": "dis", "8750": "cles", "8751": "backs", "8752": "bot", "8753": "bec", "8754": "aund", "8755": "ateral", "8756": "annie", "8757": "amped", "8758": "agement", "8759": "acted", "8760": "acket", "8761": "accur", "8762": "acular", "8763": "abinet", "8764": "Sanders", "8765": "Meanwhile", "8766": "LB", "8767": "IM", "8768": "HO", "8769": "Fix", "8770": "Cal", "8771": "Box", "8772": "96", "8773": "84", "8774": "800", "8775": " });", "8776": " weather", "8777": " warning", "8778": " violations", "8779": " versus", "8780": " valuable", "8781": " underground", "8782": " union", "8783": " uniform", "8784": " tries", "8785": " transportation", "8786": " tonight", "8787": " togg", "8788": " thank", "8789": " thread", "8790": " tenants", "8791": " technologies", "8792": " taxpay", "8793": " tale", "8794": " sustainable", "8795": " survived", "8796": " supplies", "8797": " subscribe", "8798": " studied", "8799": " spokesperson", "8800": " spark", "8801": " simultane", "8802": " shock", "8803": " shit", "8804": " shall", "8805": " secure", "8806": " rooms", "8807": " rocket", "8808": " resulted", "8809": " residence", "8810": " resc", "8811": " replied", "8812": " relief", "8813": " reliable", "8814": " reduction", "8815": " recipe", "8816": " reverse", "8817": " rapidly", "8818": " ring", "8819": " races", "8820": " propaganda", "8821": " promote", "8822": " progressive", "8823": " processing", "8824": " possibilities", "8825": " poly", "8826": " pedest", "8827": " payment", "8828": " paths", "8829": " pace", "8830": " overt", "8831": " obtained", "8832": " oblig", "8833": " notion", "8834": " noting", "8835": " neuro", "8836": " monitoring", "8837": " modeling", "8838": " minority", "8839": " minim", "8840": " meetings", "8841": " manif", "8842": " mail", "8843": " loans", "8844": " leopard", "8845": " leases", "8846": " layers", "8847": " lawmakers", "8848": " landl", "8849": " li", "8850": " lane", "8851": " jeans", "8852": " investments", "8853": " integration", "8854": " instruments", "8855": " installed", "8856": " inquiry", "8857": " inputs", "8858": " importantly", "8859": " impacts", "8860": " impair", "8861": " impe", "8862": " illness", "8863": " hybrid", "8864": " horror", "8865": " holiday", "8866": " guest", "8867": " god", "8868": " generated", "8869": " gathered", "8870": " funded", "8871": " friendly", "8872": " frag", "8873": " founder", "8874": " flee", "8875": " farms", "8876": " fool", "8877": " fel", "8878": " fate", "8879": " extrem", "8880": " extr", "8881": " explo", "8882": " expanded", "8883": " evident", "8884": " escape", "8885": " equivalent", "8886": " encouraged", "8887": " enable", "8888": " eliminate", "8889": " efficiency", "8890": " eastern", "8891": " eating", "8892": " drops", "8893": " documentation", "8894": " dose", "8895": " districts", "8896": " distur", "8897": " distribution", "8898": " disrupt", "8899": " deter", "8900": " demands", "8901": " delivery", "8902": " defendant", "8903": " deeply", "8904": " deeper", "8905": " dice", "8906": " cycling", "8907": " cruel", "8908": " creative", "8909": " correspond", "8910": " configuration", "8911": " computing", "8912": " communication", "8913": " civilians", "8914": " circumstances", "8915": " certific", "8916": " carefully", "8917": " carrier", "8918": " cannabis", "8919": " attached", "8920": " assume", "8921": " arrive", "8922": " aguas", "8923": " advertising", "8924": " acts", "8925": " accord", "8926": " academic", "8927": " absence", "8928": " Was", "8929": " USB", "8930": " Trib", "8931": " TP", "8932": " Supp", "8933": " Skylanders", "8934": " SE", "8935": " Revolution", "8936": " Rosen", "8937": " Ro", "8938": " Princ", "8939": " Planet", "8940": " Phone", "8941": " Pan", "8942": " Oil", "8943": " Nine", "8944": " NSA", "8945": " Mexican", "8946": " McCain", "8947": " Market", "8948": " Ms", "8949": " Libr", "8950": " Kah", "8951": " Joseph", "8952": " Jo", "8953": " Ian", "8954": " Hunter", "8955": " Hot", "8956": " Hospital", "8957": " Hans", "8958": " Friedman", "8959": " Football", "8960": " Frozen", "8961": " Ford", "8962": " Est", "8963": " DSL", "8964": " Ding", "8965": " Det", "8966": " DRA", "8967": " DO", "8968": " Company", "8969": " Coal", "8970": " Crit", "8971": " Cord", "8972": " CF", "8973": " CBS", "8974": " Brooklyn", "8975": " Brew", "8976": " Bos", "8977": " Bills", "8978": " Bab", "8979": " Attorney", "8980": " Atlanta", "8981": " Assad", "8982": " Argent", "8983": " Angular", "8984": " Alzheimer", "8985": " 52", "8986": "\u00e2\u0080\u0094\u00e2\u0080\u0094", "8987": "\u00c2\u009d", "8988": "worth", "8989": "word", "8990": "will", "8991": "uted", "8992": "ustral", "8993": "ura", "8994": "uation", "8995": "there", "8996": "tic", "8997": "then", "8998": "seless", "8999": "secution", "9000": "rowing", "9001": "rowd", "9002": "rome", "9003": "roduction", "9004": "rip", "9005": "rior", "9006": "rient", "9007": "raph", "9008": "rd", "9009": "profit", "9010": "pub", "9011": "pan", "9012": "owed", "9013": "ounding", "9014": "ordinary", "9015": "operative", "9016": "onsin", "9017": "onut", "9018": "ohol", "9019": "oen", "9020": "making", "9021": "made", "9022": "liamentary", "9023": "john", "9024": "jo", "9025": "iture", "9026": "itol", "9027": "itarian", "9028": "itage", "9029": "isting", "9030": "isconsin", "9031": "iones", "9032": "ione", "9033": "idi", "9034": "holders", "9035": "ho", "9036": "haul", "9037": "half", "9038": "ghan", "9039": "ennessee", "9040": "embered", "9041": "cribed", "9042": "cho", "9043": "core", "9044": "burn", "9045": "bor", "9046": "bage", "9047": "azz", "9048": "atern", "9049": "ati", "9050": "assion", "9051": "asy", "9052": "asury", "9053": "agu", "9054": "agic", "9055": "afi", "9056": "ache", "9057": "acent", "9058": "ait", "9059": "UM", "9060": "SEA", "9061": "Qu", "9062": "Nolan", "9063": "Me", "9064": "LY", "9065": "ICE", "9066": "HING", "9067": "Comp", "9068": "Big", "9069": "82", "9070": "0000", "9071": ",,", "9072": "'.", "9073": " wonderful", "9074": " wealthy", "9075": " wing", "9076": " widespread", "9077": " vari", "9078": " upset", "9079": " tremend", "9080": " trucks", "9081": " topic", "9082": " toler", "9083": " throwing", "9084": " tired", "9085": " tie", "9086": " tap", "9087": " symp", "9088": " survive", "9089": " surrounded", "9090": " studying", "9091": " stolen", "9092": " spends", "9093": " slots", "9094": " sixth", "9095": " semi", "9096": " saved", "9097": " requiring", "9098": " releases", "9099": " ritual", "9100": " riding", "9101": " puppies", "9102": " protecting", "9103": " prote", "9104": " photographs", "9105": " peak", "9106": " parameters", "9107": " pestic", "9108": " overwhelming", "9109": " outr", "9110": " outcomes", "9111": " obtain", "9112": " neck", "9113": " mothers", "9114": " monster", "9115": " monetary", "9116": " minds", "9117": " micro", "9118": " meets", "9119": " matches", "9120": " manufacturing", "9121": " mounds", "9122": " limits", "9123": " lighting", "9124": " legally", "9125": " lawsuits", "9126": " lik", "9127": " knee", "9128": " kitchen", "9129": " journalists", "9130": " journalist", "9131": " irisin", "9132": " invite", "9133": " intimid", "9134": " insight", "9135": " ingred", "9136": " hydro", "9137": " homosexuality", "9138": " heading", "9139": " heating", "9140": " hub", "9141": " hilar", "9142": " harsh", "9143": " guidelines", "9144": " guests", "9145": " golf", "9146": " ghost", "9147": " gent", "9148": " franchise", "9149": " flexibility", "9150": " fleet", "9151": " fights", "9152": " fields", "9153": " fold", "9154": " explicit", "9155": " exec", "9156": " everyday", "9157": " entrance", "9158": " enthus", "9159": " drama", "9160": " dispens", "9161": " discount", "9162": " destruction", "9163": " designer", "9164": " depends", "9165": " deadly", "9166": " corn", "9167": " convinced", "9168": " contributed", "9169": " containing", "9170": " constructed", "9171": " constitutional", "9172": " commod", "9173": " collaps", "9174": " childhood", "9175": " challenged", "9176": " captured", "9177": " cub", "9178": " bullet", "9179": " blocks", "9180": " beets", "9181": " beans", "9182": " beach", "9183": " baroque", "9184": " bars", "9185": " avo", "9186": " arguably", "9187": " announce", "9188": " amid", "9189": " alter", "9190": " alarm", "9191": " agg", "9192": " adopted", "9193": " accepted", "9194": " Wynn", "9195": " Wr", "9196": " Trade", "9197": " Through", "9198": " Tea", "9199": " Todd", "9200": " Steven", "9201": " Stan", "9202": " Special", "9203": " Series", "9204": " Sche", "9205": " Sarah", "9206": " Such", "9207": " Report", "9208": " Ret", "9209": " Rand", "9210": " Putin", "9211": " Pok\u00c3\u00a9mon", "9212": " Pennsylvania", "9213": " Paulo", "9214": " Person", "9215": " Perry", "9216": " Pak", "9217": " NHL", "9218": " Medic", "9219": " Marc", "9220": " Jord", "9221": " Information", "9222": " Hor", "9223": " Holy", "9224": " Hend", "9225": " Hamp", "9226": " Grand", "9227": " Gradle", "9228": " Governor", "9229": " Folio", "9230": " Further", "9231": " Far", "9232": " Email", "9233": " ET", "9234": " Dean", "9235": " Dru", "9236": " Dawn", "9237": " Coast", "9238": " Come", "9239": " Cleveland", "9240": " CPU", "9241": " Blvd", "9242": " Box", "9243": " Best", "9244": " Atmos", "9245": " Among", "9246": " Amendment", "9247": " Administration", "9248": " AMD", "9249": " Ald", "9250": " AND", "9251": " 911", "9252": " 48", "9253": " 39", "9254": " 37", "9255": " 1960", "9256": " 101", "9257": " (\u00e2\u0080\u009c", "9258": " _", "9259": "xy", "9260": "watch", "9261": "verett", "9262": "ushing", "9263": "umpin", "9264": "uert", "9265": "uce", "9266": "tenance", "9267": "tical", "9268": "sole", "9269": "such", "9270": "sight", "9271": "sa", "9272": "rossover", "9273": "riers", "9274": "rics", "9275": "quer", "9276": "pload", "9277": "pled", "9278": "phy", "9279": "powered", "9280": "owing", "9281": "ourse", "9282": "otal", "9283": "oration", "9284": "opia", "9285": "ologists", "9286": "ogg", "9287": "ockef", "9288": "ockefeller", "9289": "ocation", "9290": "oil", "9291": "million", "9292": "mble", "9293": "lywood", "9294": "lif", "9295": "kel", "9296": "ivan", "9297": "itts", "9298": "itudes", "9299": "istent", "9300": "istema", "9301": "imp", "9302": "ignment", "9303": "iere", "9304": "ideo", "9305": "ibo", "9306": "gered", "9307": "gary", "9308": "fr", "9309": "fast", "9310": "eton", "9311": "esh", "9312": "ernick", "9313": "epernick", "9314": "edIn", "9315": "ducation", "9316": "door", "9317": "cond", "9318": "ca", "9319": "backer", "9320": "bro", "9321": "asting", "9322": "angel", "9323": "ampire", "9324": "allas", "9325": "alg", "9326": "about", "9327": "TC", "9328": "Still", "9329": "Speaking", "9330": "SC", "9331": "Related", "9332": "Obama", "9333": "Next", "9334": "Man", "9335": "Her", "9336": "Er", "9337": "El", "9338": "Cont", "9339": "City", "9340": "Brook", "9341": "2009", "9342": " whenever", "9343": " walked", "9344": " underlying", "9345": " uncertain", "9346": " unex", "9347": " ug", "9348": " toggle", "9349": " tow", "9350": " theat", "9351": " texture", "9352": " teeth", "9353": " tort", "9354": " tons", "9355": " tension", "9356": " sympt", "9357": " surviv", "9358": " summit", "9359": " starter", "9360": " speeds", "9361": " spatial", "9362": " sheet", "9363": " ships", "9364": " seventh", "9365": " settled", "9366": " sentiment", "9367": " sectors", "9368": " saving", "9369": " sorts", "9370": " reveals", "9371": " restricted", "9372": " respectively", "9373": " regulators", "9374": " referring", "9375": " reducing", "9376": " recycling", "9377": " rom", "9378": " rhetor", "9379": " pulling", "9380": " prosecutors", "9381": " procedure", "9382": " preserve", "9383": " prey", "9384": " pregn", "9385": " plain", "9386": " placing", "9387": " pharm", "9388": " personally", "9389": " oppose", "9390": " occasionally", "9391": " ol", "9392": " neur", "9393": " nud", "9394": " northern", "9395": " murd", "9396": " municipality", "9397": " monument", "9398": " momentum", "9399": " meg", "9400": " meat", "9401": " marginal", "9402": " maintaining", "9403": " mg", "9404": " longtime", "9405": " licensed", "9406": " lying", "9407": " loyal", "9408": " lens", "9409": " lanes", "9410": " judgment", "9411": " joy", "9412": " jokes", "9413": " involves", "9414": " interven", "9415": " insisted", "9416": " infect", "9417": " incorrect", "9418": " inev", "9419": " hyper", "9420": " households", "9421": " horse", "9422": " hoped", "9423": " helpful", "9424": " hasta", "9425": " hire", "9426": " hill", "9427": " hal", "9428": " gravity", "9429": " granted", "9430": " girlfriend", "9431": " genome", "9432": " gard", "9433": " gall", "9434": " flu", "9435": " fled", "9436": " fails", "9437": " exciting", "9438": " ethnic", "9439": " escal", "9440": " engaged", "9441": " enorm", "9442": " editing", "9443": " domain", "9444": " documentary", "9445": " distingu", "9446": " describing", "9447": " deployed", "9448": " departure", "9449": " deputy", "9450": " define", "9451": " dur", "9452": " dub", "9453": " drones", "9454": " courage", "9455": " counts", "9456": " correctly", "9457": " concrete", "9458": " complexity", "9459": " coconut", "9460": " classified", "9461": " chairman", "9462": " chart", "9463": " ceasefire", "9464": " campaigns", "9465": " cauc", "9466": " brothers", "9467": " booth", "9468": " behalf", "9469": " barrel", "9470": " bid", "9471": " auto", "9472": " assembly", "9473": " arguing", "9474": " array", "9475": " appreciate", "9476": " anybody", "9477": " airport", "9478": " acknowledged", "9479": " accus", "9480": " Yaz", "9481": " Wisconsin", "9482": " Until", "9483": " Tech", "9484": " Simon", "9485": " Silver", "9486": " Shel", "9487": " Rockefeller", "9488": " Queen", "9489": " Potter", "9490": " Patrick", "9491": " Parallel", "9492": " Porter", "9493": " Pa", "9494": " Olympics", "9495": " Netflix", "9496": " Navy", "9497": " Nintendo", "9498": " NBC", "9499": " Murray", "9500": " Morris", "9501": " McClung", "9502": " McK", "9503": " Marine", "9504": " Mir", "9505": " Leafs", "9506": " Lord", "9507": " Justin", "9508": " Jordan", "9509": " Je", "9510": " Jane", "9511": " Indiana", "9512": " Image", "9513": " Hollywood", "9514": " Hampshire", "9515": " Got", "9516": " Family", "9517": " Faisal", "9518": " Friend", "9519": " Ell", "9520": " Eb", "9521": " Daniel", "9522": " Dakota", "9523": " Done", "9524": " Cowherd", "9525": " Charlie", "9526": " Chair", "9527": " Cub", "9528": " Cop", "9529": " Cogent", "9530": " Chelsea", "9531": " CPT", "9532": " Bigfoot", "9533": " Bru", "9534": " Archuleta", "9535": " Anglic", "9536": " Alpha", "9537": " Afghan", "9538": " Abb", "9539": " AU", "9540": " 95", "9541": " 68", "9542": " 55", "9543": " 1998", "9544": " \u00e2\u0080\u0099", "9545": " vert", "9546": "\u00c3\u00adas", "9547": "visor", "9548": "vironment", "9549": "uma", "9550": "udio", "9551": "ugh", "9552": "ttes", "9553": "story", "9554": "specific", "9555": "sl", "9556": "ropri", "9557": "ributes", "9558": "rez", "9559": "rish", "9560": "print", "9561": "pected", "9562": "pop", "9563": "owners", "9564": "ovo", "9565": "ouch", "9566": "onic", "9567": "onest", "9568": "ometri", "9569": "omic", "9570": "olte", "9571": "odge", "9572": "ocus", "9573": "ocument", "9574": "oz", "9575": "ml", "9576": "migr", "9577": "law", "9578": "izzard", "9579": "izabeth", "9580": "ittsburgh", "9581": "itizen", "9582": "ito", "9583": "inee", "9584": "inem", "9585": "ikula", "9586": "igg", "9587": "idone", "9588": "icism", "9589": "iour", "9590": "iate", "9591": "held", "9592": "hop", "9593": "funding", "9594": "elligent", "9595": "ello", "9596": "chair", "9597": "cies", "9598": "cend", "9599": "case", "9600": "blem", "9601": "berry", "9602": "bul", "9603": "bi", "9604": "astics", "9605": "apse", "9606": "aping", "9607": "antes", "9608": "anna", "9609": "akov", "9610": "agg", "9611": "VER", "9612": "TV", "9613": "TON", "9614": "Star", "9615": "Source", "9616": "Sc", "9617": "Paul", "9618": "Out", "9619": "Off", "9620": "John", "9621": "Int", "9622": "IP", "9623": "Har", "9624": "GS", "9625": "GN", "9626": "Earlier", "9627": "EA", "9628": "Dav", "9629": "Col", "9630": "Att", "9631": "Act", "9632": "93", "9633": "91", "9634": "85", "9635": ".:", "9636": " warn", "9637": " warm", "9638": " wra", "9639": " violation", "9640": " viewer", "9641": " voy", "9642": " unse", "9643": " ultimate", "9644": " trigger", "9645": " transgender", "9646": " transform", "9647": " titles", "9648": " teenagers", "9649": " tall", "9650": " suspic", "9651": " surprisingly", "9652": " subsequent", "9653": " stresses", "9654": " startup", "9655": " straw", "9656": " ster", "9657": " stating", "9658": " spotted", "9659": " slot", "9660": " shortcut", "9661": " shouts", "9662": " shocking", "9663": " senators", "9664": " sits", "9665": " roads", "9666": " rifle", "9667": " retirement", "9668": " restrict", "9669": " resolved", "9670": " resid", "9671": " repair", "9672": " registration", "9673": " ranks", "9674": " rum", "9675": " ru", "9676": " quietly", "9677": " quit", "9678": " pulls", "9679": " protected", "9680": " promotion", "9681": " probability", "9682": " printed", "9683": " presidency", "9684": " presents", "9685": " portion", "9686": " poison", "9687": " plugin", "9688": " pleasure", "9689": " plates", "9690": " picking", "9691": " phase", "9692": " pero", "9693": " parallel", "9694": " ocean", "9695": " notable", "9696": " normally", "9697": " mountain", "9698": " medicine", "9699": " measured", "9700": " marks", "9701": " museum", "9702": " march", "9703": " literary", "9704": " linebacker", "9705": " lifest", "9706": " lad", "9707": " junior", "9708": " journalism", "9709": " instruct", "9710": " inch", "9711": " impression", "9712": " ignored", "9713": " hotel", "9714": " horr", "9715": " hopefully", "9716": " ho", "9717": " hide", "9718": " graphics", "9719": " grandch", "9720": " genetic", "9721": " garbage", "9722": " gift", "9723": " gate", "9724": " forest", "9725": " flip", "9726": " fabric", "9727": " fantasy", "9728": " extraordinary", "9729": " extent", "9730": " explosion", "9731": " exposure", "9732": " exercise", "9733": " exception", "9734": " entertainment", "9735": " enhance", "9736": " engaging", "9737": " employed", "9738": " embrace", "9739": " eager", "9740": " drinking", "9741": " drink", "9742": " dominant", "9743": " disturbing", "9744": " displayed", "9745": " disappointed", "9746": " dish", "9747": " directions", "9748": " diplomatic", "9749": " devastating", "9750": " deserve", "9751": " deny", "9752": " deliber", "9753": " debates", "9754": " deadline", "9755": " database", "9756": " dance", "9757": " counsel", "9758": " corrupt", "9759": " copyright", "9760": " conversations", "9761": " consumption", "9762": " congest", "9763": " compromise", "9764": " chances", "9765": " ceremony", "9766": " calculated", "9767": " codes", "9768": " cens", "9769": " buck", "9770": " breath", "9771": " blame", "9772": " beliefs", "9773": " beers", "9774": " brib", "9775": " aviation", "9776": " attempting", "9777": " assessment", "9778": " articles", "9779": " arrests", "9780": " armor", "9781": " approve", "9782": " alcohol", "9783": " airline", "9784": " addressed", "9785": " achieved", "9786": " accessible", "9787": " abilities", "9788": " aver", "9789": " aides", "9790": " YouTube", "9791": " Xav", "9792": " Westphalian", "9793": " Vane", "9794": " Univers", "9795": " Tipu", "9796": " Turn", "9797": " Tennessee", "9798": " Swedish", "9799": " Stev", "9800": " Scotland", "9801": " Screw", "9802": " Sony", "9803": " Snow", "9804": " Sk", "9805": " SD", "9806": " Roma", "9807": " Roger", "9808": " RBI", "9809": " Professor", "9810": " PA", "9811": " Others", "9812": " Organ", "9813": " Network", "9814": " Nether", "9815": " Never", "9816": " Native", "9817": " Nations", "9818": " Morgan", "9819": " Mean", "9820": " Martians", "9821": " MacDonald", "9822": " Moh", "9823": " LinkedIn", "9824": " Latin", "9825": " Liverpool", "9826": " Kaepernick", "9827": " Kur", "9828": " Know", "9829": " Khan", "9830": " Kh", "9831": " Kat", "9832": " Jerry", "9833": " Jam", "9834": " IRA", "9835": " Globe", "9836": " Given", "9837": " Girl", "9838": " Fisher", "9839": " Fig", "9840": " FL", "9841": " Engine", "9842": " Ext", "9843": " Everett", "9844": " Ep", "9845": " ESEA", "9846": " Congressional", "9847": " Command", "9848": " Barb", "9849": " Benn", "9850": " Bad", "9851": " Armstrong", "9852": " Andy", "9853": " Anderson", "9854": " Anya", "9855": " Alien", "9856": " Alice", "9857": " Ast", "9858": " Aff", "9859": " Access", "9860": " AS", "9861": " 46", "9862": " 2019", "9863": " %", "9864": "\u00e1\u00b8\u00ab", "9865": "zing", "9866": "zaco", "9867": "yes", "9868": "was", "9869": "vertisements", "9870": "vet", "9871": "va", "9872": "ussel", "9873": "ullivan", "9874": "ubble", "9875": "they", "9876": "stal", "9877": "some", "9878": "sm", "9879": "rous", "9880": "ronics", "9881": "rec", "9882": "portation", "9883": "ources", "9884": "osals", "9885": "orship", "9886": "orical", "9887": "opez", "9888": "ommod", "9889": "ocumented", "9890": "ocial", "9891": "oT", "9892": "market", "9893": "link", "9894": "ksh", "9895": "izza", "9896": "isition", "9897": "inyl", "9898": "ington", "9899": "inez", "9900": "inic", "9901": "inction", "9902": "inch", "9903": "iences", "9904": "hey", "9905": "hatt", "9906": "has", "9907": "gage", "9908": "fers", "9909": "etime", "9910": "etically", "9911": "ermanent", "9912": "eric", "9913": "eness", "9914": "early", "9915": "earing", "9916": "div", "9917": "direct", "9918": "dated", "9919": "const", "9920": "cluded", "9921": "cipl", "9922": "cr", "9923": "cip", "9924": "ba", "9925": "awks", "9926": "author", "9927": "astro", "9928": "asp", "9929": "anced", "9930": "aland", "9931": "adores", "9932": "abbi", "9933": "UR", "9934": "Sw", "9935": "Sim", "9936": "LOG", "9937": "Jack", "9938": "Hz", "9939": "GL", "9940": "Food", "9941": "Each", "9942": "DT", "9943": "Clinton", "9944": "Buffy", "9945": "Both", "9946": "ATO", "9947": "Austral", "9948": "AFP", "9949": "65", "9950": "41", "9951": "!)", "9952": " \u00e2\u009d\u00b6", "9953": " withdraw", "9954": " wrest", "9955": " wounded", "9956": " waves", "9957": " visitors", "9958": " vessel", "9959": " usage", "9960": " ub", "9961": " twenty", "9962": " trio", "9963": " tremendous", "9964": " trains", "9965": " thro", "9966": " thorough", "9967": " tips", "9968": " syn", "9969": " superior", "9970": " struggles", "9971": " stopping", "9972": " steel", "9973": " split", "9974": " skull", "9975": " simultaneously", "9976": " silver", "9977": " silly", "9978": " shower", "9979": " sheep", "9980": " shirt", "9981": " settings", "9982": " secondary", "9983": " scrut", "9984": " scary", "9985": " sed", "9986": " sac", "9987": " restore", "9988": " representing", "9989": " reun", "9990": " rush", "9991": " punish", "9992": " pride", "9993": " persons", "9994": " punch", "9995": " pist", "9996": " pile", "9997": " orders", "9998": " nominee", "9999": " nomination", "10000": " neutrality", "10001": " molec", "10002": " moderate", "10003": " militants", "10004": " migrants", "10005": " medium", "10006": " mathematical", "10007": " matching", "10008": " marked", "10009": " maintenance", "10010": " mild", "10011": " mi", "10012": " lowest", "10013": " longest", "10014": " logo", "10015": " liquid", "10016": " lessons", "10017": " legs", "10018": " lux", "10019": " inventory", "10020": " industries", "10021": " indict", "10022": " inject", "10023": " inherent", "10024": " inclusion", "10025": " immune", "10026": " ignore", "10027": " hilarious", "10028": " headquarters", "10029": " horn", "10030": " horm", "10031": " grant", "10032": " galantamine", "10033": " gren", "10034": " forever", "10035": " forum", "10036": " flexible", "10037": " feedback", "10038": " experiments", "10039": " exch", "10040": " erupt", "10041": " enjoyed", "10042": " embarrassing", "10043": " embro", "10044": " electoral", "10045": " elites", "10046": " ec", "10047": " donors", "10048": " discrimination", "10049": " disagree", "10050": " displ", "10051": " denim", "10052": " demonstrate", "10053": " delivering", "10054": " decent", "10055": " damaged", "10056": " duty", "10057": " crossing", "10058": " contributions", "10059": " confusing", "10060": " concentration", "10061": " clever", "10062": " closing", "10063": " clock", "10064": " clip", "10065": " clients", "10066": " clar", "10067": " cigarette", "10068": " caric", "10069": " cancel", "10070": " cooking", "10071": " budgets", "10072": " bugs", "10073": " breast", "10074": " boyfriend", "10075": " boundary", "10076": " bonds", "10077": " behaviour", "10078": " beauty", "10079": " beaten", "10080": " backing", "10081": " borders", "10082": " bones", "10083": " bone", "10084": " bol", "10085": " assistance", "10086": " assigned", "10087": " assert", "10088": " appointment", "10089": " appointed", "10090": " anniversary", "10091": " amateur", "10092": " agricultural", "10093": " agreements", "10094": " afterlife", "10095": " affordable", "10096": " admit", "10097": " activist", "10098": " acquired", "10099": " accommod", "10100": " abst", "10101": " abroad", "10102": " Zealand", "10103": " Vegas", "10104": " Trust", "10105": " Thanks", "10106": " Tank", "10107": " Stre", "10108": " Stat", "10109": " Seb", "10110": " Sure", "10111": " Sr", "10112": " Registry", "10113": " Rap", "10114": " Rams", "10115": " RAT", "10116": " Priv", "10117": " Premier", "10118": " Photograph", "10119": " Perhaps", "10120": " Peace", "10121": " Pakistan", "10122": " Psych", "10123": " Pent", "10124": " Old", "10125": " Netherlands", "10126": " Note", "10127": " Northern", "10128": " NBA", "10129": " Ministry", "10130": " Mattis", "10131": " Manning", "10132": " Museum", "10133": " Miller", "10134": " Mason", "10135": " MI", "10136": " Liberals", "10137": " Lewis", "10138": " Low", "10139": " Labor", "10140": " Kor", "10141": " Java", "10142": " Ivanka", "10143": " Independence", "10144": " Imagin", "10145": " Iron", "10146": " Harper", "10147": " Huff", "10148": " Houston", "10149": " Haz", "10150": " Gordon", "10151": " Glenn", "10152": " Freedom", "10153": " Forum", "10154": " Fal", "10155": " Everything", "10156": " Elsa", "10157": " Elizabeth", "10158": " Education", "10159": " Denver", "10160": " Down", "10161": " DE", "10162": " Corpor", "10163": " Contin", "10164": " Climate", "10165": " Chargers", "10166": " Challen", "10167": " Cameron", "10168": " Calgary", "10169": " Boe", "10170": " Bi", "10171": " Arts", "10172": " Americas", "10173": " Amy", "10174": " Alban", "10175": " Afghanistan", "10176": " Award", "10177": "\u00c3\u00b1os", "10178": "ync", "10179": "wered", "10180": "vol", "10181": "var", "10182": "una", "10183": "ubb", "10184": "stan", "10185": "sex", "10186": "sembly", "10187": "ruits", "10188": "roduct", "10189": "rive", "10190": "redo", "10191": "ref", "10192": "rition", "10193": "peridone", "10194": "publ", "10195": "organ", "10196": "orate", "10197": "oorhead", "10198": "ometriosis", "10199": "omed", "10200": "olitan", "10201": "oga", "10202": "ockey", "10203": "ngel", "10204": "mare", "10205": "limited", "10206": "levant", "10207": "leading", "10208": "look", "10209": "liest", "10210": "je", "10211": "izations", "10212": "ivel", "10213": "itched", "10214": "istant", "10215": "issue", "10216": "ipper", "10217": "ila", "10218": "ificial", "10219": "ierce", "10220": "idades", "10221": "ichol", "10222": "icline", "10223": "health", "10224": "generation", "10225": "geon", "10226": "fur", "10227": "front", "10228": "five", "10229": "essie", "10230": "eros", "10231": "emos", "10232": "elta", "10233": "ellor", "10234": "eda", "10235": "di", "10236": "comp", "10237": "ching", "10238": "cers", "10239": "bank", "10240": "awk", "10241": "aware", "10242": "avell", "10243": "astian", "10244": "arenicline", "10245": "arency", "10246": "annels", "10247": "ankly", "10248": "angle", "10249": "ambod", "10250": "aghdad", "10251": "agger", "10252": "agan", "10253": "actions", "10254": "Using", "10255": "Twilight", "10256": "Top", "10257": "TH", "10258": "Sec", "10259": "Rem", "10260": "Pre", "10261": "OfFood", "10262": "IMS", "10263": "Following", "10264": "Connell", "10265": "Car", "10266": "ATION", "10267": "ASHING", "10268": "Aut", "10269": "99999999", "10270": "79", "10271": "64", "10272": "61", "10273": "511", "10274": "08", "10275": ".),", "10276": ",[", "10277": " };", "10278": " whales", "10279": " wanting", "10280": " wave", "10281": " voter", "10282": " virus", "10283": " villages", "10284": " voc", "10285": " vinyl", "10286": " urged", "10287": " universal", "10288": " undocumented", "10289": " traveling", "10290": " transparency", "10291": " transformation", "10292": " transaction", "10293": " tracking", "10294": " travell", "10295": " trapped", "10296": " thousand", "10297": " talented", "10298": " tatt", "10299": " tail", "10300": " swimming", "10301": " successfully", "10302": " substantial", "10303": " strategic", "10304": " steril", "10305": " stepped", "10306": " staying", "10307": " stro", "10308": " stays", "10309": " stairs", "10310": " specifics", "10311": " speaker", "10312": " solo", "10313": " shear", "10314": " sexually", "10315": " secular", "10316": " seized", "10317": " seals", "10318": " sanction", "10319": " safer", "10320": " sin", "10321": " rolls", "10322": " rockets", "10323": " roots", "10324": " rivals", "10325": " rhetoric", "10326": " responding", "10327": " regulation", "10328": " reass", "10329": " ranging", "10330": " provider", "10331": " prosper", "10332": " proposals", "10333": " promising", "10334": " promises", "10335": " projected", "10336": " profession", "10337": " productivity", "10338": " produces", "10339": " prosecution", "10340": " priorit", "10341": " prepar", "10342": " populations", "10343": " playoffs", "10344": " packed", "10345": " packaging", "10346": " pes", "10347": " pays", "10348": " occurs", "10349": " manip", "10350": " manages", "10351": " maintained", "10352": " magical", "10353": " mund", "10354": " mad", "10355": " licensing", "10356": " legacy", "10357": " labeled", "10358": " lobb", "10359": " linking", "10360": " lingu", "10361": " justices", "10362": " jur", "10363": " invis", "10364": " integrated", "10365": " historically", "10366": " handling", "10367": " hier", "10368": " grounds", "10369": " graduate", "10370": " grade", "10371": " gotta", "10372": " gained", "10373": " functional", "10374": " friendship", "10375": " frequency", "10376": " figured", "10377": " feelings", "10378": " fatwood", "10379": " furn", "10380": " fishing", "10381": " finger", "10382": " fare", "10383": " expenses", "10384": " expense", "10385": " examined", "10386": " external", "10387": " estimates", "10388": " estimate", "10389": " escaped", "10390": " ensuring", "10391": " encouraging", "10392": " electronic", "10393": " egg", "10394": " dreams", "10395": " dispensaries", "10396": " deserves", "10397": " delivers", "10398": " defended", "10399": " danger", "10400": " dual", "10401": " du", "10402": " drought", "10403": " dirty", "10404": " da", "10405": " creator", "10406": " coordinator", "10407": " convince", "10408": " condemn", "10409": " colonial", "10410": " colors", "10411": " coalition", "10412": " clubs", "10413": " choosing", "10414": " chest", "10415": " chick", "10416": " chat", "10417": " certificate", "10418": " cup", "10419": " cos", "10420": " citizen", "10421": " broadband", "10422": " bonus", "10423": " bizarre", "10424": " bipolar", "10425": " beings", "10426": " basket", "10427": " badly", "10428": " binary", "10429": " awareness", "10430": " awarded", "10431": " automatically", "10432": " audit", "10433": " association", "10434": " analysts", "10435": " anger", "10436": " agriculture", "10437": " adequate", "10438": " addressing", "10439": " acceptable", "10440": " aer", "10441": " Wayne", "10442": " Walter", "10443": " Vold", "10444": " Vice", "10445": " Ven", "10446": " Ut", "10447": " Thus", "10448": " Thumpin", "10449": " Three", "10450": " Temple", "10451": " Ty", "10452": " Tower", "10453": " Titan", "10454": " TNT", "10455": " Staff", "10456": " Shiny", "10457": " SDK", "10458": " Soul", "10459": " Slayer", "10460": " Several", "10461": " Savage", "10462": " SF", "10463": " Royal", "10464": " Program", "10465": " Patrol", "10466": " Po", "10467": " Patch", "10468": " PM", "10469": " Nimes", "10470": " Night", "10471": " Nelson", "10472": " McG", "10473": " Meg", "10474": " Maps", "10475": " Make", "10476": " Mah", "10477": " MO", "10478": " MLS", "10479": " Luc", "10480": " Lopez", "10481": " Look", "10482": " LA", "10483": " Kentucky", "10484": " Ko", "10485": " Kir", "10486": " Karen", "10487": " Jun", "10488": " Instagram", "10489": " Ins", "10490": " Imaginators", "10491": " IoT", "10492": " Henry", "10493": " Hom", "10494": " Hil", "10495": " Han", "10496": " HP", "10497": " Gulf", "10498": " Flash", "10499": " Front", "10500": " Fern", "10501": " FC", "10502": " Ebola", "10503": " Diego", "10504": " Dun", "10505": " Dallas", "10506": " Conc", "10507": " Comb", "10508": " Clint", "10509": " Christianity", "10510": " Chuck", "10511": " Cross", "10512": " Circ", "10513": " Cas", "10514": " Butler", "10515": " Bloom", "10516": " Blizzard", "10517": " Birth", "10518": " Bud", "10519": " Bou", "10520": " Balt", "10521": " Bal", "10522": " Authority", "10523": " Arkansas", "10524": " Anth", "10525": " Alexander", "10526": " Abd", "10527": " Average", "10528": " 98", "10529": " 700", "10530": " 54", "10531": " 41", "10532": " 401", "10533": " 2020", "10534": " 1995", "10535": " 1000", "10536": " ?", "10537": "\u00c3\u00a9n", "10538": "ynn", "10539": "what", "10540": "weight", "10541": "when", "10542": "wall", "10543": "vo", "10544": "uties", "10545": "umes", "10546": "uman", "10547": "uez", "10548": "uition", "10549": "terior", "10550": "tainment", "10551": "shore", "10552": "secutive", "10553": "rien", "10554": "rians", "10555": "reve", "10556": "rend", "10557": "rell", "10558": "rection", "10559": "ramid", "10560": "rus", "10561": "rid", "10562": "rative", "10563": "quest", "10564": "pol", "10565": "ounge", "10566": "oulder", "10567": "ouver", "10568": "ospitals", "10569": "orable", "10570": "open", "10571": "oni", "10572": "ompson", "10573": "oda", "10574": "nee", "10575": "necess", "10576": "mente", "10577": "levard", "10578": "lete", "10579": "lee", "10580": "lock", "10581": "lins", "10582": "ixon", "10583": "itionally", "10584": "isons", "10585": "inos", "10586": "inite", "10587": "inions", "10588": "imore", "10589": "ilateral", "10590": "ifer", "10591": "iento", "10592": "idh", "10593": "ibli", "10594": "iana", "10595": "handed", "10596": "hanced", "10597": "hour", "10598": "erving", "10599": "erning", "10600": "erner", "10601": "emort", "10602": "eler", "10603": "eeze", "10604": "even", "10605": "eu", "10606": "da", "10607": "casts", "10608": "cor", "10609": "breaking", "10610": "build", "10611": "bn", "10612": "axy", "10613": "aughey", "10614": "arently", "10615": "ardi", "10616": "aple", "10617": "apine", "10618": "ancellor", "10619": "anol", "10620": "although", "10621": "alysis", "10622": "akh", "10623": "aintiffs", "10624": "actor", "10625": "achel", "10626": "________", "10627": "Wal", "10628": "Trans", "10629": "Thomas", "10630": "TS", "10631": "TR", "10632": "Sm", "10633": "SH", "10634": "Red", "10635": "Rec", "10636": "Qantas", "10637": "Pat", "10638": "NS", "10639": "Maybe", "10640": "Love", "10641": "La", "10642": "JP", "10643": "Instead", "10644": "ISA", "10645": "ILE", "10646": "Hawk", "10647": "Gold", "10648": "Finally", "10649": "Fe", "10650": "FF", "10651": "FB", "10652": "Enlarge", "10653": "EP", "10654": "Conaughey", "10655": "Christ", "10656": "Art", "10657": "ATE", "10658": "ASHINGTON", "10659": "?\u00e2\u0080\u0099", "10660": "700", "10661": "68", "10662": "52", "10663": "333", "10664": "09", "10665": ".]", "10666": ".$", "10667": ").[", "10668": " winds", "10669": " winter", "10670": " wise", "10671": " wis", "10672": " wet", "10673": " volunteers", "10674": " unve", "10675": " twist", "10676": " tracks", "10677": " towns", "10678": " titled", "10679": " theories", "10680": " testimony", "10681": " tablets", "10682": " tempt", "10683": " tape", "10684": " symptoms", "10685": " swap", "10686": " surely", "10687": " subsidy", "10688": " submitting", "10689": " struggled", "10690": " stressed", "10691": " steal", "10692": " stem", "10693": " spectacular", "10694": " soldier", "10695": " smile", "10696": " slave", "10697": " silence", "10698": " signature", "10699": " signals", "10700": " shotgun", "10701": " shaders", "10702": " shops", "10703": " scared", "10704": " sessions", "10705": " rolling", "10706": " robot", "10707": " retailers", "10708": " resistance", "10709": " resign", "10710": " replacement", "10711": " reminded", "10712": " remembered", "10713": " releasing", "10714": " reluct", "10715": " relation", "10716": " reforms", "10717": " refuse", "10718": " recalled", "10719": " reim", "10720": " randomized", "10721": " publisher", "10722": " proposing", "10723": " privile", "10724": " prize", "10725": " poorly", "10726": " politically", "10727": " performed", "10728": " perceived", "10729": " perpet", "10730": " patri", "10731": " participate", "10732": " partial", "10733": " oversight", "10734": " outrage", "10735": " organizers", "10736": " org", "10737": " opinions", "10738": " orient", "10739": " nowhere", "10740": " nonprofit", "10741": " nights", "10742": " newsletters", "10743": " neurons", "10744": " nos", "10745": " modify", "10746": " minorities", "10747": " meantime", "10748": " margin", "10749": " makers", "10750": " luxury", "10751": " loses", "10752": " limitations", "10753": " libraries", "10754": " legislative", "10755": " leverage", "10756": " lap", "10757": " justify", "10758": " investigating", "10759": " investigate", "10760": " investor", "10761": " investing", "10762": " interse", "10763": " intrig", "10764": " installation", "10765": " inspiration", "10766": " initiatives", "10767": " ingen", "10768": " incidents", "10769": " inex", "10770": " inaccur", "10771": " implications", "10772": " hosts", "10773": " han", "10774": " guaranteed", "10775": " greenhouse", "10776": " greatly", "10777": " grave", "10778": " grab", "10779": " glad", "10780": " girls", "10781": " generations", "10782": " genre", "10783": " garage", "10784": " gaining", "10785": " functionality", "10786": " formula", "10787": " forb", "10788": " focusing", "10789": " flags", "10790": " favourite", "10791": " foss", "10792": " explanation", "10793": " expanding", "10794": " exempt", "10795": " enterprise", "10796": " entity", "10797": " entit", "10798": " encuent", "10799": " embroidered", "10800": " eliminating", "10801": " elder", "10802": " drafted", "10803": " distributed", "10804": " distant", "10805": " dismissed", "10806": " diab", "10807": " developments", "10808": " democratic", "10809": " declare", "10810": " deform", "10811": " dumb", "10812": " diverse", "10813": " diam", "10814": " creep", "10815": " counterparts", "10816": " copies", "10817": " contamin", "10818": " confused", "10819": " consecutive", "10820": " computers", "10821": " compare", "10822": " combine", "10823": " comic", "10824": " colony", "10825": " coaches", "10826": " civilization", "10827": " checked", "10828": " checking", "10829": " cheaper", "10830": " cartoon", "10831": " camps", "10832": " caliph", "10833": " craw", "10834": " cock", "10835": " cents", "10836": " butt", "10837": " burden", "10838": " broader", "10839": " breed", "10840": " bread", "10841": " bride", "10842": " branch", "10843": " boat", "10844": " bathroom", "10845": " b\u00ea\u009c\u00a3", "10846": " brave", "10847": " bicy", "10848": " bags", "10849": " audio", "10850": " angle", "10851": " amplitude", "10852": " ambassador", "10853": " adjacent", "10854": " acted", "10855": " aide", "10856": " Whether", "10857": " WebVR", "10858": " Would", "10859": " Wat", "10860": " Voldemort", "10861": " Uh", "10862": " Third", "10863": " Summit", "10864": " Stevens", "10865": " Stephanopoulos", "10866": " Statewide", "10867": " Start", "10868": " Snap", "10869": " Servo", "10870": " Santa", "10871": " S\u00c3\u00a3o", "10872": " Renoise", "10873": " Radio", "10874": " Rol", "10875": " Raid", "10876": " Photos", "10877": " Philip", "10878": " Parker", "10879": " Palm", "10880": " Prom", "10881": " Power", "10882": " Pink", "10883": " Nicol", "10884": " Nash", "10885": " NATO", "10886": " Music", "10887": " Michelle", "10888": " McDonald", "10889": " Martinez", "10890": " Management", "10891": " Molly", "10892": " Mobile", "10893": " Mitt", "10894": " Major", "10895": " Littlejohn", "10896": " Lac", "10897": " Kasich", "10898": " Kn", "10899": " Kansas", "10900": " Jeannie", "10901": " Ju", "10902": " Jere", "10903": " Investig", "10904": " Hein", "10905": " Hack", "10906": " HBO", "10907": " Greek", "10908": " GMO", "10909": " Foreign", "10910": " FOX", "10911": " Fis", "10912": " Edition", "10913": " Et", "10914": " Dale", "10915": " DOM", "10916": " Conference", "10917": " Christians", "10918": " Capital", "10919": " Cy", "10920": " Code", "10921": " Care", "10922": " Cambod", "10923": " CS", "10924": " CD", "10925": " Bosque", "10926": " BoI", "10927": " Band", "10928": " Assembly", "10929": " Alber", "10930": " Akh", "10931": " About", "10932": " ATM", "10933": " 51", "10934": " 2002", "10935": " 1992", "10936": " 1950", "10937": " 03", "10938": " \u00f0\u009f", "10939": " \u00c4\u00b0", "10940": "\u00c3\u00a1n", "10941": "wart", "10942": "ventually", "10943": "voc", "10944": "urns", "10945": "unes", "10946": "umph", "10947": "uming", "10948": "ults", "10949": "udkow", "10950": "udkowsky", "10951": "uchar", "10952": "ucha", "10953": "ucose", "10954": "terling", "10955": "span", "10956": "ryptid", "10957": "rying", "10958": "rolling", "10959": "ressing", "10960": "rape", "10961": "rons", "10962": "rac", "10963": "pling", "10964": "pieceOfFood", "10965": "pat", "10966": "parent", "10967": "outheast", "10968": "ouring", "10969": "opyright", "10970": "oltex", "10971": "olphins", "10972": "ocaust", "10973": "obl", "10974": "oved", "10975": "news", "10976": "month", "10977": "mic", "10978": "looking", "10979": "keep", "10980": "jud", "10981": "ittees", "10982": "itiative", "10983": "iterature", "10984": "itational", "10985": "isticated", "10986": "iscrimin", "10987": "isa", "10988": "irds", "10989": "irates", "10990": "ipsych", "10991": "ihad", "10992": "igible", "10993": "ifiers", "10994": "ieg", "10995": "idhogg", "10996": "iano", "10997": "i\u00c3\u00a9n", "10998": "hattan", "10999": "gay", "11000": "fires", "11001": "ewart", "11002": "essler", "11003": "eries", "11004": "elli", "11005": "eches", "11006": "elect", "11007": "ctic", "11008": "count", "11009": "camp", "11010": "attery", "11011": "asa", "11012": "arded", "11013": "antle", "11014": "ancouver", "11015": "anium", "11016": "algam", "11017": "alid", "11018": "ajo", "11019": "ailing", "11020": "aho", "11021": "addy", "11022": "acco", "11023": "[/", "11024": "VD", "11025": "UTERS", "11026": "Thank", "11027": "Take", "11028": "Stack", "11029": "Pri", "11030": "Play", "11031": "Naga", "11032": "LP", "11033": "GBT", "11034": "GO", "11035": "Free", "11036": "DAY", "11037": "Dem", "11038": "Deli", "11039": "DI", "11040": "CBS", "11041": "Arthur", "11042": "??", "11043": "</", "11044": "86", "11045": "71", "11046": "06", "11047": "05", "11048": "04", "11049": "()", "11050": " ya", "11051": " winners", "11052": " waters", "11053": " watt", "11054": " visa", "11055": " variable", "11056": " vary", "11057": " urging", "11058": " unexpected", "11059": " unders", "11060": " traveled", "11061": " transactions", "11062": " trident", "11063": " trash", "11064": " touchdowns", "11065": " throws", "11066": " themes", "11067": " threw", "11068": " tenure", "11069": " teaching", "11070": " tasks", "11071": " tactics", "11072": " tum", "11073": " tanks", "11074": " suggestion", "11075": " subsequently", "11076": " sugar", "11077": " structural", "11078": " strip", "11079": " stability", "11080": " sprint", "11081": " speeches", "11082": " spill", "11083": " soil", "11084": " slam", "11085": " sheer", "11086": " shader", "11087": " shame", "11088": " settle", "11089": " secured", "11090": " seiz", "11091": " seg", "11092": " sections", "11093": " seam", "11094": " scholar", "11095": " scenario", "11096": " salt", "11097": " salary", "11098": " sq", "11099": " sons", "11100": " sizes", "11101": " sistema", "11102": " sacks", "11103": " robust", "11104": " rose", "11105": " rook", "11106": " reserved", "11107": " reserv", "11108": " reconcil", "11109": " recovered", "11110": " realized", "11111": " racism", "11112": " questioning", "11113": " questioned", "11114": " psychological", "11115": " proportion", "11116": " promoting", "11117": " producer", "11118": " primaries", "11119": " pregnant", "11120": " praised", "11121": " posting", "11122": " politician", "11123": " polar", "11124": " planets", "11125": " physically", "11126": " permitted", "11127": " penet", "11128": " patterns", "11129": " passion", "11130": " passage", "11131": " participation", "11132": " parliamentary", "11133": " pulse", "11134": " pubic", "11135": " pub", "11136": " powered", "11137": " overnight", "11138": " offseason", "11139": " okay", "11140": " neighbors", "11141": " neat", "11142": " navigate", "11143": " naturally", "11144": " nu", "11145": " node", "11146": " na", "11147": " metric", "11148": " medications", "11149": " manga", "11150": " managing", "11151": " mu", "11152": " mit", "11153": " mam", "11154": " mac", "11155": " loaded", "11156": " loves", "11157": " lineup", "11158": " lifestyle", "11159": " letting", "11160": " lean", "11161": " leaked", "11162": " keyboard", "11163": " kil", "11164": " investigations", "11165": " intelligent", "11166": " intact", "11167": " institutional", "11168": " innovation", "11169": " influential", "11170": " influenced", "11171": " indicate", "11172": " incentive", "11173": " incoming", "11174": " inaug", "11175": " impose", "11176": " identical", "11177": " hypoc", "11178": " hourly", "11179": " horrible", "11180": " hatred", "11181": " hype", "11182": " hospitals", "11183": " grabs", "11184": " grabb", "11185": " glasses", "11186": " glut", "11187": " globe", "11188": " generous", "11189": " gap", "11190": " foods", "11191": " floating", "11192": " fears", "11193": " fits", "11194": " expertise", "11195": " evolved", "11196": " enthusi", "11197": " enormous", "11198": " endorse", "11199": " encl", "11200": " emerging", "11201": " electrical", "11202": " dropping",
[...]
