{"0": "\u0000", "1": "\u0001", "2": "\u0002", "3": "\u0003", "4": "\u0004", "5": "\u0005", "6": "\u0006", "7": "\u0007", "8": "\b", "9": "\t", "10": "\n", "11": "\u000b", "12": "\f", "13": "\r", "14": "\u000e", "15": "\u000f", "16": "\u0010", "17": "\u0011", "18": "\u0012", "19": "\u0013", "20": "\u0014", "21": "\u0015", "22": "\u0016", "23": "\u0017", "24": "\u0018", "25": "\u0019", "26": "\u001a", "27": "\u001b", "28": "\u001c", "29": "\u001d", "30": "\u001e", "31": "\u001f", "32": " ", "33": "!", "34": "\"", "35": "#", "36": "$", "37": "%", "38": "&", "39": "'", "40": "(", "41": ")", "42": "*", "43": "+", "44": ",", "45": "-", "46": ".", "47": "/", "48": "0", "49": "1", "50": "2", "51": "3", "52": "4", "53": "5", "54": "6", "55": "7", "56": "8", "57": "9", "58": ":", "59": ";", "60": "<", "61": "=", "62": ">", "63": "?", "64": "@", "65": "A", "66": "B", "67": "C", "68": "D", "69": "E", "70": "F", "71": "G", "72": "H", "73": "I", "74": "J", "75": "K", "76": "L", "77": "M", "78": "N", "79": "O", "80": "P", "81": "Q", "82": "R", "83": "S", "84": "T", "85": "U", "86": "V", "87": "W", "88": "X", "89": "Y", "90": "Z", "91": "[", "92": "\\", "93": "]", "94": "^", "95": "_", "96": "`", "97": "a", "98": "b", "99": "c", "100": "d", "101": "e", "102": "f", "103": "g", "104": "h", "105": "i", "106": "j", "107": "k", "108": "l", "109": "m", "110": "n", "111": "o", "112": "p", "113": "q", "114": "r", "115": "s", "116": "t", "117": "u", "118": "v", "119": "w", "120": "x", "121": "y", "122": "z", "123": "{", "124": "|", "125": "}", "126": "~", "127": "\u007f", "128": "\u0080", "129": "\u0081", "130": "\u0082", "131": "\u0083", "132": "\u0084", "133": "\u0085", "134": "\u0086", "135": "\u0087", "136": "\u0088", "137": "\u0089", "138": "\u008a", "139": "\u008b", "140": "\u008c", "141": "\u008d", "142": "\u008e", "143": "\u008f", "144": "\u0090", "145": "\u0091", "146": "\u0092", "147": "\u0093", "148": "\u0094", "149": "\u0095", "150": "\u0096", "151": "\u0097", "152": "\u0098", "153": "\u0099", "154": "\u009a", "155": "\u009b", "156": "\u009c", "157": "\u009d", "158": "\u009e", "159": "\u009f", "160": "\u00a0", "161": "\u00a1", "162": "\u00a2", "163": "\u00a3", "164": "\u00a4", "165": "\u00a5", "166": "\u00a6", "167": "\u00a7", "168": "\u00a8", "169": "\u00a9", "170": "\u00aa", "171": "\u00ab", "172": "\u00ac", "173": "\u00ad", "174": "\u00ae", "175": "\u00af", "176": "\u00b0", "177": "\u00b1", "178": "\u00b2", "179": "\u00b3", "180": "\u00b4", "181": "\u00b5", "182": "\u00b6", "183": "\u00b7", "184": "\u00b8", "185": "\u00b9", "186": "\u00ba", "187": "\u00bb", "188": "\u00bc", "189": "\u00bd", "190": "\u00be", "191": "\u00bf", "192": "\u00c0", "193": "\u00c1", "194": "\u00c2", "195": "\u00c3", "196": "\u00c4", "197": "\u00c5", "198": "\u00c6", "199": "\u00c7", "200": "\u00c8", "201": "\u00c9", "202": "\u00ca", "203": "\u00cb", "204": "\u00cc", "205": "\u00cd", "206": "\u00ce", "207": "\u00cf", "208": "\u00d0", "209": "\u00d1", "210": "\u00d2", "211": "\u00d3", "212": "\u00d4", "213": "\u00d5", "214": "\u00d6", "215": "\u00d7", "216": "\u00d8", "217": "\u00d9", "218": "\u00da", "219": "\u00db", "220": "\u00dc", "221": "\u00dd", "222": "\u00de", "223": "\u00df", "224": "\u00e0", "225": "\u00e1", "226": "\u00e2", "227": "\u00e3", "228": "\u00e4", "229": "\u00e5", "230": "\u00e6", "231": "\u00e7", "232": "\u00e8", "233": "\u00e9", "234": "\u00ea", "235": "\u00eb", "236": "\u00ec", "237": "\u00ed", "238": "\u00ee", "239": "\u00ef", "240": "\u00f0", "241": "\u00f1", "242": "\u00f2", "243": "\u00f3", "244": "\u00f4", "245": "\u00f5", "246": "\u00f6", "247": "\u00f7", "248": "\u00f8", "249": "\u00f9", "250": "\u00fa", "251": "\u00fb", "252": "\u00fc", "253": "\u00fd", "254": "\u00fe", "255": "\u00ff", "256": "<|endoftext|>", "257": "<|pad|>", "258": " t", "259": "he", "260": " a", "261": " s", "262": " w", "263": "nd", "264": " the", "265": "ed", "266": " b", "267": " to", "268": " and", "269": " h", "270": " f", "271": "in", "272": " T", "273": " wa", "274": "re", "275": "it", "276": "ou", "277": " l", "278": " d", "279": " c", "280": " p", "281": "ay", "282": " m", "283": "er", "284": " was", "285": "om", "286": " The", "287": " he", "288": "is", "289": "ar", "290": " n", "291": "im", "292": "on", "293": " sa", "294": "id", "295": "ll", "296": " ha", "297": " g", "298": "at", "299": "ing", "300": " S", "301": "ot", "302": "en", "303": "an", "304": "le", "305": "or", "306": "ir", "307": "am", "308": "et", "309": " H", "310": " it", "311": " th", "312": "ig", "313": " They", "314": " in", "315": "il", "316": " pl", "317": " He", "318": " \"", "319": "ow", "320": "ver", "321": "ri", "322": "ut", "323": " be", "324": " u", "325": " said", "326": " play", "327": "ith", "328": " day", "329": "pp", "330": " with", "331": "On", "332": " o", "333": " y", "334": "oo", "335": " r", "336": "ked", "337": "ce", "338": " I", "339": " her", "340": "ld", "341": " She", "342": " Tim", "343": " his", "344": " st", "345": "ke", "346": " e", "347": "ck", "348": "nt", "349": " big", "350": " you", "351": "very", "352": "st", "353": "ve", "354": "end", "355": " on", "356": "un", "357": " happ", "358": "riend", "359": " friend", "360": "all", "361": "ily", "362": " they", "363": " L", "364": " we", "365": " had", "366": " up", "367": " not", "368": " want", "369": "her", "370": " li", "371": " of", "372": "ad", "373": "itt", "374": "se", "375": " B", "376": " do", "377": " happy", "378": " M", "379": "ent", "380": " very", "381": "es", "382": " that", "383": " saw", "384": "'s", "385": "One", "386": "ould", "387": " for", "388": " sh", "389": " mom", "390": "ittle", "391": " so", "392": " little", "393": " she", "394": "ime", "395": " ne", "396": ".\"", "397": " nam", "398": "ch", "399": " time", "400": "ound", "401": " k", "402": " there", "403": " named", "404": " sm", "405": " were", "406": " Lily", "407": " bo", "408": " wanted", "409": " friends", "410": "out", "411": " but", "412": "The", "413": "!\"", "414": "ved", "415": "ht", "416": "ird", "417": " Tom", "418": "el", "419": " bird", "420": " an", "421": "al", "422": "ake", "423": "ome", "424": " It", "425": " too", "426": "ug", "427": "ide", "428": " went", "429": " wh", "430": "Once", "431": " hel", "432": "ue", "433": " all", "434": " is", "435": " help", "436": " loo", "437": " lo", "438": "ry", "439": " upon", "440": " A", "441": "ter", "442": "ore", "443": "ind", "444": " fun", "445": "ill", "446": "get", "447": "ame", "448": " toy", "449": " as", "450": " j", "451": " did", "452": " at", "453": "gether", "454": "ra", "455": " re", "456": "ur", "457": " se", "458": " together", "459": "ack", "460": " cat", "461": " tre", "462": "ly", "463": "ood", "464": "ic", "465": "ted", "466": " dog", "467": " could", "468": " can", "469": " their", "470": "ard", "471": "ark", "472": "ec", "473": " ball", "474": " played", "475": "way", "476": " gir", "477": " him", "478": "?\"", "479": " go", "480": " girl", "481": "my", "482": " ro", "483": "hed", "484": "ain", "485": " out", "486": "'t", "487": " are", "488": " le", "489": " kn", "490": "hen", "491": "ax", "492": " them", "493": " fr", "494": "um", "495": " sad", "496": " tree", "497": "ul", "498": " boy", "499": " have", "500": " cl", "501": "other", "502": " man", "503": "oug", "504": " loved", "505": " looked", "506": " found", "507": " sp", "508": " star", "509": "one", "510": " Sue", "511": "hing", "512": " Max", "513": " back", "514": " sc", "515": "own", "516": " like", "517": "are", "518": " me", "519": "ful", "520": "side", "521": " bec", "522": "ight", "523": " park", "524": " car", "525": "ong", "526": "elt", "527": " One", "528": "op", "529": " liked", "530": " would", "531": "round", "532": " fa", "533": " la", "534": " make", "535": " felt", "536": " see", "537": "You", "538": " W", "539": "omet", "540": " But", "541": "ell", "542": " no", "543": "ouse", "544": " asked", "545": " new", "546": " Ben", "547": " started", "548": "ag", "549": "ice", "550": " came", "551": " al", "552": "ared", "553": " Sam", "554": "ought", "555": "iled", "556": " other", "557": " somet", "558": " ag", "559": " good", "560": " small", "561": "ss", "562": " br", "563": " say", "564": " smiled", "565": "ade", "566": "ob", "567": "ings", "568": "ried", "569": "pot", "570": " ex", "571": " away", "572": " find", "573": "ty", "574": " wor", "575": " put", "576": " something", "577": " what", "578": " made", "579": " thought", "580": " home", "581": "ened", "582": " co", "583": "ia", "584": " from", "585": " wal", "586": " playing", "587": "ook", "588": " every", "589": " mu", "590": " ran", "591": "ach", "592": " Spot", "593": " J", "594": "arn", "595": " F", "596": "uc", "597": "ile", "598": " again", "599": " some", "600": "ie", "601": "dd", "602": " down", "603": "ny", "604": " house", "605": "ave", "606": "ure", "607": "king", "608": " laug", "609": " fl", "610": "ep", "611": " scared", "612": "ick", "613": " pr", "614": "ab", "615": " took", "616": "if", "617": " box", "618": " You", "619": " learn", "620": " will", "621": "ret", "622": " around", "623": " things", "624": "ish", "625": " my", "626": " toys", "627": "uck", "628": " bl", "629": "oud", "630": " sun", "631": " fe", "632": " when", "633": " your", "634": " then", "635": " lived", "636": ",\"", "637": " sw", "638": "pped", "639": "as", "640": " ab", "641": " ch", "642": "ank", "643": "us", "644": "oth", "645": "Tim", "646": " Mia", "647": "ap", "648": " get", "649": " lot", "650": "Th", "651": "ist", "652": "ited", "653": "ump", "654": " know", "655": " says", "656": "ust", "657": " got", "658": " tried", "659": "ucy", "660": " who", "661": " kne", "662": "nder", "663": " many", "664": " int", "665": " about", "666": " pret", "667": " any", "668": "Lily", "669": "ise", "670": " dec", "671": "ive", "672": " pic", "673": " D", "674": " red", "675": " more", "676": "qu", "677": " knew", "678": " po", "679": "ace", "680": "ous", "681": " hug", "682": " care", "683": "ally", "684": " v", "685": " best", "686": "urp", "687": " exc", "688": "au", "689": " water", "690": " became", "691": "fter", "692": " learned", "693": "ways", "694": " op", "695": "\u00e2\u0080", "696": " gre", "697": "ause", "698": " always", "699": " outside", "700": " Bob", "701": " Lucy", "702": " look", "703": " un", "704": " laughed", "705": " show", "706": " Mom", "707": " ho", "708": " decid", "709": "ant", "710": " decided", "711": " both", "712": " So", "713": " eat", "714": " because", "715": " room", "716": " into", "717": "ers", "718": "ite", "719": " And", "720": "fe", "721": "udd", "722": " jump", "723": "nn", "724": " ke", "725": " pe", "726": "They", "727": " this", "728": " excited", "729": " one", "730": " dad", "731": " fast", "732": " nice", "733": " E", "734": "Yes", "735": " run", "736": " feel", "737": " long", "738": "urpr", "739": "Tom", "740": " tr", "741": " surpr", "742": " told", "743": "our", "744": " am", "745": "iny", "746": " sk", "747": "ink", "748": "ull", "749": " sl", "750": "nna", "751": " inside", "752": " pretty", "753": " sor", "754": " mo", "755": " gra", "756": " take", "757": "Wh", "758": " rock", "759": "lew", "760": " each", "761": " gave", "762": " str", "763": " how", "764": " much", "765": "ged", "766": " need", "767": " than", "768": "og", "769": "ven", "770": "imal", "771": "But", "772": " animal", "773": " C", "774": "ara", "775": " tow", "776": " sorry", "777": " or", "778": " under", "779": " let", "780": " old", "781": "ge", "782": "ess", "783": " bear", "784": "ised", "785": "ro", "786": "urt", "787": " clo", "788": " walked", "789": " fish", "790": " hand", "791": "and", "792": "ast", "793": "ase", "794": " cle", "795": "urn", "796": "ft", "797": " flow", "798": " just", "799": " kind", "800": " didn", "801": "here", "802": " food", "803": " happened", "804": " His", "805": " wat", "806": "pl", "807": "ff", "808": "rom", "809": " hig", "810": " We", "811": " fi", "812": " ide", "813": "ched", "814": " te", "815": " try", "816": " sky", "817": "ine", "818": " list", "819": " bet", "820": " animals", "821": " sn", "822": " idea", "823": " its", "824": "ving", "825": " near", "826": " tw", "827": " us", "828": "gry", "829": " heard", "830": " better", "831": "able", "832": "pec", "833": " bug", "834": "ate", "835": " Th", "836": " en", "837": " share", "838": " if", "839": " stor", "840": " careful", "841": " Amy", "842": "Mom", "843": "Thank", "844": " dan", "845": "ex", "846": " fly", "847": "ial", "848": " com", "849": "lf", "850": " flew", "851": " spec", "852": " special", "853": "ion", "854": " lots", "855": "more", "856": " anymore", "857": " never", "858": " by", "859": " don", "860": "ream", "861": " fo", "862": " shiny", "863": " gr", "864": " wind", "865": " even", "866": " end", "867": " love", "868": " fore", "869": "\n\n", "870": "ort", "871": " tal", "872": " Then", "873": " Anna", "874": "ber", "875": "udden", "876": " mag", "877": "ak", "878": "rm", "879": " cake", "880": " col", "881": " clean", "882": " bu", "883": "imb", "884": " book", "885": " hard", "886": " turn", "887": " over", "888": " climb", "889": " Every", "890": " bad", "891": "ople", "892": "uddenly", "893": "pected", "894": "Let", "895": " high", "896": " surprised", "897": " fam", "898": " come", "899": " hurt", "900": " picked", "901": " after", "902": " proud", "903": "'m", "904": " way", "905": "bb", "906": " che", "907": " door", "908": "expected", "909": " unexpected", "910": " cu", "911": " gl", "912": " ground", "913": "ady", "914": " opened", "915": " safe", "916": " im", "917": " give", "918": " loud", "919": "arden", "920": " thanked", "921": " garden", "922": "As", "923": " color", "924": " From", "925": " people", "926": " hugged", "927": " still", "928": " blue", "929": "ild", "930": " ever", "931": "ail", "932": " far", "933": "No", "934": " When", "935": " call", "936": "iz", "937": " K", "938": " Sara", "939": "ough", "940": "ummy", "941": " Her", "942": "ool", "943": " qu", "944": " magic", "945": " off", "946": "les", "947": "ture", "948": " walk", "949": " jumped", "950": " family", "951": "ip", "952": " smile", "953": " kid", "954": "uff", "955": "kay", "956": "age", "957": " should", "958": " par", "959": " stay", "960": " In", "961": " forest", "962": " great", "963": "hes", "964": "em", "965": " sto", "966": "aut", "967": " now", "968": " place", "969": " squ", "970": " strong", "971": " P", "972": "itty", "973": "ning", "974": "ct", "975": " bra", "976": " unt", "977": "oon", "978": " beaut", "979": "unny", "980": " stick", "981": "dy", "982": " picture", "983": "xt", "984": "lease", "985": " next", "986": "be", "987": "ane", "988": " until", "989": "rel", "990": " story", "991": "aking", "992": " happily", "993": " rain", "994": " kids", "995": "iful", "996": " beautiful", "997": " bro", "998": " clos", "999": "oy", "1000": " app", "1001": " imp", "1002": " showed", "1003": " listen", "1004": " town", "1005": " tra", "1006": " frog", "1007": " while", "1008": " helped", "1009": "ree", "1010": "pt", "1011": "ies", "1012": " everyone", "1013": "It", "1014": "th", "1015": " being", "1016": " met", "1017": "Now", "1018": " mor", "1019": " truck", "1020": "ress", "1021": " ad", "1022": " wo", "1023": " stopped", "1024": " called", "1025": " rem", "1026": " hat", "1027": " game", "1028": " mouse", "1029": "uffy", "1030": "by", "1031": " cry", "1032": " soft", "1033": "Can", "1034": "When", "1035": "He", "1036": " open", "1037": " bed", "1038": " keep", "1039": " Let", "1040": " angry", "1041": " dra", "1042": " watch", "1043": " yummy", "1044": "vent", "1045": " doll", "1046": " Wh", "1047": " boat", "1048": "ary", "1049": "ger", "1050": "bit", "1051": " flowers", "1052": "abbit", "1053": "dded", "1054": "so", "1055": "ished", "1056": " brave", "1057": " couldn", "1058": " Kitty", "1059": " also", "1060": " slide", "1061": " Sally", "1062": "gan", "1063": " ate", "1064": "fore", "1065": " green", "1066": " lost", "1067": " de", "1068": " warm", "1069": " leave", "1070": " rabbit", "1071": " R", "1072": " noise", "1073": "iss", "1074": "irst", "1075": " fell", "1076": "irrel", "1077": " where", "1078": "self", "1079": "What", "1080": "ble", "1081": " face", "1082": " two", "1083": "ock", "1084": " squirrel", "1085": " soon", "1086": "luffy", "1087": "illy", "1088": " hear", "1089": "az", "1090": " pus", "1091": " pain", "1092": "ired", "1093": "ma", "1094": "owl", "1095": "Hi", "1096": " nodded", "1097": " before", "1098": " hands", "1099": " hole", "1100": "leep", "1101": " sat", "1102": "Look", "1103": "Then", "1104": " kept", "1105": " expl", "1106": "\u00e2\u0080\u009c", "1107": "That", "1108": " bre", "1109": "Ben", "1110": "\u00e2\u0080\u009d", "1111": " fin", "1112": " pa", "1113": "ear", "1114": "aybe", "1115": " use", "1116": "day", "1117": " ey", "1118": " birds", "1119": " catch", "1120": " bunny", "1121": " having", "1122": " going", "1123": " cook", "1124": " funny", "1125": "thing", "1126": " Now", "1127": " Fluffy", "1128": " think", "1129": " has", "1130": " tired", "1131": " pond", "1132": " store", "1133": "ange", "1134": " thr", "1135": " wr", "1136": " sunny", "1137": " looking", "1138": " fix", "1139": "uch", "1140": " used", "1141": " our", "1142": " mommy", "1143": " sing", "1144": " yell", "1145": " sound", "1146": " mean", "1147": " Can", "1148": " work", "1149": " beh", "1150": "We", "1151": " others", "1152": "ting", "1153": " cra", "1154": "itc", "1155": "joy", "1156": "ember", "1157": " ask", "1158": "rew", "1159": " head", "1160": "air", "1161": " wait", "1162": " bus", "1163": "aug", "1164": " eyes", "1165": " jo", "1166": "aught", "1167": " pull", "1168": " Jack", "1169": " vo", "1170": " dr", "1171": "itchen", "1172": " kitchen", "1173": "led", "1174": " fav", "1175": " first", "1176": " flo", "1177": " G", "1178": "ello", "1179": "Hello", "1180": " tri", "1181": " talk", "1182": " hill", "1183": " race", "1184": " right", "1185": " enjoy", "1186": " flower", "1187": "ng", "1188": " bright", "1189": "ious", "1190": " dif", "1191": " import", "1192": "uit", "1193": "zy", "1194": " duck", "1195": "orn", "1196": " mess", "1197": " Jo", "1198": " remember", "1199": " sleep", "1200": "ac", "1201": " party", "1202": " advent", "1203": " Do", "1204": " pie", "1205": " curi", "1206": " real", "1207": " cold", "1208": " moral", "1209": " con", "1210": " hop", "1211": "ount", "1212": "imes", "1213": " sand", "1214": " bag", "1215": " dir", "1216": "ath", "1217": " important", "1218": "llow", "1219": " \u00e2\u0080\u009c", "1220": " Fin", "1221": " mon", "1222": " shared", "1223": " curious", "1224": "reed", "1225": " okay", "1226": " making", "1227": " tall", "1228": " began", "1229": " cla", "1230": " hid", "1231": "eet", "1232": "At", "1233": " grass", "1234": "que", "1235": " yard", "1236": " favor", "1237": " here", "1238": "hn", "1239": "aper", "1240": " surprise", "1241": " favorite", "1242": "lly", "1243": " worked", "1244": " z", "1245": " thing", "1246": " rest", "1247": "Don", "1248": "ster", "1249": "ect", "1250": " dis", "1251": "Wow", "1252": " ice", "1253": " follow", "1254": " hot", "1255": " agreed", "1256": " night", "1257": " cut", "1258": " top", "1259": " own", "1260": " dress", "1261": " walking", "1262": " watched", "1263": " block", "1264": " trees", "1265": " behind", "1266": " bel", "1267": " This", "1268": " voice", "1269": " sho", "1270": " hun", "1271": " stop", "1272": " pick", "1273": " dark", "1274": " table", "1275": " ru", "1276": " ri", "1277": "ied", "1278": " worry", "1279": " tell", "1280": " song", "1281": " Dad", "1282": "isy", "1283": " move", "1284": " cars", "1285": " turned", "1286": " colors", "1287": " floor", "1288": " fire", "1289": " forg", "1290": "After", "1291": " read", "1292": " please", "1293": " draw", "1294": "aring", "1295": " does", "1296": " leaves", "1297": "Max", "1298": "Why", "1299": " shout", "1300": "Anna", "1301": " needed", "1302": " farm", "1303": "fere", "1304": " tail", "1305": "\u00e2\u0080\u0099", "1306": " adventure", "1307": " differe", "1308": "co", "1309": "ike", "1310": " Mr", "1311": " Suddenly", "1312": " lion", "1313": " paper", "1314": "ign", "1315": " closer", "1316": "ered", "1317": " feeling", "1318": " swing", "1319": " del", "1320": "Sue", "1321": "bo", "1322": " hungry", "1323": " cried", "1324": " roll", "1325": " wet", "1326": " sweet", "1327": "ached", "1328": " laugh", "1329": " full", "1330": " That", "1331": " tast", "1332": " different", "1333": " Bobo", "1334": " climbed", "1335": " dance", "1336": " wood", "1337": " As", "1338": " piece", "1339": " friendly", "1340": " danc", "1341": " yellow", "1342": " ready", "1343": " cr", "1344": " plan", "1345": "ken", "1346": "ater", "1347": " touch", "1348": " ant", "1349": " prin", "1350": " lady", "1351": "Sam", "1352": " light", "1353": " butter", "1354": "oom", "1355": " swim", "1356": " wonder", "1357": " Timmy", "1358": " broken", "1359": "bye", "1360": "where", "1361": "ient", "1362": "She", "1363": " running", "1364": " per", "1365": " gone", "1366": "cked", "1367": " prom", "1368": "ppy", "1369": " only", "1370": " hold", "1371": " hair", "1372": " close", "1373": " listened", "1374": " another", "1375": "ndma", "1376": " pretend", "1377": "sh", "1378": "ins", "1379": " reached", "1380": "bbed", "1381": " glad", "1382": "So", "1383": " blocks", "1384": " helping", "1385": " fruit", "1386": "aby", "1387": "Suddenly", "1388": " cool", "1389": " sees", "1390": "ila", "1391": " Jane", "1392": " been", "1393": "oney", "1394": "Sara", "1395": " amaz", "1396": " smell", "1397": " repl", "1398": "af", "1399": " stuck", "1400": " dri", "1401": " ac", "1402": " slow", "1403": "ather", "1404": " pu", "1405": " All", "1406": " goodbye", "1407": " Everyone", "1408": " wall", "1409": "iced", "1410": " sit", "1411": " ste", "1412": " less", "1413": " might", "1414": " O", "1415": "av", "1416": " cream", "1417": " quick", "1418": " snow", "1419": " must", "1420": " ar", "1421": " pushed", "1422": " moment", "1423": " name", "1424": " balloon", "1425": " fair", "1426": " din", "1427": "aisy", "1428": " window", "1429": "Mia", "1430": " baby", "1431": " bit", "1432": " wished", "1433": " coming", "1434": " underst", "1435": " looks", "1436": " win", "1437": " dream", "1438": " held", "1439": "red", "1440": " explore", "1441": " bar", "1442": " trying", "1443": "icy", "1444": " wag", "1445": " doing", "1446": " fight", "1447": " cloud", "1448": " grow", "1449": " done", "1450": " child", "1451": " through", "1452": "ized", "1453": " train", "1454": " perf", "1455": " hide", "1456": " apple", "1457": " buy", "1458": " thank", "1459": " dirty", "1460": "ames", "1461": " why", "1462": " dro", "1463": "'re", "1464": " count", "1465": " reach", "1466": " books", "1467": "ott", "1468": " butterf", "1469": "amp", "1470": " mat", "1471": " left", "1472": " brother", "1473": " pink", "1474": " fall", "1475": " sure", "1476": " clapped", "1477": "uddy", "1478": " tiny", "1479": "key", "1480": "In", "1481": "andy", "1482": " scary", "1483": " replied", "1484": " three", "1485": "ely", "1486": "ix", "1487": " wise", "1488": "ield", "1489": " shouted", "1490": "ation", "1491": "Okay", "1492": " plant", "1493": " air", "1494": " land", "1495": " seen", "1496": " build", "1497": " spl", "1498": " sometimes", "1499": " paint", "1500": " cup", "1501": " blew", "1502": " pot", "1503": " pen", "1504": " woods", "1505": "ash", "1506": "outh", "1507": "pe", "1508": " join", "1509": " stayed", "1510": " mar", "1511": " bigger", "1512": " Mommy", "1513": " pulled", "1514": "art", "1515": " waited", "1516": " mouth", "1517": " quickly", "1518": "der", "1519": " remembered", "1520": " owl", "1521": " pictures", "1522": " After", "1523": " colorful", "1524": "room", "1525": " waved", "1526": " treat", "1527": " grabbed", "1528": " lesson", "1529": "ower", "1530": " enjoyed", "1531": "ask", "1532": " anything", "1533": " ve", "1534": " bran", "1535": " chair", "1536": " alone", "1537": " There", "1538": "man", "1539": " nest", "1540": " games", "1541": "avy", "1542": " fill", "1543": " cont", "1544": " job", "1545": " noticed", "1546": " spot", "1547": "oup", "1548": "ds", "1549": "This", "1550": "Oh", "1551": "de", "1552": " tight", "1553": "cle", "1554": "Jo", "1555": " set", "1556": " cre", "1557": " miss", "1558": "asure", "1559": " cast", "1560": " je", "1561": " gent", "1562": "ph", "1563": " Buddy", "1564": "lc", "1565": " bott", "1566": " world", "1567": " butterfly", "1568": " hopped", "1569": " bike", "1570": " pat", "1571": " sea", "1572": " year", "1573": "row", "1574": " threw", "1575": "ries", "1576": "ucky", "1577": " arm", "1578": " turns", "1579": " broke", "1580": " mix", "1581": " likes", "1582": " gif", "1583": " clot", "1584": " himself", "1585": "ape", "1586": " Daisy", "1587": " mus", "1588": " clothes", "1589": " comp", "1590": " heavy", "1591": " tower", "1592": " break", "1593": " swam", "1594": "ton", "1595": "Her", "1596": " key", "1597": " pol", "1598": " everywhere", "1599": " black", "1600": " followed", "1601": " bee", "1602": " makes", "1603": "Do", "1604": " What", "1605": " delic", "1606": "Spot", "1607": " won", "1608": "Lucy", "1609": "ctor", "1610": " wrong", "1611": "Bob", "1612": "ner", "1613": "less", "1614": " white", "1615": " danced", "1616": "iet", "1617": "olly", "1618": " forgot", "1619": "\".", "1620": "thy", "1621": " vis", "1622": " nap", "1623": " quiet", "1624": " monster", "1625": "cess", "1626": " round", "1627": " bor", "1628": " ju", "1629": "ued", "1630": " wear", "1631": " music", "1632": " castle", "1633": " deep", "1634": " rel", "1635": "ully", "1636": " ride", "1637": "orm", "1638": " understand", "1639": "up", "1640": " Sarah", "1641": "zz", "1642": " dry", "1643": "ee", "1644": " mum", "1645": "oun", "1646": " hit", "1647": " brought", "1648": " wants", "1649": "os", "1650": " John", "1651": " que", "1652": "fully", "1653": "ves", "1654": " leaf", "1655": "cy", "1656": "arent", "1657": "ross", "1658": " sign", "1659": "ren", "1660": " fox", "1661": " faster", "1662": "ister", "1663": " talked", "1664": " leg", "1665": "From", "1666": " parent", "1667": " smart", "1668": "ance", "1669": " em", "1670": " rocks", "1671": " res", "1672": "ards", "1673": " sharing", "1674": " sec", "1675": " well", "1676": " worried", "1677": "rot", "1678": " Inside", "1679": " visit", "1680": " side", "1681": " blank", "1682": " finished", "1683": " gi", "1684": "ts", "1685": "itten", "1686": " To", "1687": " flying", "1688": " dinner", "1689": " cookies", "1690": " blanket", "1691": " secret", "1692": " poin", "1693": " happen", "1694": " contin", "1695": " silly", "1696": " really", "1697": " button", "1698": "Maybe", "1699": " ele", "1700": " king", "1701": " someone", "1702": " bowl", "1703": "ence", "1704": " Em", "1705": " pig", "1706": " Maybe", "1707": " everything", "1708": " el", "1709": " Lila", "1710": " spr", "1711": " field", "1712": "imi", "1713": "ey", "1714": " sister", "1715": " wish", "1716": "ang", "1717": " gu", "1718": " smiles", "1719": " else", "1720": " perfect", "1721": " free", "1722": " mud", "1723": " jar", "1724": " At", "1725": "eddy", "1726": "John", "1727": " Soon", "1728": " today", "1729": " pudd", "1730": " crying", "1731": " carefully", "1732": "ated", "1733": " past", "1734": " grandma", "1735": " beach", "1736": " children", "1737": "ze", "1738": "His", "1739": "Fin", "1740": "While", "1741": " danger", "1742": " welc", "1743": " shin", "1744": "ses", "1745": " sang", "1746": " brown", "1747": " filled", "1748": " continued", "1749": " orange", "1750": " river", "1751": " eating", "1752": " rolled", "1753": " realized", "1754": " purp", "1755": " promised", "1756": " ear", "1757": "ead", "1758": " drink", "1759": "itting", "1760": " branch", "1761": " throw", "1762": "Just", "1763": "ipp", "1764": " bite", "1765": "stead", "1766": " snack", "1767": " purple", "1768": " closed", "1769": " asks", "1770": " pieces", "1771": "chool", "1772": " fairy", "1773": " laughing", "1774": "Mommy", "1775": " Billy", "1776": " fur", "1777": "ons", "1778": "board", "1779": " lon", "1780": " snake", "1781": " pet", "1782": "Amy", "1783": " crab", "1784": " lonely", "1785": " apples", "1786": "cket", "1787": " yes", "1788": " school", "1789": " cow", "1790": " monkey", "1791": " shoes", "1792": " Ch", "1793": "gy", "1794": " amazing", "1795": "used", "1796": " soup", "1797": " bath", "1798": " boun", "1799": " strange", "1800": "ises", "1801": " gift", "1802": " Jen", "1803": " att", "1804": " without", "1805": " morning", "1806": "ire", "1807": " moved", "1808": "fish", "1809": " words", "1810": "iver", "1811": " wagged", "1812": " barked", "1813": " runs", "1814": " sitting", "1815": " road", "1816": " bottle", "1817": "ord", "1818": ".\u00e2\u0080\u009d", "1819": " parents", "1820": " enough", "1821": " candy", "1822": " chee", "1823": "ased", "1824": " Mimi", "1825": " whe", "1826": " hor", "1827": " doctor", "1828": " mad", "1829": " -", "1830": "ass", "1831": "fort", "1832": " getting", "1833": " whist", "1834": " coll", "1835": " welcome", "1836": " ce", "1837": " Bl", "1838": "ale", "1839": "unch", "1840": "ich", "1841": " sail", "1842": " Z", "1843": " treasure", "1844": " living", "1845": " letter", "1846": " Gra", "1847": " smo", "1848": " dangerous", "1849": " thinks", "1850": "una", "1851": " pass", "1852": "emy", "1853": " money", "1854": " belie", "1855": " pill", "1856": " ph", "1857": "!\u00e2\u0080\u009d", "1858": " shop", "1859": " push", "1860": " delicious", "1861": " lake", "1862": "igh", "1863": " wings", "1864": " stre", "1865": "arm", "1866": "ible", "1867": " coat", "1868": "ined", "1869": "ush", "1870": "me", "1871": " creat", "1872": "althy", "1873": "vel", "1874": "ella", "1875": " finally", "1876": " Joe", "1877": " shining", "1878": "ubb", "1879": "set", "1880": " start", "1881": " bow", "1882": "ub", "1883": " stand", "1884": "app", "1885": " paw", "1886": "bow", "1887": " pre", "1888": " higher", "1889": " fan", "1890": " talking", "1891": "eb", "1892": " drag", "1893": "itch", "1894": "'ll", "1895": " caught", "1896": " puddle", "1897": "asket", "1898": " mother", "1899": " basket", "1900": " ra", "1901": " same", "1902": " nose", "1903": " swings", "1904": " stone", "1905": "igg", "1906": " mail", "1907": " days", "1908": " scream", "1909": "isk", "1910": " bring", "1911": "OK", "1912": " seed", "1913": " dropped", "1914": " woke", "1915": "gg", "1916": "ches", "1917": " tom", "1918": " herself", "1919": " bat", "1920": "Please", "1921": " years", "1922": " rainbow", "1923": " arri", "1924": " Tommy", "1925": " sear", "1926": " teddy", "1927": " pers", "1928": " buck", "1929": "sw", "1930": " farmer", "1931": " cheered", "1932": " sack", "1933": " ben", "1934": "ier", "1935": " owner", "1936": " answ", "1937": " tasty", "1938": "Jack", "1939": " egg", "1940": " corn", "1941": "phant", "1942": " cute", "1943": " twins", "1944": " cheese", "1945": " belong", "1946": "cks", "1947": "iskers", "1948": " nut", "1949": " hoped", "1950": " wore", "1951": " dolls", "1952": " fit", "1953": "llie", "1954": " bread", "1955": " spin", "1956": "sc", "1957": " shell", "1958": " elephant", "1959": " rope", "1960": " grew", "1961": " teac", "1962": " singing", "1963": " min", "1964": " teach", "1965": " forever", "1966": " seem", "1967": " mine", "1968": "erry", "1969": " carrot", "1970": " cray", "1971": " wonderful", "1972": "sy", "1973": " vill", "1974": " gentle", "1975": " Remy", "1976": " puppy", "1977": "ipped", "1978": "Finally", "1979": " trou", "1980": " cour", "1981": " Blue", "1982": " touc", "1983": "ose", "1984": " prob", "1985": "ract", "1986": "isa", "1987": " shook", "1988": "\n ", "1989": " shap", "1990": " carry", "1991": " Emma", "1992": "lem", "1993": " most", "1994": " heart", "1995": "idge", "1996": " pile", "1997": " honey", "1998": " arrived", "1999": " sounds", "2000": " problem", "2001": " able", "2002": "ball", "2003": "urtle", "2004": " joy", "2005": "Good", "2006": " num", "2007": " course", "2008": "irp", "2009": " street", "2010": " lunch", "2011": " holding", "2012": " bench", "2013": " power", "2014": " bush", "2015": "br", "2016": "fused", "2017": "ian", "2018": " fence", "2019": "adow", "2020": " hiding", "2021": " dirt", "2022": " Whiskers", "2023": " Thank", "2024": " shake", "2025": "irth", "2026": " horse", "2027": "irthday", "2028": "aughty", "2029": " plane", "2030": " busy", "2031": " touched", "2032": "ator", "2033": " teacher", "2034": " inc", "2035": " naughty", "2036": " village", "2037": " few", "2038": "unt", "2039": " promise", "2040": "eared", "2041": "ato", "2042": " shapes", "2043": " believe", "2044": " spark", "2045": " band", "2046": " meet", "2047": " dragon", "2048": " juice", "2049": "epend", "2050": " towards", "2051": " bugs", "2052": " pop", "2053": " shar", "2054": "ountain", "2055": " trip", "2056": " eas", "2057": " sharp", "2058": " des", "2059": "ling", "2060": " kite", "2061": " feels", "2062": " Bella", "2063": " birthday", "2064": " turtle", "2065": " spoon", "2066": "ama", "2067": " shr", "2068": "ourn", "2069": " war", "2070": " spo", "2071": " cave", "2072": " journ", "2073": " neck", "2074": " pocket", "2075": " cloth", "2076": " rob", "2077": " patient", "2078": " late", "2079": " lem", "2080": " bell", "2081": " stars", "2082": " gray", "2083": " upset", "2084": "gly", "2085": " organ", "2086": " mark", "2087": " balls", "2088": " wra", "2089": " kiss", "2090": " whistle", "2091": " helpful", "2092": " ob", "2093": " noises", "2094": " storm", "2095": " mist", "2096": " giant", "2097": "col", "2098": "ol", "2099": "aur", "2100": " driver", "2101": "lla", "2102": "alm", "2103": " live", "2104": " ducks", "2105": " treats", "2106": " wild", "2107": " spid", "2108": " fold", "2109": "ilk", "2110": "eter", "2111": " rec", "2112": " stories", "2113": " suc", "2114": " magical", "2115": " seat", "2116": " pillow", "2117": " ugly", "2118": " taking", "2119": " card", "2120": " hugs", "2121": " lucky", "2122": " milk", "2123": "iling", "2124": " slowly", "2125": " rude", "2126": "read", "2127": "umpy", "2128": "ost", "2129": " disapp", "2130": " amazed", "2131": " cover", "2132": "fortable", "2133": " wasn", "2134": " string", "2135": " shy", "2136": " drove", "2137": "ular", "2138": " Fred", "2139": " ser", "2140": " puzz", "2141": " phone", "2142": " dist", "2143": " robot", "2144": "ize", "2145": " inv", "2146": " glow", "2147": "ove", "2148": " splas", "2149": " Mark", "2150": "pping", "2151": " seek", "2152": "elly", "2153": " moon", "2154": " young", "2155": " wide", "2156": " Le", "2157": " bucket", "2158": "irt", "2159": " sug", "2160": " net", "2161": " grab", "2162": " boss", "2163": " Finally", "2164": " part", "2165": " write", "2166": " Jim", "2167": " daddy", "2168": " sel", "2169": " princess", "2170": " snowman", "2171": " instead", "2172": "not", "2173": "Hey", "2174": " wheel", "2175": " cir", "2176": " thin", "2177": " On", "2178": "Sure", "2179": " sandw", "2180": " mot", "2181": " coin", "2182": " cannot", "2183": " Cat", "2184": "ung", "2185": "Later", "2186": "ens", "2187": " huge", "2188": "iger", "2189": " zoom", "2190": "Lila", "2191": "Be", "2192": " mach", "2193": "pper", "2194": "ors", "2195": " spider", "2196": " selfish", "2197": " spicy", "2198": " Lisa", "2199": "Of", "2200": " kitten", "2201": " sick", "2202": " slid", "2203": " drive", "2204": " forget", "2205": " di", "2206": " adventures", "2207": " Just", "2208": " sal", "2209": " chick", "2210": " fixed", "2211": "let", "2212": "den", "2213": " comes", "2214": "irpy", "2215": " stepped", "2216": " bone", "2217": "rest", "2218": " finish", "2219": " Luna", "2220": " ca", "2221": " chased", "2222": " hidden", "2223": "lower", "2224": "ert", "2225": " shelf", "2226": "est", "2227": " suddenly", "2228": " bubb", "2229": " last", "2230": " lad", "2231": "oggy", "2232": " tie", "2233": " tid", "2234": " fighting", "2235": " cookie", "2236": " Come", "2237": "oose", "2238": " val", "2239": " sleepy", "2240": " wave", "2241": " spray", "2242": " missed", "2243": " craw", "2244": " smooth", "2245": " path", "2246": " foot", "2247": " Momo", "2248": "erest", "2249": " across", "2250": " messy", "2251": " beak", "2252": " cho", "2253": " confused", "2254": " ladder", "2255": "bled", "2256": " tea", "2257": "dge", "2258": " jelly", "2259": " grate", "2260": " clever", "2261": " rad", "2262": "oph", "2263": " taste", "2264": " oven", "2265": " chew", "2266": " change", "2267": " Bunny", "2268": " later", "2269": " ash", "2270": "izz", "2271": " bark", "2272": " songs", "2273": " peace", "2274": " life", "2275": " interest", "2276": "rill", "2277": " watching", "2278": "ife", "2279": " queen", "2280": "ery", "2281": " ring", "2282": " grateful", "2283": " landed", "2284": " pan", "2285": " grumpy", "2286": " N", "2287": "ever", "2288": "St", "2289": "to", "2290": "Soon", "2291": " wash", "2292": " fing", "2293": "ity", "2294": " tidy", "2295": " legs", "2296": " imag", "2297": " ent", "2298": "eth", "2299": " Daddy", "2300": " yog", "2301": " spe", "2302": "amed", "2303": " sour", "2304": " though", "2305": " cou", "2306": "ained", "2307": " sticks", "2308": " su", "2309": " Grandma", "2310": "ugg", "2311": " bought", "2312": "yard", "2313": "ions", "2314": " Jill", "2315": " myster", "2316": " lemon", "2317": " Leo", "2318": " cart", "2319": " hope", "2320": " step", "2321": " fle", "2322": "To", "2323": " zoo", "2324": " joke", "2325": " exp", "2326": " Chirpy", "2327": " rocket", "2328": "?\u00e2\u0080\u009d", "2329": " machine", "2330": " jog", "2331": " backyard", "2332": " ban", "2333": "izzy", "2334": " drew", "2335": "ward", "2336": "mer", "2337": " calm", "2338": "ars", "2339": " quest", "2340": " fil", "2341": " dogs", "2342": " nothing", "2343": " Ann", "2344": " lay", "2345": " gently", "2346": " clouds", "2347": "ming", "2348": " sheep", "2349": " pack", "2350": " along", "2351": " wondered", "2352": " lift", "2353": " places", "2354": " Be", "2355": "oof", "2356": " Ollie", "2357": " law", "2358": " explor", "2359": " seemed", "2360": " worm", "2361": " motor", "2362": " interesting", "2363": "wel", "2364": "ones", "2365": "llo", "2366": " smelly", "2367": " plate", "2368": " takes", "2369": " Jerry", "2370": "unk", "2371": " anyone", "2372": "erly", "2373": "pect", "2374": " banan", "2375": " working", "2376": " kick", "2377": " ba", "2378": " dish", "2379": "Come", "2380": " With", "2381": "ont", "2382": " whole", "2383": " scar", "2384": " forgive", "2385": "pty", "2386": "orrow", "2387": " puzzle", "2388": " empty", "2389": " bossy", "2390": " mind", "2391": " map", "2392": " jewel", "2393": " save", "2394": " person", "2395": " neigh", "2396": "box", "2397": " longer", "2398": " arms", "2399": "ork", "2400": " faces", "2401": "ipe", "2402": "kin", "2403": " supp", "2404": " splash", "2405": " maybe", "2406": " boring", "2407": " onto", "2408": "ult", "2409": " pract", "2410": " neighb", "2411": " fruits", "2412": "ope", "2413": " wolf", "2414": " med", "2415": " pin", "2416": " mistake", "2417": " Molly", "2418": "oomy", "2419": " ants", "2420": "sp", "2421": " pour", "2422": "ocked", "2423": " weak", "2424": " front", "2425": " ign", "2426": " plants", "2427": " easy", "2428": " wing", "2429": " gives", "2430": " swimming", "2431": " saved", "2432": " prot", "2433": " lovely", "2434": "bar", "2435": " smelled", "2436": " av", "2437": " TV", "2438": " Bu", "2439": "osaur", "2440": "My", "2441": " trouble", "2442": " cross", "2443": " match", "2444": "ned", "2445": " such", "2446": " ret", "2447": " jumping", "2448": " act", "2449": "ment", "2450": " tomorrow", "2451": " feather", "2452": "arge", "2453": "izza", "2454": "onest", "2455": "era", "2456": " lazy", "2457": " fake", "2458": " Their", "2459": " return", "2460": " true", "2461": " deer", "2462": " healthy", "2463": "ually", "2464": " sol", "2465": " number", "2466": " gather", "2467": "iting", "2468": "ek", "2469": " waiting", "2470": " honest", "2471": "aced", "2472": " line", "2473": "rass", "2474": " pizza", "2475": "barrass", "2476": " journey", "2477": " embarrass", "2478": " drum", "2479": " gold", "2480": " goes", "2481": " dinosaur", "2482": " Why", "2483": "urse", "2484": "irr", "2485": "Sally", "2486": " hum", "2487": "oman", "2488": " appeared", "2489": "Kitty", "2490": " scarf", "2491": " success", "2492": " fancy", "2493": " cheer", "2494": " large", "2495": "aw", "2496": " stood", "2497": " note", "2498": " icy", "2499": " woman", "2500": "oop", "2501": "oc", "2502": " crayons", "2503": " pool", "2504": " shadow", "2505": " powerful", "2506": "And", "2507": " pretended", "2508": " eag", "2509": " cage", "2510": " pointed", "2511": " nearby", "2512": " loves", "2513": " Together", "2514": " Bobby", "2515": " screamed", "2516": "vous", "2517": " puts", "2518": " impress", "2519": " dig", "2520": " wearing", "2521": " splashed", "2522": " teeth", "2523": "gest", "2524": " ashamed", "2525": " bean", "2526": " sur", "2527": " answer", "2528": " My", "2529": "uce", "2530": " bounce", "2531": " closet", "2532": "ina", "2533": " Please", "2534": " trust", "2535": " sold", "2536": " carried", "2537": " boot", "2538": "elp", "2539": " soap", "2540": " clay", "2541": " stret", "2542": " fear", "2543": " Somet", "2544": " dancing", "2545": " snee", "2546": " shark", "2547": " ner", "2548": " wis", "2549": " search", "2550": " prince", "2551": " noisy", "2552": " If", "2553": " Go", "2554": " Doggy", "2555": " gate", "2556": " rich", "2557": " reg", "2558": " nervous", "2559": " lock", "2560": " cozy", "2561": " af", "2562": " hang", "2563": " cleaned", "2564": " How", "2565": " Mary", "2566": "ute", "2567": "live", "2568": "iff", "2569": " Don", "2570": "icked", "2571": " smiling", "2572": " chase", "2573": "scape", "2574": " hello", "2575": " shirt", "2576": " tape", "2577": " pri", "2578": " waff", "2579": " polite", "2580": "pa", "2581": "aughter", "2582": "arl", "2583": " cap", "2584": " sandwich", "2585": " decor", "2586": "raid", "2587": " relie", "2588": " painted", "2589": " bal", "2590": "ado", "2591": " moms", "2592": " sque", "2593": " glass", "2594": " creative", "2595": " afraid", "2596": " rare", "2597": " saf", "2598": " feet", "2599": " chocol", "2600": " ship", "2601": " matter", "2602": " fat", "2603": "ness", "2604": " stra", "2605": " tries", "2606": "Stop", "2607": " hose", "2608": " corner", "2609": " wand", "2610": " bridge", "2611": "rag", "2612": " couch", "2613": "Help", "2614": " rub", "2615": "ser", "2616": " vase", "2617": " balloons", "2618": " tiger", "2619": " ap", "2620": " van", "2621": "itter", "2622": " thick", "2623": " St", "2624": "lebr", "2625": "imp", "2626": " knee", "2627": " clock", "2628": " stu", "2629": " daughter", "2630": " celebr", "2631": " these", "2632": " jet", "2633": " drank", "2634": " class", "2635": " mirr", "2636": " feed", "2637": " print", "2638": " poor", "2639": " barn", "2640": "isp", "2641": " tent", "2642": " furry", "2643": " chocolate", "2644": "ndpa", "2645": "Dad", "2646": " clap", "2647": " building", "2648": "ote", "2649": " mirror", "2650": " bake", "2651": " mighty", "2652": " Bird", "2653": " mysterious", "2654": " hur", "2655": " gigg", "2656": " disco", "2657": " measure", "2658": " whisp", "2659": " protect", "2660": " chicken", "2661": " peaceful", "2662": " become", "2663": " march", "2664": "nic", "2665": " picnic", "2666": " mis", "2667": "ual", "2668": " sugar", "2669": " respect", "2670": " knocked", "2671": " embarrassed", "2672": "ensive", "2673": " organized", "2674": " jeep", "2675": " bald", "2676": " tele", "2677": " collect", "2678": "issors", "2679": " relieved", "2680": " stir", "2681": " stamp", "2682": " lamp", "2683": " fool", "2684": " expensive", "2685": " eld", "2686": " whale", "2687": " kicked", "2688": " gun", "2689": " clown", "2690": " Some", "2691": " space", "2692": " tool", "2693": " hero", "2694": " circle", "2695": " wouldn", "2696": " gas", "2697": " crown", "2698": " word", "2699": " Tr", "2700": "ventually", "2701": "ustr", "2702": "mb", "2703": "lves", "2704": " branches", "2705": " Sp", "2706": " towel", "2707": " clear", "2708": " Bear", "2709": "kn", "2710": " tick", "2711": " tasted", "2712": " muff", "2713": " finger", "2714": " exploring", "2715": "oppy", "2716": "any", "2717": " scissors", "2718": " yelled", "2719": " lose", "2720": "ced", "2721": " foolish", "2722": " aunt", "2723": " Sometimes", "2724": " wake", "2725": " spread", "2726": " pay", "2727": " har", "2728": " frag", "2729": " elderly", "2730": " dull", "2731": " test", "2732": " police", "2733": "und", "2734": " washed", "2735": " scare", "2736": " rough", "2737": " gen", "2738": "known", "2739": "erries", "2740": " fragile", "2741": " 3", "2742": "ustrated", "2743": " berries", "2744": " twist", "2745": " lab", "2746": " cri", "2747": " sock", "2748": " Benny", "2749": " sunf", "2750": " blow", "2751": "ym", "2752": " yarn", "2753": " flag", "2754": " understood", "2755": " lead", "2756": " exam", "2757": "alous", "2758": " unknown", "2759": " group", "2760": " dizzy", "2761": "port", "2762": " jealous", "2763": "ighed", "2764": " stubb", "2765": " potato", "2766": " incred", "2767": " horn", "2768": " cand", "2769": " breath", "2770": " board", "2771": "ory", "2772": " finding", "2773": "dle", "2774": " stones", "2775": " frustrated", "2776": " famous", "2777": " brush", "2778": " rat", "2779": " pres", "2780": " mixed", "2781": " burn", "2782": " square", "2783": " adm", "2784": " Br", "2785": "ony", "2786": " ter", "2787": " stubborn", "2788": " mountain", "2789": " hears", "2790": " fier", "2791": " ind", "2792": " nuts", "2793": "lace", "2794": " incredible", "2795": " fright", "2796": "anged", "2797": "airs", "2798": " fierce", "2799": " Tiny", "2800": " taught", "2801": " comfortable", "2802": " Al", "2803": " drawing", "2804": " dug", "2805": " which", "2806": " terri", "2807": " necklace", "2808": "yal", "2809": "ond", "2810": " guess", "2811": " bubbles", "2812": "inky", "2813": " glue", "2814": " wrote", "2815": " rose", "2816": " eggs", "2817": " drop", "2818": " weird", "2819": " gener", "2820": "orry", "2821": " mic", "2822": " nosy", "2823": " depend", "2824": " '", "2825": " pump", "2826": " cone", "2827": "fic", "2828": "Tommy", "2829": " spent", "2830": "cycle", "2831": "alk", "2832": "Where", "2833": " stat", "2834": " frightened", "2835": " diffic", "2836": "upid", "2837": " unus", "2838": " toast", "2839": " fine", "2840": "shine", "2841": " wealthy", "2842": " unusual", "2843": " stri", "2844": " unl", "2845": " pray", "2846": " difficult", "2847": "Who", "2848": " seeds", "2849": " searched", "2850": " loyal", "2851": "zzy", "2852": "ume", "2853": "ique", "2854": "cient", "2855": " ending", "2856": " covered", "2857": " changed", "2858": "gu", "2859": " yourself", "2860": " sunshine", "2861": "obe", "2862": " unique", "2863": " pebb", "2864": " delicate", "2865": " hats", "2866": " dead", "2867": " shoe", "2868": " magn", "2869": " log", "2870": " ancient", "2871": " dependable", "2872": " cab", "2873": "irsty", "2874": " sell", "2875": " Jimmy", "2876": "anut", "2877": "apped", "2878": "Together", "2879": " stupid", "2880": " sco", "2881": " generous", "2882": " creature", "2883": "owed", "2884": " spoiled", "2885": " paws", "2886": " mov", "2887": " joined", "2888": " acorn", "2889": "cil", "2890": " shine", "2891": " banana", "2892": " gloomy", "2893": " discover", "2894": " ord", "2895": " nods", "2896": " norm", "2897": " Ducky", "2898": "getable", "2899": " vegetable", "2900": " relax", "2901": " crazy", "2902": "aken", "2903": " thirsty", "2904": " pencil", "2905": " asleep", "2906": " normal", "2907": " cabin", "2908": " bathroom", "2909": " add", "2910": "reen", "2911": " statue", "2912": "ependent", "2913": " moving", "2914": " meal", "2915": " jolly", "2916": " explained", "2917": " balance", "2918": " asking", "2919": " wrap", "2920": " sword", "2921": " bitter", "2922": "unn", "2923": " waves", "2924": " thankful", "2925": " squee", "2926": " ignor", "2927": "ying", "2928": "Every", "2929": " team", "2930": " ref", "2931": " rug", "2932": " wagon", "2933": " sunflower", "2934": " pepper", "2935": " hairy", "2936": " frown", "2937": "ates", "2938": " stove", "2939": " mel", "2940": " fig", "2941": " toug", "2942": " terrible", "2943": " bored", "2944": "ray", "2945": " taken", "2946": " present", "2947": " bedroom", "2948": "robe", "2949": "iable", "2950": " Will", "2951": " Pe", "2952": "met", "2953": "iant", "2954": " useful", "2955": " tough", "2956": " pant", "2957": " counted", "2958": " While", "2959": "ground", "2960": " ham", "2961": "iness", "2962": "com", "2963": "Here", "2964": " straw", "2965": " independent", "2966": " helmet", "2967": "Jim", "2968": " twig", "2969": " trump", "2970": " salad", "2971": " market", "2972": " four", "2973": "iddle", "2974": " yours", "2975": " vine", "2976": " trumpet", "2977": " motorcycle", "2978": "xible", "2979": " escape", "2980": " clum", "2981": "If", "2982": " smaller", "2983": " clumsy", "2984": " True", "2985": "enny", "2986": " No", "2987": " times", "2988": " stuff", "2989": " fountain", "2990": " Ella", "2991": "selves", "2992": " value", "2993": " magnet", "2994": " exciting", "2995": " cries", "2996": "appy", "2997": " successful", "2998": " slipped", "2999": " shore", "3000": " roar", "3001": " neighbor", "3002": " low", "3003": " cats", "3004": " brace", "3005": " Your", "3006": " bottom", "3007": "bers", "3008": " witch", "3009": " trick", "3010": "iv", "3011": " middle", "3012": " gets", "3013": " flexible", "3014": " Many", "3015": " eager", "3016": " adventur", "3017": "rilliant", "3018": " spotted", "3019": " pants", "3020": " knife", "3021": " fis", "3022": " dove", "3023": " adventurous", "3024": "erable", "3025": " tomato", "3026": " swan", "3027": " solve", "3028": " miserable", "3029": " jam", "3030": " impressive", "3031": " cube", "3032": " brilliant", "3033": " strawber", "3034": " sighed", "3035": " goat", "3036": " Mama", "3037": " Brown", "3038": " tooth", "3039": " snacks", "3040": " arrow", "3041": "fted", "3042": " pige", "3043": " pasta", "3044": " filthy", "3045": " shoot", "3046": " mill", "3047": " bloom", "3048": " reliable", "3049": " moder", "3050": " knowing", "3051": " Instead", "3052": "cean", "3053": " raced", "3054": " peanut", "3055": " obed", "3056": " ocean", "3057": " chest", "3058": "most", "3059": " pian", "3060": " scr", "3061": " modern", "3062": " steal", "3063": " piano", "3064": " wander", "3065": " serious", "3066": " pumpkin", "3067": " painting", "3068": " flute", "3069": " almost", "3070": " Jenny", "3071": "Inside", "3072": " comb", "3073": " careless", "3074": " Tw", "3075": "gust", "3076": "aff", "3077": "Sorry", "3078": " tells", "3079": " hay", "3080": " pipe", "3081": " orig", "3082": " obedient", "3083": " disgust", "3084": " dust", "3085": " body", "3086": "ours", "3087": " guit", "3088": " dough", "3089": "oby", "3090": "als", "3091": " borrow", "3092": " cro", "3093": " popular", "3094": " knot", "3095": " gem", "3096": "ident", "3097": "ano", "3098": " pir", "3099": " fearful", "3100": "ormous", "3101": "opter", "3102": "icopter", "3103": "Mum", "3104": "Me", "3105": " helicopter", "3106": " enormous", "3107": "ict", "3108": " quar", "3109": "inal", "3110": " parrot", "3111": " needle", "3112": " fridge", "3113": " eng", "3114": "amond", "3115": "Are", "3116": "light", "3117": " nail", "3118": " disgusting", "3119": " cam", "3120": " bracelet", "3121": " belonged", "3122": "lcano", "3123": "corn", "3124": " wrapped", "3125": " shiver", "3126": " mask", "3127": " diamond", "3128": "edy", "3129": "atch", "3130": " quarrel", "3131": " original", "3132": " metal", "3133": " guitar", "3134": " shows", "3135": " popcorn", "3136": " muffin", "3137": " lean", "3138": " houses", "3139": " cher", "3140": "zed", "3141": " grace", "3142": " veil", "3143": " meat", "3144": " figure", "3145": " compet", "3146": " charm", "3147": "xious", "3148": "mbre", "3149": "ages", "3150": " umbre", "3151": " remind", "3152": " prun", "3153": " picks", "3154": " collar", "3155": " anxious", "3156": " tem", "3157": " movie", "3158": " crane", "3159": " cheap", "3160": " volcano", "3161": " Andy", "3162": "How", "3163": " spring", "3164": " prize", "3165": " press", "3166": " hook", "3167": " tied", "3168": "ube", "3169": " tap", "3170": " rh", "3171": " passed", "3172": " ruined", "3173": " kissed", "3174": " U", "3175": "llip", "3176": "llipop", "3177": "io", "3178": " heal", "3179": " guil", "3180": " dest", "3181": "ache", "3182": " tank", "3183": " stream", "3184": " regular", "3185": " roof", "3186": " mush", "3187": " liz", "3188": " hopping", "3189": " harder", "3190": " crayon", "3191": " medic", "3192": " lifted", "3193": " cop", "3194": " Sammy", "3195": " oat", "3196": " medicine", "3197": " lollipop", "3198": " hurts", "3199": " happiness", "3200": " guilty", "3201": "hip", "3202": " charming", "3203": "het", "3204": "erp", "3205": " thoughtful", "3206": " harm", "3207": "ti", "3208": "omes", "3209": " tax", "3210": " standing", "3211": " sauce", "3212": " camera", "3213": "ulu", "3214": "inary", "3215": " waffle", "3216": " record", "3217": " friendship", "3218": " beet", "3219": "ilt", "3220": "Sarah", "3221": " humble", "3222": " env", "3223": "hetti", "3224": "aghetti", "3225": " tor", "3226": " needs", "3227": " mushroom", "3228": "ging", "3229": "Molly", "3230": " tube", "3231": " stage", "3232": " flash", "3233": " engine", "3234": " comput", "3235": " ang", "3236": "unnel", "3237": "Timmy", "3238": " tears", "3239": " taxi", "3240": " tunnel", "3241": " spaghetti", "3242": " hammer", "3243": " deaf", "3244": "ext", "3245": "aze", "3246": " restless", "3247": " cheerful", "3248": " batter", "3249": " lizard", "3250": " cryst", "3251": " compass", "3252": " trucks", "3253": " shade", "3254": "ungle", "3255": "igator", "3256": " umbrella", "3257": " swe", "3258": "opard", "3259": " temp", "3260": " poke", "3261": " pengu", "3262": " half", "3263": " gar", "3264": " fluffy", "3265": " father", "3266": " desk", "3267": " design", "3268": " competit", "3269": " boxes", "3270": " soldier", "3271": " mitten", "3272": " crack", "3273": " cere", "3274": "ulb", "3275": "ubby", "3276": " zip", "3277": " torn", "3278": " study", "3279": " smoke", "3280": "azz", "3281": " yogurt", "3282": " playful", "3283": " jungle", "3284": " choose", "3285": "land", "3286": "inted", "3287": "dile", "3288": "codile", "3289": " persist", "3290": " compassion", "3291": " carrots", "3292": "comfortable", "3293": " uncomfortable", "3294": "ither", "3295": " mole", "3296": " goose", "3297": " cereal", "3298": " alligator", "3299": " tricks", "3300": " lit", "3301": " univer", "3302": " shape", "3303": " scale", "3304": " sle", "3305": " pebble", "3306": " gum", "3307": " ears", "3308": " comet", "3309": " Emily", "3310": " Even", "3311": "urkey", "3312": " wip", "3313": " vide", "3314": " radio", "3315": " computer", "3316": " Polly", "3317": "erpill", "3318": " using", "3319": " pigeon", "3320": " persistent", "3321": " pale", "3322": " leopard", "3323": " envious", "3324": " caterpill", "3325": " avoc", "3326": " answered", "3327": " er", "3328": "There", "3329": " vegetables", "3330": " tire", "3331": " nod", "3332": " loop", "3333": " homes", "3334": " graceful", "3335": " crocodile", "3336": " chubby", "3337": "Their", "3338": " yoga", "3339": " speed", "3340": " melt", "3341": " invited", "3342": " cupboard", "3343": " bulb", "3344": " Jake", "3345": "asses", "3346": " tag", "3347": " shrimp", "3348": " perform", "3349": " feathers", "3350": " Today", "3351": "anger", "3352": " turkey", "3353": " island", "3354": " disappo", "3355": " built", "3356": "ebook", "3357": "ctus", "3358": "cream", "3359": "Bobo", "3360": " trunk", "3361": " penny", "3362": " notebook", "3363": " licked", "3364": " garage", "3365": " cob", "3366": " angel", "3367": " Buzz", "3368": "angle", "3369": " helps", "3370": " beetle", "3371": "cident", "3372": " mop", "3373": "chair", "3374": "cut", "3375": " rode", "3376": " returned", "3377": " rep", "3378": " helpless", "3379": " caterpillar", "3380": "oto", "3381": " wheat", "3382": " wire", "3383": " locked", "3384": " Sh", "3385": "web", "3386": " whispered", "3387": " spinning", "3388": " planet", "3389": " ones", "3390": "esday", "3391": "ellig", "3392": "Mama", "3393": " pow", "3394": " libr", "3395": " jellyfish", "3396": " crystal", "3397": " case", "3398": "cles", "3399": " rag", "3400": " practiced", "3401": " load", "3402": " lying", "3403": " enc", "3404": " cobweb", "3405": "pack", "3406": " ordinary", "3407": " alert", "3408": "lph", "3409": "Go", "3410": " walls", "3411": " questions", "3412": " question", "3413": " meant", "3414": " intellig", "3415": " giving", "3416": " armchair", "3417": " accident", "3418": " OK", "3419": "ebra", "3420": "atter", "3421": " week", "3422": " walks", "3423": " stack", "3424": " cactus", "3425": " ticket", "3426": " sleeping", "3427": " fork", "3428": "opl", "3429": "eropl", "3430": " zebra", "3431": " compassionate", "3432": " boats", "3433": " bees", "3434": "ief", "3435": " shield", "3436": " raven", "3437": " delight", "3438": " crawled", "3439": " aeropl", "3440": " yaw", "3441": " pro", "3442": " mailbox", "3443": " hedge", "3444": " deliver", "3445": "ye", "3446": "pes", "3447": "ped", "3448": " suit", "3449": " office", "3450": " louder", "3451": " decide", "3452": " belt", "3453": " Lulu", "3454": "atient", "3455": " sil", "3456": " jug", "3457": " dolph", "3458": " compl", "3459": " slept", "3460": " happening", "3461": " disappointed", "3462": " pastry", "3463": " judge", "3464": " coins", "3465": " ways", "3466": " gifted", "3467": " create", "3468": " spill", "3469": " screen", "3470": " nicely", "3471": " impatient", "3472": " enth", "3473": " counting", "3474": " acce", "3475": " sniff", "3476": " barber", "3477": " ed", "3478": " troubled", "3479": " thread", "3480": " rid", "3481": " intelligent", "3482": " harsh", "3483": " celebrate", "3484": " poured", "3485": " hoop", "3486": " cost", "3487": " Rex", "3488": "vator", "3489": "usia", "3490": "host", "3491": "dom", "3492": " squash", "3493": " sailed", "3494": " rod", "3495": " mug", "3496": " lively", "3497": " hotel", "3498": " enthusia", "3499": " elevator", "3500": " deter", "3501": " chalk", "3502": "rework", "3503": " sink", "3504": " numbers", "3505": " forth", "3506": " cartoon", "3507": "Jane", "3508": " unlock", "3509": " switch", "3510": " station", "3511": " Sn", "3512": "essie", "3513": " triangle", "3514": " spend", "3515": " ghost", "3516": "illa", "3517": " wishes", "3518": " temple", "3519": " pine", "3520": " determ", "3521": " crawl", "3522": " competitive", "3523": " aeroplane", "3524": " shells", "3525": " forward", "3526": " destro", "3527": "ulif", "3528": "acket", "3529": " seal", "3530": " root", "3531": " parade", "3532": " lights", "3533": "uth", "3534": " spun", "3535": " pony", "3536": " harmless", "3537": " stretch", "3538": " stranger", "3539": " polish", "3540": " excite", "3541": " bicy", "3542": "was", "3543": "washer", "3544": "uliflower", "3545": "Gra", "3546": " sheet", "3547": " send", "3548": " inse", "3549": " dishwasher", "3550": " boys", "3551": " resc", "3552": " jacket", "3553": " firework", "3554": " bounced", "3555": " travel", "3556": " sneeze", "3557": " fisher", "3558": " fireman", "3559": " eventually", "3560": " cauliflower", "3561": " barrel", "3562": " weep", "3563": " split", "3564": " radish", "3565": " behave", "3566": "rage", "3567": "isted", "3568": "asing", "3569": " wheels", "3570": " saying", "3571": " insect", "3572": " glove", "3573": " blueber", "3574": " stum", "3575": " herb", "3576": " added", "3577": ",\u00e2\u0080\u009d", "3578": " thief", "3579": " shut", "3580": " oy", "3581": " laughs", "3582": " encou", "3583": " rubbed", "3584": " quit", "3585": " poem", "3586": " olive", "3587": " complet", "3588": " Mum", "3589": "aser", "3590": "Billy", "3591": " haircut", "3592": " coo", "3593": " pun", "3594": " flashlight", "3595": " fu", "3596": " edge", "3597": " dreams", "3598": " decorate", "3599": " avocado", "3600": " ador", "3601": " spir", "3602": " once", "3603": " cable", "3604": "ten", "3605": "ject", "3606": "ik", "3607": " wallet", "3608": " track", "3609": " mixer", "3610": " matt", "3611": " golf", "3612": " cush", "3613": "ucet", "3614": " tray", "3615": " nurse", "3616": " guard", "3617": " camp", "3618": "uring", "3619": "pet", "3620": " stronger", "3621": " skipped", "3622": " melon", "3623": " cleaning", "3624": " Miss", "3625": " Fr", "3626": " staff", "3627": " learning", "3628": " laser", "3629": " faucet", "3630": " cricket", "3631": " base", "3632": " adorable", "3633": "work", "3634": " spirit", "3635": " grown", "3636": " glowing", "3637": " destroy", "3638": " chain", "3639": " carpet", "3640": " bump", "3641": "ating", "3642": " spear", "3643": " patch", "3644": " newsp", "3645": " kindness", "3646": " distant", "3647": " Toby", "3648": " Pipp", "3649": "stic", "3650": " thu", "3651": " pole", "3652": " fisherman", "3653": "quit", "3654": " slides", "3655": " bull", "3656": "iew", "3657": " attract", "3658": "lies", "3659": " video", "3660": " view", "3661": " screw", "3662": " order", "3663": " missile", "3664": " hipp", "3665": " folder", "3666": "squit", "3667": " skin", "3668": " short", "3669": " mosquit", "3670": " bushes", "3671": " bicycle", "3672": " attractive", "3673": " aut", "3674": "ushed", "3675": "head", "3676": "coli", "3677": "ccoli", "3678": "case", "3679": "bul", "3680": " themselves", "3681": " tear", "3682": " speak", "3683": " scoot", "3684": " sandbox", "3685": " penguin", "3686": " ple", "3687": " enthusiastic", "3688": " Little", "3689": " strugg", "3690": " scatter", "3691": " rice", "3692": " gor", "3693": " bill", "3694": " Tina", "3695": " Rose", "3696": "bulance", "3697": "arry", "3698": " trap", "3699": " gathered", "3700": " factor", "3701": " bin", "3702": " ambulance", "3703": " aw", "3704": "seum", "3705": "otter", "3706": "htub", "3707": " prep", "3708": " attic", "3709": " otter", "3710": "ready", "3711": " playground", "3712": " purse", "3713": " oyster", "3714": " onion", "3715": " oak", "3716": " museum", "3717": " mosquito", "3718": " led", "3719": " impro", "3720": " hippo", "3721": " flame", "3722": " colour", "3723": " bathtub", "3724": " yet", "3725": " showing", "3726": " maze", "3727": " factory", "3728": " dolphin", "3729": " biggest", "3730": "tern", "3731": "reek", "3732": "ines", "3733": " rot", "3734": " post", "3735": " growl", "3736": " disappeared", "3737": " already", "3738": " uncle", "3739": " truth", "3740": " sort", "3741": " mattress", "3742": " gorilla", "3743": " creek", "3744": "old", "3745": "dest", "3746": " wife", "3747": " suggest", "3748": " reward", "3749": " newspaper", "3750": " hunt", "3751": " brothers", "3752": " Sunny", "3753": " tummy", "3754": " steak", "3755": " football", "3756": " eraser", "3757": " determined", "3758": " club", "3759": " calling", "3760": "obile", "3761": "aged", "3762": " billboard", "3763": " bandage", "3764": "time", "3765": "ete", "3766": " message", "3767": " itch", "3768": " enjoying", "3769": "Give", "3770": " vest", "3771": " sweater", "3772": " rise", "3773": " broccoli", "3774": "omobile", "3775": "la", "3776": "ital", "3777": "Jimmy", "3778": " task", "3779": " raft", "3780": " package", "3781": " miner", "3782": " automobile", "3783": " Buzzy", "3784": "elery", "3785": " teleph", "3786": " library", "3787": " falls", "3788": "utes", "3789": "spital", "3790": "anda", "3791": " itself", "3792": " hospital", "3793": " fest", "3794": " cooked", "3795": " celery", "3796": " bookcase", "3797": " Dan", "3798": "Jill", "3799": " yach", "3800": " wiped", "3801": " telephone", "3802": " surf", "3803": " pointing", "3804": " cell", "3805": " blackboard", "3806": "ision", "3807": "iki", "3808": " spell", "3809": " soar", "3810": " serve", "3811": " oats", "3812": " modest", "3813": "urb", "3814": " saus", "3815": " hours", "3816": " dreamed", "3817": " candle", "3818": " sung", "3819": " rever", "3820": " pee", "3821": " pear", "3822": " oil", "3823": " knows", "3824": " frame", "3825": " cooler", "3826": " buttons", "3827": "ival", "3828": "hic", "3829": "aving", "3830": "'d", "3831": " yacht", "3832": " vehic", "3833": " safely", "3834": " rolling", "3835": " pit", "3836": " mild", "3837": " wool", "3838": " strawberry", "3839": " driving", "3840": "ention", "3841": "aky", "3842": " skull", "3843": " salt", "3844": " bri", "3845": " Tweet", "3846": " troph", "3847": " festival", "3848": " disturb", "3849": " complete", "3850": " Kim", "3851": "Fluffy", "3852": "?\".", "3853": " pattern", "3854": " minutes", "3855": " film", "3856": " arg", "3857": " Fo", "3858": "lasses", "3859": "etty", "3860": "Well", "3861": " sunglasses", "3862": " organize", "3863": " mem", "3864": " envel", "3865": "par", "3866": " valu", "3867": " mule", "3868": " imagine", "3869": " freez", "3870": " Zoom", "3871": "ney", "3872": "Bye", "3873": " tripped", "3874": " trash", "3875": " powder", "3876": " makeup", "3877": " ignorant", "3878": " trophy", "3879": " steps", "3880": "Al", "3881": " size", "3882": " reading", "3883": " marry", "3884": " earth", "3885": " vi", "3886": " notice", "3887": " either", "3888": " cups", "3889": "fee", "3890": "ffee", "3891": "Re", "3892": " those", "3893": " skip", "3894": " ok", "3895": " journal", "3896": " holes", "3897": " giggled", "3898": " dive", "3899": " coal", "3900": " boots", "3901": " barking", "3902": " Poppy", "3903": " Everywhere", "3904": "imney", "3905": "arian", "3906": " ten", "3907": " early", "3908": " cushion", "3909": " cooking", "3910": " People", "3911": " ow", "3912": " separ", "3913": " resist", "3914": " por", "3915": " pal", "3916": " managed", "3917": " fastest", "3918": " Look", "3919": "cing", "3920": " scooter", "3921": " ribb", "3922": " peach", "3923": " ped", "3924": " hurry", "3925": " blouse", "3926": " bikes", "3927": "umb", "3928": "play", "3929": " son", "3930": " painter", "3931": " alarm", "3932": " palace", "3933": " marble", "3934": "lu", "3935": " repair", "3936": " opens", "3937": " hall", "3938": " coffee", "3939": " stairs", "3940": " repe", "3941": " novel", "3942": " means", "3943": " explain", "3944": " chess", "3945": " bathe", "3946": " Peter", "3947": "uper", "3948": "See", "3949": " stumbled", "3950": " meadow", "3951": " complain", "3952": " chimney", "3953": " cord", "3954": " bubble", "3955": " knock", "3956": " grandpa", "3957": " city", "3958": " Rob", "3959": " Birdy", "3960": "xy", "3961": "come", "3962": " trains", "3963": " thunder", "3964": " growing", "3965": " flea", "3966": " display", "3967": " bags", "3968": " attach", "3969": "ilot", "3970": "coa", "3971": " ur", "3972": " loudly", "3973": " inclu", "3974": " hanging", "3975": " freezer", "3976": " diary", "3977": "keep", "3978": " whenever", "3979": " sight", "3980": " holds", "3981": " gear", "3982": " five", "3983": " valuable", "3984": " pirate", "3985": " junk", "3986": " check", "3987": "ailable", "3988": "affe", "3989": "Joe", "3990": "Is", "3991": " shaking", "3992": " porch", "3993": " names", "3994": " grand", "3995": " eye", "3996": "olin", "3997": " quiz", "3998": " packed", "3999": " medal", "4000": " cane", "4001": "vet", "4002": " stared", "4003": " perm", "4004": " may", "4005": " excitement", "4006": " shocked", "4007": " men", "4008": " against", "4009": "ature", "4010": " support", "4011": " ink", "4012": " handle", "4013": " frogs", "4014": " Co", "4015": "usie", "4016": "ination", "4017": " stops", "4018": " rules", "4019": "ophone", "4020": "nam", "4021": " violin", "4022": " sparkly", "4023": " picking", "4024": " giraffe", "4025": " available", "4026": "ured", "4027": " tools", "4028": " sett", "4029": " neat", "4030": " marched", "4031": " math", "4032": "low", "4033": " Bessie", "4034": "aroo", "4035": "angaroo", "4036": " practice", "4037": " often", "4038": " meeting", "4039": " envelope", "4040": " drawings", "4041": "ugged", "4042": "te", "4043": "body", "4044": "Em", "4045": " pilot", "4046": " nation", "4047": " mummy", "4048": " label", "4049": " ext", "4050": "ric", "4051": "ckey", "4052": " whip", "4053": " thinking", "4054": " sne", "4055": " super", "4056": " letters", "4057": " kangaroo", "4058": " hockey", "4059": " cocoa", "4060": "omed", "4061": "bol", "4062": " shrink", "4063": " rail", "4064": " poked", "4065": "nament", "4066": "keeper", "4067": " trail", "4068": " pretending", "4069": " panda", "4070": " ornament", "4071": " agree", "4072": "aches", "4073": " rescue", "4074": " fuel", "4075": " drain", "4076": " baseball", "4077": "ymbol", "4078": "iest", "4079": "apers", "4080": "Mummy", "4081": " ahead", "4082": "vice", "4083": "ron", "4084": "ceed", "4085": " pressed", "4086": " magaz", "4087": " knight", "4088": " gasped", "4089": " drawer", "4090": " airport", "4091": " tightly", "4092": " telling", "4093": " tut", "4094": " stretched", "4095": " realised", "4096": " lawn", "4097": " flour", "4098": " extra", "4099": "fast", "4100": "ait", "4101": "!\".", "4102": " sailor", "4103": " napkin", "4104": " cabinet", "4105": " breakfast", "4106": " Are", "4107": "urnit", "4108": "urniture", "4109": "place", "4110": "peedy", "4111": "na", "4112": "ense", "4113": "Ow", "4114": " succeed", "4115": " pinch", "4116": " object", "4117": " improve", "4118": " file", "4119": " cardboard", "4120": " blin", "4121": "loo", "4122": "igloo", "4123": "Little", "4124": " rece", "4125": " favour", "4126": " furniture", "4127": " Spike", "4128": " igloo", "4129": " V", "4130": "iron", "4131": " tutor", "4132": " peeked", "4133": " listening", "4134": " ceiling", "4135": " anywhere", "4136": " Kiki", "4137": "scope", "4138": "roscope", "4139": "Daisy", "4140": " opera", "4141": " curt", "4142": " basketball", "4143": " Ru", "4144": "opus", "4145": " favourite", "4146": " falling", "4147": " disag", "4148": " belongs", "4149": "vision", "4150": "aid", "4151": " waste", "4152": " twir", "4153": " tornado", "4154": " swamp", "4155": " oct", "4156": " micr", "4157": " jumps", "4158": " gym", "4159": " fireplace", "4160": " discovered", "4161": " curtain", "4162": " Carl", "4163": "riger", "4164": "rigerator", "4165": " television", "4166": " stickers", "4167": " plates", "4168": " mint", "4169": " happier", "4170": " doesn", "4171": " ax", "4172": "lter", "4173": "ium", "4174": "ience", "4175": " shelter", "4176": " symbol", "4177": " raz", "4178": " octopus", "4179": " microphone", "4180": " lightning", "4181": " ins", "4182": " distance", "4183": " chance", "4184": " advice", "4185": "yer", "4186": " weigh", "4187": " stom", "4188": " refrigerator", "4189": " axe", "4190": " Dolly", "4191": " Boun", "4192": "iches", "4193": "gen", "4194": " vend", "4195": " popped", "4196": " offered", "4197": " bookshe", "4198": " beep", "4199": " sandwiches", "4200": " reverse", "4201": " passport", "4202": " magazine", "4203": " jewelry", "4204": " cards", "4205": " bathrobe", "4206": " Betty", "4207": " separate", "4208": " point", "4209": " papers", "4210": " lawyer", "4211": " jail", "4212": " butterflies", "4213": " bookshelf", "4214": " Pete", "4215": "aurant", "4216": "astic", "4217": " restaurant", "4218": " prov", "4219": " perfume", "4220": " peek", "4221": " dess", "4222": " anyway", "4223": " Snow", "4224": " Here", "4225": "undry", "4226": "ately", "4227": " stable", "4228": " rhin", "4229": " laundry", "4230": " lime", "4231": " fog", "4232": " cows", "4233": " chose", "4234": " Red", "4235": " Ow", "4236": "nger", "4237": " vendor", "4238": " towers", "4239": " swinging", "4240": " leash", "4241": " juicy", "4242": " dreaming", "4243": " battery", "4244": " Olive", "4245": " Grandpa", "4246": "ocer", "4247": "Ouch", "4248": " lip", "4249": " kay", "4250": "oceros", "4251": "istol", "4252": " trade", "4253": " taller", "4254": " skirt", "4255": " microscope", "4256": " leaving", "4257": " iron", "4258": "res", "4259": " razor", "4260": " beef", "4261": " Teddy", "4262": " Binky", "4263": "umber", "4264": "htray", "4265": " theater", "4266": " slip", "4267": " roared", "4268": " rhinoceros", "4269": " gro", "4270": " cliff", "4271": " carrying", "4272": " bananas", "4273": " ashtray", "4274": " wine", "4275": " vehicle", "4276": " sweetie", "4277": " mustache", "4278": " lotion", "4279": " leaned", "4280": "ionary", "4281": "ilet", "4282": " weather", "4283": " shovel", "4284": " raise", "4285": " prune", "4286": " pleased", "4287": "sity", "4288": "ictionary", "4289": "adium", "4290": " unite", "4291": " toilet", "4292": " stadium", "4293": " costume", "4294": " Give", "4295": "Ch", "4296": " steam", "4297": " sub", "4298": " lend", "4299": " kayak", "4300": " hate", "4301": " happens", "4302": " climbing", "4303": "rmomet", "4304": "Wait", "4305": "Did", "4306": " wipe", "4307": " problems", "4308": " pistol", "4309": " nature", "4310": " invite", "4311": " hut", "4312": " dictionary", "4313": " circles", "4314": "rmometer", "4315": "leton", "4316": "keleton", "4317": " weap", "4318": " sounded", "4319": " imagined", "4320": " hunter", "4321": " grill", "4322": " bury", "4323": " Where", "4324": "ison", "4325": "Mr", "4326": " spilled", "4327": " puddles", "4328": " lid", "4329": " Speedy", "4330": "urch", "4331": "stri", "4332": "rod", "4333": " unif", "4334": " spoke", "4335": " obser", "4336": " introd", "4337": " claw", "4338": " allowed", "4339": "stairs", "4340": " uniform", "4341": " photo", "4342": " lie", "4343": " inf", "4344": " fingers", "4345": " squirrels", "4346": " prevent", "4347": " missing", "4348": " frowned", "4349": " anch", "4350": " accept", "4351": " Zip", "4352": "ogn", "4353": "ations", "4354": " unpack", "4355": " thermometer", "4356": " sunset", "4357": " grape", "4358": " excitedly", "4359": " Mar", "4360": "ummer", "4361": "elcome", "4362": " zipp", "4363": " tub", "4364": " suggested", "4365": " slipp", "4366": " dessert", "4367": " anchor", "4368": " windows", "4369": " silver", "4370": " searching", "4371": " suff", "4372": " recogn", "4373": " mineral", "4374": "render", "4375": "asp", "4376": " warned", "4377": " stirred", "4378": " squeeze", "4379": " ostri", "4380": " meas", "4381": " collec", "4382": " wigg", "4383": " shouts", "4384": " jokes", "4385": " helper", "4386": " church", "4387": " Bubb", "4388": "fa", "4389": " spoil", "4390": " plastic", "4391": " pastel", "4392": " hung", "4393": " above", "4394": " rubber", "4395": " pair", "4396": " chasing", "4397": "ef", "4398": "cu", "4399": " rush", "4400": " hoping", "4401": " handed", "4402": " Bill", "4403": " skeleton", "4404": " pages", "4405": " dishes", "4406": " dancer", "4407": " Pippin", "4408": " winter", "4409": " tease", "4410": " swung", "4411": " surprises", "4412": " supply", "4413": " sadly", "4414": " cherries", "4415": " cudd", "4416": "icer", "4417": "drobe", "4418": "amber", "4419": "Qu", "4420": " wardrobe", "4421": " trem", "4422": " sausage", "4423": " refused", "4424": " float", "4425": " accidentally", "4426": " sprayed", "4427": " proudly", "4428": " leak", "4429": " ignore", "4430": " goal", "4431": " caring", "4432": " blinked", "4433": "mend", "4434": "med", "4435": " strip", "4436": " saving", "4437": " rained", "4438": " ostrich", "4439": " older", "4440": " musician", "4441": " grapes", "4442": "veal", "4443": "aspoon", "4444": "asis", "4445": " subway", "4446": " sticker", "4447": " summer", "4448": " chamber", "4449": " beans", "4450": "ommend", "4451": "night", "4452": "Grandma", "4453": " teaspoon", "4454": " snap", "4455": " shakes", "4456": " reveal", "4457": " rushed", "4458": " putting", "4459": " mall", "4460": " lumber", "4461": " knob", "4462": " kinds", "4463": " groc", "4464": " \u00e2\u0080", "4465": "zag", "4466": " surrender", "4467": " shone", "4468": " respectful", "4469": " recommend", "4470": " finds", "4471": " disappear", "4472": " chairs", "4473": " brightly", "4474": " Cl", "4475": "aul", "4476": " riding", "4477": " pup", "4478": " fixing", "4479": " colourful", "4480": " cur", "4481": "Yay", "4482": " pulls", "4483": " points", "4484": " kneel", "4485": " infant", "4486": " comfort", "4487": " Alice", "4488": "isty", "4489": "igzag", "4490": " starts", "4491": " sofa", "4492": " mistakes", "4493": " menu", "4494": " bent", "4495": " apron", "4496": " Susie", "4497": " Jazz", "4498": " Bow", "4499": " sent", "4500": " rac", "4501": " argue", "4502": " admire", "4503": " Mike", "4504": "we", "4505": " waffles", "4506": " sniffed", "4507": " oasis", "4508": " human", "4509": " hive", "4510": " zoomed", "4511": " blueberries", "4512": "thank", "4513": "inarian", "4514": "imed", "4515": "hero", "4516": "eterinarian", "4517": "alend", "4518": "Next", "4519": "Lisa", "4520": " veterinarian", "4521": " superhero", "4522": " regret", "4523": " ranch", "4524": " panic", "4525": " lives", "4526": " calend", "4527": " Pandy", "4528": "ecause", "4529": "ampoo", "4530": " lic", "4531": " crib", "4532": " buckle", "4533": " feelings", "4534": " fought", "4535": "wards", "4536": "iday", "4537": " university", "4538": " sneezed", "4539": " sigh", "4540": " page", "4541": " monkeys", "4542": " grabs", "4543": "uggage", "4544": "happy", "4545": "aked", "4546": " luggage", "4547": " claws", "4548": " calendar", "4549": " brighter", "4550": " Mandy", "4551": "Your", "4552": " soil", "4553": " shampoo", "4554": " reef", "4555": " player", "4556": " hist", "4557": " evening", "4558": " ended", "4559": "eer", "4560": " tip", "4561": " replace", "4562": " doors", "4563": " copper", "4564": " appl", "4565": "apping", "4566": "..", "4567": " olives", "4568": " history", "4569": " crossed", "4570": " Freddy", "4571": " yield", "4572": " weapon", "4573": " sticky", "4574": " squeezed", "4575": " slippery", "4576": " hol", "4577": " breaks", "4578": " Bubbles", "4579": "Yuck", "4580": " yawned", "4581": " pushing", "4582": " holiday", "4583": " giggle", "4584": " dear", "4585": " Would", "4586": " throwing", "4587": " remove", "4588": " admired", "4589": " Or", "4590": "oe", "4591": "nesday", "4592": "indeer", "4593": "ednesday", "4594": "Buddy", "4595": " unhappy", "4596": " rake", "4597": " letting", "4598": " incre", "4599": " forgave", "4600": "ifi", "4601": "del", "4602": "alley", "4603": " ribbon", "4604": " reminded", "4605": " reindeer", "4606": " delighted", "4607": " valley", "4608": " suffer", "4609": " Ted", "4610": " End", "4611": "ince", "4612": " zipper", "4613": " softly", "4614": " punish", "4615": " pedal", "4616": " matches", "4617": " license", "4618": " lemons", "4619": " heat", "4620": " examine", "4621": " cared", "4622": " breat", "4623": " Pat", "4624": " Next", "4625": " Hel", "4626": "men", "4627": "angu", "4628": "Will", "4629": " wre", "4630": " thanks", "4631": " stud", "4632": " repeat", "4633": " langu", "4634": " hanger", "4635": "aud", "4636": "Daddy", "4637": " trusted", "4638": " socks", "4639": " model", "4640": " fre", "4641": " barks", "4642": " Wednesday", "4643": "cage", "4644": " prepare", "4645": " crow", "4646": " chickens", "4647": " castles", "4648": " bumped", "4649": " birdcage", "4650": "Ready", "4651": " impressed", "4652": " ener", "4653": " checked", "4654": " buzz", "4655": " bend", "4656": " apol", "4657": "ricane", "4658": "ason", "4659": " invit", "4660": " classroom", "4661": " brick", "4662": " berry", "4663": " apolog", "4664": " Penny", "4665": " shoulder", "4666": " pushes", "4667": " planes", "4668": " mystery", "4669": " myself", "4670": " coats", "4671": " bears", "4672": " Zoomy", "4673": " sudden", "4674": " luck", "4675": "icky", "4676": " wreck", "4677": " tremble", "4678": " sunr", "4679": " steel", "4680": " snowball", "4681": " pigs", "4682": "arlie", "4683": " tuna", "4684": " stamps", "4685": " sparkled", "4686": " shivering", "4687": " port", "4688": " flood", "4689": " country", "4690": " clapping", "4691": "Mary", "4692": " wisdom", "4693": " sty", "4694": " cherry", "4695": "ophie", "4696": " universe", "4697": " throws", "4698": " starting", "4699": " stair", "4700": " provide", "4701": " drops", "4702": " Ellie", "4703": "year", "4704": "bor", "4705": "Alice", "4706": " vac", "4707": " toe", "4708": " sunrise", "4709": " somewhere", "4710": " smells", "4711": " mass", "4712": " fresh", "4713": " flies", "4714": " applaud", "4715": " twisty", "4716": " flapped", "4717": " explored", "4718": " burned", "4719": "uesday", "4720": "inking", "4721": " snugg", "4722": " network", "4723": " courage", "4724": " Lilly", "4725": "eor", "4726": "cond", "4727": " harbor", "4728": " choice", "4729": " Johnny", "4730": "erc", "4731": "cuss", "4732": "bles", "4733": "Mimi", "4734": " spade", "4735": " shrugged", "4736": " prunes", "4737": " hills", "4738": " furt", "4739": " eaten", "4740": " delay", "4741": " Fifi", "4742": "riage", "4743": " second", "4744": " palm", "4745": " horses", "4746": " given", "4747": " excla", "4748": " discuss", "4749": " beg", "4750": " art", "4751": " Grace", "4752": " Big", "4753": " \n", "4754": " tour", "4755": " imagination", "4756": " Coco", "4757": " Y", "4758": "ittens", "4759": "eorge", "4760": "ement", "4761": "Mark", "4762": " keeping", "4763": " energy", "4764": " event", "4765": " apart", "4766": " Hop", "4767": "hter", "4768": " splashing", "4769": " laughter", "4770": " further", "4771": " spots", "4772": " hopes", "4773": " grocery", "4774": " freeze", "4775": " exclaimed", "4776": " calls", "4777": " Tuesday", "4778": " Ro", "4779": "All", "4780": " stomach", "4781": " rooms", "4782": " rabbits", "4783": " placed", "4784": " hurricane", "4785": " content", "4786": " believed", "4787": " Sharing", "4788": " Mrs", "4789": "unday", "4790": " settle", "4791": " scratch", "4792": " mailman", "4793": " mention", "4794": " exerc", "4795": " chirp", "4796": " bouncing", "4797": " Dog", "4798": "heart", "4799": "chan", "4800": "Emma", "4801": " fort", "4802": " floated", "4803": " candles", "4804": " Sunday", "4805": " Help", "4806": " Have", "4807": "eration", "4808": " wob", "4809": " prayed", "4810": " paid", "4811": " minute", "4812": " lions", "4813": " introduce", "4814": " Sk", "4815": " Fl", "4816": "ffic", "4817": "cast", "4818": "Sh", "4819": " whisper", "4820": " struggle", "4821": " streng", "4822": " skill", "4823": " scold", "4824": "chanic", "4825": "Welcome", "4826": " sandcast", "4827": " restore", "4828": " neighbour", "4829": " mechanic", "4830": " marriage", "4831": " leather", "4832": " bother", "4833": " alive", "4834": "xu", "4835": "uxu", "4836": "illie", "4837": " vacation", "4838": " sweetheart", "4839": " strength", "4840": " rhy", "4841": " raining", "4842": " Under", "4843": "raged", "4844": " traffic", "4845": " tracks", "4846": " spike", "4847": " sailing", "4848": " racing", "4849": " inst", "4850": "thm", "4851": "cer", "4852": " nobody", "4853": " language", "4854": " lung", "4855": " insisted", "4856": " greedy", "4857": " following", "4858": " aftern", "4859": " Whenever", "4860": " Lee", "4861": " Hoppy", "4862": " Elly", "4863": "ucture", "4864": "resses", "4865": "ges", "4866": "Ann", "4867": " include", "4868": " folded", "4869": " dem", "4870": " chewed", "4871": " afternoon", "4872": " Owl", "4873": "ero", "4874": "acked", "4875": "Woof", "4876": "Before", "4877": " structure", "4878": " soak", "4879": " shower", "4880": " rhythm", "4881": " offer", "4882": " x", "4883": "uct", "4884": "quest", "4885": "emember", "4886": " vroom", "4887": " thumb", "4888": " permit", "4889": " massage", "4890": " luxu", "4891": " badly", "4892": " Dave", "4893": "ah", "4894": "Jenny", "4895": " whistled", "4896": " signs", "4897": " request", "4898": " observe", "4899": " lemonade", "4900": " hearts", "4901": " heads", "4902": " exper", "4903": " encourage", "4904": " baking", "4905": " Mittens", "4906": "elvet", "4907": " winning", "4908": " upstairs", "4909": " sits", "4910": " poison", "4911": " planted", "4912": " parts", "4913": " operation", "4914": " hon", "4915": " beauty", "4916": " See", "4917": "ween", "4918": "otten", "4919": "mare", "4920": " style", "4921": " remain", "4922": " planned", "4923": " marbles", "4924": " easily", "4925": " equ", "4926": " demand", "4927": " comf", "4928": " between", "4929": " Un", "4930": "lex", "4931": "bby", "4932": " warn", "4933": " row", "4934": " entered", "4935": " Mummy", "4936": " Is", "4937": " Harry", "4938": " Everything", "4939": " Bounce", "4940": "ially", "4941": "arnt", "4942": " wags", "4943": " sew", "4944": " pirates", "4945": " meowed", "4946": " learnt", "4947": "spec", "4948": "reeze", "4949": " treasures", "4950": " sport", "4951": " paused", "4952": " nightmare", "4953": " Spark", "4954": "specially", "4955": "ories", "4956": " weeping", "4957": " wagging", "4958": " teaching", "4959": " si", "4960": " ignored", "4961": " dare", "4962": " closely", "4963": " cheek", "4964": " Ruby", "4965": " Finny", "4966": " warning", "4967": " sorts", "4968": " scrat", "4969": " landscape", "4970": " expect", "4971": " digg", "4972": "tain", "4973": "Not", "4974": " yawn", "4975": " urge", "4976": " strike", "4977": " snuggled", "4978": " quite", "4979": " moves", "4980": " mama", "4981": " blowing", "4982": " Sm", "4983": " Bee", "4984": "xygen", "4985": " worms", "4986": " web", "4987": " strawberries", "4988": " slap", "4989": " pur", "4990": " news", "4991": " especially", "4992": " digging", "4993": " Paul", "4994": " ing", "4995": "oral", "4996": "ogo", "4997": " solved", "4998": " luxury", "4999": " growled", "5000": " gain", "5001": " bowed", "5002": " Who", "5003": "redient", "5004": "reat", "5005": "hest", "5006": " \u00e2\u0080\u0093", "5007": " shined", "5008": " memory", "5009": " invitation", "5010": " ingredient", "5011": "osie", "5012": "ippy", "5013": "enry", "5014": "Bella", "5015": " weight", "5016": " twisted", "5017": " tug", "5018": " sandcastle", "5019": " pinched", "5020": " hers", "5021": " gaz", "5022": " follows", "5023": " firef", "5024": " Velvet", "5025": "ucked", "5026": "These", "5027": "Everyone", "5028": " vanished", "5029": " shopkeeper", "5030": " poppy", "5031": " lined", "5032": " enter", "5033": " crash", "5034": " brings", "5035": "ipping", "5036": "ari", "5037": " wandered", "5038": " sprink", "5039": " score", "5040": " jewels", "5041": " ingredients", "5042": " encouraged", "5043": " daisy", "5044": " beds", "5045": " agre", "5046": "sterday", "5047": "right", "5048": "look", "5049": "house", "5050": "esterday", "5051": " writing", "5052": " recognize", "5053": " puzzles", "5054": " dressed", "5055": " brain", "5056": " backpack", "5057": "rec", "5058": "ooped", "5059": "ipment", "5060": "hood", "5061": "With", "5062": " shouldn", "5063": " simp", "5064": " licks", "5065": " dried", "5066": " Pinky", "5067": "ising", "5068": "ddy", "5069": " rang", "5070": " raised", "5071": " memories", "5072": " jazz", "5073": " increase", "5074": " equipment", "5075": " dresses", "5076": " creatures", "5077": " bur", "5078": "avid", "5079": "achel", "5080": " underground", "5081": " sir", "5082": " image", "5083": " hurting", "5084": " heel", "5085": " exercise", "5086": "ecture", "5087": "Le", "5088": " sliding", "5089": " jogged", "5090": " Sophie", "5091": " Lucky", "5092": "queaky", "5093": "Jen", "5094": " vanish", "5095": " shot", "5096": " price", "5097": " cape", "5098": " buried", "5099": " King", "5100": "sed", "5101": "ops", "5102": "nce", "5103": "apa", "5104": "Today", "5105": " waving", "5106": " fro", "5107": " Lizzy", "5108": "quake", "5109": "oves", "5110": "Remy", "5111": " worse", "5112": " washing", "5113": " snail", "5114": " seeing", "5115": " rul", "5116": " exit", "5117": " difference", "5118": " celebrated", "5119": " breathe", "5120": " ble", "5121": " Bluey", "5122": "orted", "5123": "ites", "5124": "Because", "5125": " toes", "5126": " stitch", "5127": " reaches", "5128": " punished", "5129": " manage", "5130": " lecture", "5131": " disagree", "5132": " cutting", "5133": " counter", "5134": " climbs", "5135": " catching", "5136": " cakes", "5137": " blood", "5138": " acorns", "5139": " Qu", "5140": "reci", "5141": "izes", "5142": " yucky", "5143": " watered", "5144": " understanding", "5145": " shouting", "5146": " pulling", "5147": " pad", "5148": " earthquake", "5149": " collection", "5150": " captain", "5151": " blueberry", "5152": " below", "5153": " Toto", "5154": "pted", "5155": "mm", "5156": "Bl", "5157": " seats", "5158": " quietly", "5159": " pears", "5160": " oh", "5161": " nowhere", "5162": " muddy", "5163": " fash", "5164": " Tuna", "5165": "ups", "5166": "gie", "5167": "ccer", "5168": "aker", "5169": " tide", "5170": " gloves", "5171": " fashion", "5172": " easier", "5173": " decorations", "5174": " attached", "5175": " appreci", "5176": "looking", "5177": "Surpr", "5178": " paints", "5179": " ideas", "5180": " gifts", "5181": " fireworks", "5182": " eagerly", "5183": " created", "5184": " conf", "5185": "ship", "5186": "Yum", "5187": " soccer", "5188": " printed", "5189": " navy", "5190": " kitty", "5191": " during", "5192": " collected", "5193": " baked", "5194": " Fox", "5195": " Eventually", "5196": "ictory", "5197": " prints", "5198": " blankets", "5199": " attention", "5200": " accepted", "5201": " Zara", "5202": " Tilly", "5203": " Millie", "5204": " Good", "5205": "unately", "5206": "rr", "5207": "ola", "5208": "Moral", "5209": " screams", "5210": " receive", "5211": " prett", "5212": " isn", "5213": " elephants", "5214": " bouncy", "5215": " Gogo", "5216": " Annie", "5217": "ety", "5218": "ded", "5219": " zigzag", "5220": " welcomed", "5221": " snapped", "5222": " oxygen", "5223": " hadn", "5224": " deeper", "5225": " Squeaky", "5226": " Charlie", "5227": " winner", "5228": " visited", "5229": " peanuts", "5230": " jogging", "5231": " balan", "5232": " Happy", "5233": " Alex", "5234": "sit", "5235": "rin", "5236": "kelly", "5237": "ived", "5238": " ruler", "5239": " resp", "5240": " pitch", "5241": " Sandy", "5242": " Rosie", "5243": " Joey", "5244": "undred", "5245": "omeday", "5246": "Mandy", "5247": "'ve", "5248": " worth", "5249": " release", "5250": " protec", "5251": " instr", "5252": " hundred", "5253": " flap", "5254": " fet", "5255": " east", "5256": " drinks", "5257": " destroyed", "5258": " bites", "5259": " Snowy", "5260": "ction", "5261": "Fred", "5262": " watches", "5263": " safari", "5264": " since", "5265": " acted", "5266": " God", "5267": "isses", "5268": "aggie", "5269": "Goodbye", "5270": "Bobby", "5271": " twink", "5272": " tore", "5273": " someday", "5274": " muffins", "5275": " laid", "5276": " experience", "5277": " cub", "5278": " cartoons", "5279": " Hope", "5280": "icing", "5281": " vel", "5282": " skills", "5283": " shock", "5284": " pets", "5285": " kisses", "5286": " Bo", "5287": " Baby", "5288": "une", "5289": "aded", "5290": "Surprise", "5291": " twigs", "5292": " straight", "5293": " spoons", "5294": " scolded", "5295": " remained", "5296": " pupil", "5297": " measured", "5298": " girls", "5299": " fed", "5300": " drinking", "5301": " bleed", "5302": " Wally", "5303": " Su", "5304": " Rachel", "5305": " Papa", "5306": " Each", "5307": "ssible", "5308": "kins", "5309": "ips", "5310": "ining", "5311": "do", "5312": "chie", "5313": " velvet", "5314": " victory", "5315": " officer", "5316": " Slow", "5317": " Skelly", "5318": " Its", "5319": "va", "5320": "fortunately", "5321": " trapped", "5322": " tomatoes", "5323": " pra", "5324": " fallen", "5325": " Pip", "5326": "indy", "5327": " sorting", "5328": " petals", "5329": " mixing", "5330": " lips", "5331": " kicking", "5332": " hits", "5333": " grin", "5334": " breaking", "5335": " blink", "5336": " breeze", "5337": " Tony", "5338": " Danny", "5339": "ne", "5340": "ents", "5341": "ding", "5342": "akes", "5343": " twirled", "5344": " simple", "5345": " poking", "5346": " peaches", "5347": " known", "5348": " brus", "5349": " Je", "5350": " Finn", "5351": "vest", "5352": "iers", "5353": "bbing", "5354": "Ha", "5355": " zero", "5356": " spit", "5357": " shed", "5358": " setting", "5359": " sizes", "5360": " plays", "5361": " ours", "5362": " marching", "5363": " kingdom", "5364": " golden", "5365": " gazed", "5366": " fields", "5367": " Maria", "5368": " Mo", "5369": "sters", "5370": "enty", "5371": "anges", "5372": " zipped", "5373": " trave", "5374": " soldiers", "5375": " skipping", "5376": " ringing", "5377": " patterns", "5378": " George", "5379": "ring", "5380": " urged", "5381": " tong", "5382": " potatoes", "5383": " mittens", "5384": " highest", "5385": " dared", "5386": "osed", "5387": "choo", "5388": "Cat", "5389": "Blue", "5390": " revealed", "5391": " pies", "5392": " married", "5393": " keys", "5394": " guessed", "5395": " cras", "5396": " allow", "5397": " Someone", "5398": " Froggy", "5399": " David", "5400": " Before", "5401": "ored", "5402": "ishing", "5403": " studied", "5404": " slice", "5405": " nails", "5406": " meow", "5407": " forgotten", "5408": " bye", "5409": " alright", "5410": " Rock", "5411": " voices", "5412": " unlocked", "5413": " selling", "5414": " sip", "5415": " resting", "5416": " received", "5417": " perfectly", "5418": " napping", "5419": " motion", "5420": " hurried", "5421": " appear", "5422": " Ste", "5423": " Henry", "5424": " Am", "5425": "ores", "5426": " strang", "5427": " printer", "5428": " pebbles", "5429": " mice", "5430": " invest", "5431": " firemen", "5432": " disagreed", "5433": " chewing", "5434": " Pippa", "5435": "anna", "5436": " whistling", "5437": " rested", "5438": " mentioned", "5439": " melted", "5440": " investig", "5441": " famil", "5442": " bab", "5443": "sing", "5444": "izard", "5445": "aped", "5446": "!'", "5447": " supposed", "5448": " slapped", "5449": " measuring", "5450": " marks", "5451": " importance", "5452": " hated", "5453": " fetch", "5454": " colours", "5455": " babies", "5456": " Later", "5457": " Follow", "5458": "omas", "5459": "mbling", "5460": " west", "5461": " trembling", "5462": " season", "5463": " scattered", "5464": " safety", "5465": " quack", "5466": " emer", "5467": " bricks", "5468": "hello", "5469": "boo", "5470": "Tr", "5471": " shadows", "5472": " secrets", "5473": " pillows", "5474": " none", "5475": " inch", "5476": " herbs", "5477": " These", "5478": " Green", "5479": " Chicky", "5480": "ids", "5481": "aved", "5482": " surround", "5483": " strings", "5484": " investigate", "5485": " floating", "5486": "plash", "5487": "medi", "5488": "Momo", "5489": " wiggle", "5490": " tucked", "5491": " strangers", "5492": " stealing", "5493": " sore", "5494": " six", "5495": " kneeled", "5496": " esc", "5497": " ago", "5498": "ther", "5499": "mediately", "5500": "izing", "5501": "Happy", "5502": " waist", "5503": " wizard", "5504": " tonight", "5505": " stuffed", "5506": " spaceship", "5507": " hesit", "5508": " grant", "5509": " bang", "5510": " appro", "5511": " May", "5512": " Ab", "5513": "Sammy", "5514": " trips", "5515": " silence", "5516": " served", "5517": " matched", "5518": " flat", "5519": " chores", "5520": "bug", "5521": "antly", "5522": " sparkling", "5523": " playtime", "5524": " fishing", "5525": "oot", "5526": " threat", "5527": " sneak", "5528": " praised", "5529": " mouths", "5530": " moments", "5531": " knelt", "5532": " dads", "5533": " burning", "5534": " bringing", "5535": " beamed", "5536": " admir", "5537": "Dan", "5538": " tongue", "5539": " stripes", "5540": " lets", "5541": " lands", "5542": " lines", "5543": " item", "5544": " crunch", "5545": " brid", "5546": " bones", "5547": "ls", "5548": "bbie", "5549": "Really", "5550": "Bird", "5551": " works", "5552": " thrill", "5553": " pastries", "5554": " mister", "5555": " collecting", "5556": " area", "5557": " achie", "5558": " Dare", "5559": " Che", "5560": "walk", "5561": "ues", "5562": "oved", "5563": "oke", "5564": "irts", "5565": "hind", "5566": "allen", "5567": " teasing", "5568": " sorted", "5569": " siren", "5570": " scratched", "5571": " ripped", "5572": " result", "5573": " piles", "5574": " obe", "5575": " muscles", "5576": " melting", "5577": " eight", "5578": " challen", "5579": " Star", "5580": " Smith", "5581": " Beep", "5582": "utter", "5583": "rs", "5584": "ission", "5585": "igi", "5586": "gency", "5587": "Tw", "5588": " turning", "5589": " pride", "5590": " ordered", "5591": " curled", "5592": " bridges", "5593": " Rabbit", "5594": "ena", "5595": "eep", "5596": "Emily", "5597": " vet", "5598": " theirs", "5599": " sidewalk", "5600": " relaxed", "5601": " permission", "5602": " pedals", "5603": " nicer", "5604": " Frog", "5605": " First", "5606": " Bug", "5607": "zing", "5608": "uzz", "5609": "oming", "5610": "embers", "5611": "cus", "5612": " writes", "5613": " whatever", "5614": " slim", "5615": " settled", "5616": " remembers", "5617": " obey", "5618": " machines", "5619": " keeps", "5620": " crawling", "5621": " contest", "5622": " chef", "5623": " brushes", "5624": " Aunt", "5625": "ud", "5626": "please", "5627": "osity", "5628": "nie", "5629": "Leo", "5630": "\",", "5631": " warmth", "5632": " waits", "5633": " wink", "5634": " sprinkles", "5635": " shopping", "5636": " headed", "5637": " foods", "5638": " buzzing", "5639": "mother", "5640": "ides", "5641": "First", "5642": "!\",", "5643": " youth", "5644": " yesterday", "5645": " steep", "5646": " sneaky", "5647": " monsters", "5648": " guy", "5649": " beside", "5650": " Sky", "5651": " Not", "5652": " Bouncy", "5653": " An", "5654": "usty", "5655": "use", "5656": "ibb", "5657": "Would", "5658": "Somet", "5659": "Ok", "5660": " slimy", "5661": " sisters", "5662": " lick", "5663": " comforted", "5664": " behaved", "5665": " Both", "5666": "uture", "5667": "Remember", "5668": "Mmm", "5669": " touching", "5670": " spiders", "5671": " soaked", "5672": " shooting", "5673": " playroom", "5674": " opin", "5675": " loose", "5676": " kindly", "5677": " immediately", "5678": " hi", "5679": " future", "5680": " bravely", "5681": " answers", "5682": " amazement", "5683": " Jul", "5684": " Birdie", "5685": "ppers", "5686": "ler", "5687": "fied", "5688": " wonders", "5689": " tickets", "5690": " thrilled", "5691": " gained", "5692": " dire", "5693": " bloomed", "5694": " Suzy", "5695": " Something", "5696": " Lola", "5697": " Gigi", "5698": "Cl", "5699": " tricked", "5700": " sausages", "5701": " pearl", "5702": " ladybug", "5703": " honk", "5704": " escaped", "5705": " eats", "5706": " appreciate", "5707": " Like", "5708": " Hoot", "5709": " Clara", "5710": "ishes", "5711": "ctly", "5712": "Boo", "5713": " wanting", "5714": " tickle", "5715": " tastes", "5716": " staying", "5717": " stare", "5718": " seems", "5719": " presents", "5720": " polished", "5721": " oranges", "5722": " glitter", "5723": " gust", "5724": " firefight", "5725": " emergency", "5726": " doggy", "5727": " cuddled", "5728": " Always", "5729": "irring", "5730": "ien", "5731": "Un", "5732": "Have", "5733": "Ah", "5734": " zookeeper", "5735": " snowballs", "5736": " flav", "5737": " continue", "5738": " comple", "5739": " chases", "5740": " bottles", "5741": " Squ", "5742": " Rocky", "5743": " Rover", "5744": " Kate", "5745": "umes", "5746": "igail", "5747": "ays", "5748": "Yummy", "5749": "Or", "5750": " sled", "5751": " sighs", "5752": " rocking", "5753": " rocked", "5754": " prepared", "5755": " prec", "5756": " owned", "5757": " dragons", "5758": " disturbed", "5759": " discovery", "5760": " decorated", "5761": " Out", "5762": " James", "5763": " Boo", "5764": " Ally", "5765": "zen", "5766": "xture", "5767": "uzzy", "5768": "riends", "5769": "loe", "5770": " zooming", "5771": " texture", "5772": " rings", "5773": " ourselves", "5774": " expected", "5775": " eff", "5776": " drums", "5777": " Water", "5778": " Maggie", "5779": " Liz", "5780": "lowers", "5781": "Ella", "5782": " twin", "5783": " tasks", "5784": " struggled", "5785": " smallest", "5786": " roots", "5787": " pupp", "5788": " possible", "5789": " happiest", "5790": " cones", "5791": " clearing", "5792": " chirped", "5793": " catches", "5794": " broom", "5795": " begged", "5796": " beat", "5797": " awe", "5798": " Wigg", "5799": " Beth", "5800": " Once", "5801": "ided", "5802": "Meow", "5803": " stirring", "5804": " spending", "5805": " rule", "5806": " ribbons", "5807": " polishing", "5808": " organizing", "5809": " frozen", "5810": " dinosaurs", "5811": " crunchy", "5812": " Put", "5813": "ica", "5814": "Eventually", "5815": " wooden", "5816": " shirts", "5817": " reply", "5818": " peppers", "5819": " peel", "5820": " loving", "5821": " leader", "5822": " insist", "5823": " families", "5824": " costumes", "5825": " bleeding", "5826": " approached", "5827": " apologize", "5828": "unnies", "5829": "joyed", "5830": "ira", "5831": "ino", "5832": "ib", "5833": "hee", "5834": "'.", "5835": " sting", "5836": " precious", "5837": " panc", "5838": " overjoyed", "5839": " grinned", "5840": " frost", "5841": " effort", "5842": " Slowly", "5843": " Dr", "5844": "iggy", "5845": "aws", "5846": "Ollie", "5847": " studying", "5848": " spraying", "5849": " sides", "5850": " neighborhood", "5851": " naps", "5852": " hugging", "5853": " heroes", "5854": " darker", "5855": " crashed", "5856": " completed", "5857": " cobwebs", "5858": " bunnies", "5859": " boo", "5860": " arrive", "5861": " anytime", "5862": " Prin", "5863": "urry", "5864": "ashed", "5865": "Sometimes", "5866": "Ro", "5867": "Miss", "5868": "Jake", "5869": ".'", "5870": " struck", "5871": " refuse", "5872": " realize", "5873": " rele", "5874": " pots", "5875": " planets", "5876": " opening", "5877": " helmets", "5878": " hen", "5879": " admiring", "5880": " Splash", "5881": " Mix", "5882": " Did", "5883": " Cra", "5884": " Behind", "5885": " Abby", "5886": "Peter", "5887": "Andy", "5888": " succeeded", "5889": " staring", "5890": " sparkle", "5891": " sadness", "5892": " recognized", "5893": " pause", "5894": " noon", "5895": " horns", "5896": " grey", "5897": " dusty", "5898": " dot", "5899": " buildings", "5900": " brushed", "5901": " belly", "5902": " argued", "5903": " acting", "5904": " Whist", "5905": " Thomas", "5906": " Jeff", "5907": " Being", "5908": "ities", "5909": "esome", "5910": "Sp", "5911": " weeks", "5912": " woof", "5913": " wid", "5914": " stretching", "5915": " safer", "5916": " rides", "5917": " opinion", "5918": " minerals", "5919": " matching", "5920": " instruct", "5921": " hops", "5922": " hardly", "5923": " glowed", "5924": " frosting", "5925": " flags", "5926": " decides", "5927": " buckets", "5928": " agreement", "5929": " Pepper", "5930": " Moon", "5931": " Lou", "5932": "isten", "5933": "amie", "5934": "Johnny", "5935": "Fr", "5936": " wondering", "5937": " swims", "5938": " sparkles", "5939": " sneaked", "5940": " scooped", "5941": " released", "5942": " paintings", "5943": " neighbors", "5944": " helpers", "5945": " grandmother", "5946": " gran", "5947": " gathering", "5948": " gaze", "5949": " downstairs", "5950": " curiosity", "5951": " cough", "5952": " bedtime", "5953": " awesome", "5954": " Love", "5955": "ley", "5956": " yelling", "5957": " wherever", "5958": " talent", "5959": " soared", "5960": " respons", "5961": " prettiest", "5962": " penguins", "5963": " loaded", "5964": " items", "5965": " goodnight", "5966": " diving", "5967": " cuts", "5968": " buses", "5969": " actually", "5970": " actions", "5971": " Stitch", "5972": "inkle", "5973": "Silly", "5974": "Ru", "5975": "Ducky", "5976": " teaches", "5977": " situ", "5978": " seesaw", "5979": " scaring", "5980": " roads", "5981": " peered", "5982": " patience", "5983": " contain", "5984": " claps", "5985": " boom", "5986": " balancing", "5987": " Remember", "5988": "ho", "5989": "allow", "5990": "ales", "5991": "Fo", "5992": "Ex", "5993": "During", "5994": " weighed", "5995": " toss", "5996": " sticking", "5997": " splashes", "5998": " refres", "5999": " rainbows", "6000": " movies", "6001": " homework", "6002": " hissed", "6003": " fault", "6004": " fasc", "6005": " bare", "6006": " agrees", "6007": " Uncle", "6008": " Dizzy", "6009": " Bree", "6010": " X", "6011": "usan", "6012": "lier", "6013": "Whiskers", "6014": " traveled", "6015": " surrounded", "6016": " struggling", "6017": " recorded", "6018": " powers", "6019": " poems", "6020": " petted", "6021": " parties", "6022": " forks", "6023": " drives", "6024": " cans", "6025": " begin", "6026": " Zigzag", "6027": " Wiggly", "6028": " Steve", "6029": " Gr", "6030": " Chew", "6031": "ora", "6032": "Toby", "6033": "Grace", "6034": "Chirpy", "6035": "...", "6036": " uses", "6037": " smiley", "6038": " slam", "6039": " roaring", "6040": " packing", "6041": " mountains", "6042": " misses", "6043": " forgi", "6044": " folding", "6045": " earlier", "6046": " dragged", "6047": " apologized", "6048": " Milly", "6049": " Josh", "6050": "zes", "6051": "ubbed", "6052": "ivity", "6053": "anging", "6054": "amb", "6055": " twirl", "6056": " tugged", "6057": " shivered", "6058": " scrubbed", "6059": " rolls", "6060": " pencils", "6061": " included", "6062": " fascin", "6063": " demanded", "6064": " Jenna", "6065": " Hippy", "6066": " Frank", "6067": " Abigail", "6068": "guing", "6069": "True", "6070": " worker", "6071": " teased", "6072": " shrug", "6073": " rubbing", "6074": " removed", "6075": " quarreling", "6076": " protected", "6077": " pockets", "6078": " peas", "6079": " napkins", "6080": " lap", "6081": " kicks", "6082": " instructions", "6083": " gems", "6084": " eagle", "6085": " draws", "6086": " company", "6087": " caut", "6088": " becoming", "6089": " bars", "6090": " Stop", "6091": " Leave", "6092": " Jan", "6093": " Bark", "6094": "\u00e2\u0080\u009d.", "6095": "ustom", "6096": "uke", "6097": "oys", "6098": "Rex", "6099": " wobbled", "6100": " wins", "6101": " visiting", "6102": " tallest", "6103": " sunlight", "6104": " stro", "6105": " seas", "6106": " repeated", "6107": " project", "6108": " patted", "6109": " maker", "6110": " learns", "6111": " lily", "6112": " introduc", "6113": " granted", "6114": " comfy", "6115": " challenge", "6116": " cent", "6117": " awake", "6118": " arguing", "6119": " ann", "6120": " Woo", "6121": " Squirrel", "6122": " Mat", "6123": " Cindy", "6124": " By", "6125": " Because", "6126": " Ava", "6127": " Abbie", "6128": "you", "6129": "sses", "6130": "nies", "6131": "gers", "6132": "compl", "6133": "atie", "6134": "affes", "6135": "Mar", "6136": "Benny", "6137": " wiggled", "6138": " whose", "6139": " vehicles", "6140": " sweeties", "6141": " rip", "6142": " pigeons", "6143": " phot", "6144": " librarian", "6145": " goals", "6146": " giraffes", "6147": " cuddle", "6148": " copy", "6149": " complained", "6150": " custom", "6151": " bowls", "6152": " bunch", "6153": " accompl", "6154": " Wink", "6155": " Ju", "6156": "uly", "6157": "oh", "6158": "Watch", "6159": "Tiny", "6160": "Stay", "6161": "Paul", "6162": "Luna", "6163": "Harry", "6164": " snakes", "6165": " radishes", "6166": " prop", "6167": " neighbourhood", "6168": " ma", "6169": " glasses", "6170": " exa", "6171": " cash", "6172": " Welcome", "6173": " Skip", "6174": " Robby", "6175": " Quick", "6176": " Quack", "6177": " Pup", "6178": " Foxy", "6179": "uckily", "6180": "bl", "6181": "ana", "6182": "Susie", "6183": "Fine", "6184": "Achoo", "6185": " winked", "6186": " truly", "6187": " third", "6188": " swooped", "6189": " steady", "6190": " shelves", "6191": " ruin", "6192": " refle", "6193": " reaching", "6194": " purred", "6195": " pointy", "6196": " pennies", "6197": " gotten", "6198": " fairies", "6199": " delivered", "6200": " dar", "6201": " curly", "6202": " complaining", "6203": " chat", "6204": " beard", "6205": " applauded", "6206": " Woof", "6207": " Lena", "6208": "fus", "6209": "Uh", "6210": "Pete", "6211": "Hold", "6212": " yum", "6213": " videos", "6214": " speaking", "6215": " sings", "6216": " pouring", "6217": " ornaments", "6218": " limes", "6219": " knights", "6220": " keeper", "6221": " examined", "6222": " circus", "6223": " cashier", "6224": " cause", "6225": " barely", "6226": " adding", "6227": "neath", "6228": "ammy", "6229": "Some", "6230": "Our", "6231": "George", "6232": " vines", "6233": " tim", "6234": " soaring", "6235": " screaming", "6236": " prayer", "6237": " patiently", "6238": " outdo", "6239": " loading", "6240": " fears", "6241": " dipped", "6242": " curtains", "6243": " crumb", "6244": " baker", "6245": " Zoe", "6246": " Watch", "6247": " Susan", "6248": " Me", "6249": "lay", "6250": "iggie", "6251": "ern", "6252": "Polly", "6253": "Bunny", "6254": " united", "6255": " stays", "6256": " responsible", "6257": " plenty", "6258": " perched", "6259": " pastels", "6260": " padd", "6261": " onwards", "6262": " flutter", "6263": " entire", "6264": " closes", "6265": " bows", "6266": " Want", "6267": " Turtle", "6268": " Keep", "6269": " However", "6270": " Buggy", "6271": "uctantly", "6272": "int", "6273": "fl", "6274": "araway", "6275": "Rob", "6276": "Que", "6277": " written", "6278": " wobb", "6279": " wears", "6280": " wasted", "6281": " usual", "6282": " tables", "6283": " sweat", "6284": " spat", "6285": " replaced", "6286": " protecting", "6287": " promises", "6288": " practicing", "6289": " logs", "6290": " faraway", "6291": " explorers", "6292": " exactly", "6293": " crabs", "6294": " changing", "6295": " batteries", "6296": " Ziggy", "6297": " Mixy", "6298": " Dino", "6299": "  ", "6300": "jam", "6301": "isdom", "6302": "avi", "6303": "arter", "6304": "Queen", "6305": "Poppy", "6306": "For", "6307": "Ew", "6308": "Charlie", "6309": " yells", "6310": " wed", "6311": " sunflowers", "6312": " startled", "6313": " smarter", "6314": " requested", "6315": " pretends", "6316": " policeman", "6317": " pens", "6318": " outdoors", "6319": " onions", "6320": " masks", "6321": " knots", "6322": " knocks", "6323": " froze", "6324": " entr", "6325": " dam", "6326": " cracked", "6327": " blows", "6328": " Paws", "6329": " Chloe", "6330": " Biggie", "6331": " Ball", "6332": "wh", "6333": "sm", "6334": "mies", "6335": "inda", "6336": "eah", "6337": "angled", "6338": "aver", "6339": "Thanks", "6340": "Time", "6341": "Shh", "6342": "Mike", "6343": "James", "6344": "?\",", "6345": " wound", "6346": " vent", "6347": " teamwork", "6348": " sneezing", "6349": " scratches", "6350": " reminder", "6351": " prettier", "6352": " mushrooms", "6353": " listens", "6354": " lamb", "6355": " inviting", "6356": " growls", "6357": " giggling", "6358": " fir", "6359": " creation", "6360": " buzzed", "6361": " Po", "6362": " Chr", "6363": "uest", "6364": "oline", "6365": "laire", "6366": "izzie", "6367": "eath", "6368": "dam", "6369": " yourselves", "6370": " valued", "6371": " twirling", "6372": " traded", "6373": " towels", "6374": " squares", "6375": " spong", "6376": " satis", "6377": " lollipops", "6378": " knees", "6379": " hides", "6380": " guest", "6381": " destination", "6382": " contro", "6383": " chirping", "6384": " candies", "6385": " camping", "6386": " beneath", "6387": " airpl", "6388": " Tree", "6389": " Hug", "6390": " Everyday", "6391": " Catty", "6392": " Ant", "6393": " 1", "6394": "umble", "6395": "njoy", "6396": "indr", "6397": "dies", "6398": "annah", "6399": "agull", "6400": "Zoom", "6401": " villag", "6402": " underneath", "6403": " tires", "6404": " superheroes", "6405": " slammed", "6406": " situation", "6407": " ruining", "6408": " remote", "6409": " reluctantly", "6410": " reflection", "6411": " raindr", "6412": " photos", "6413": " pins", "6414": " mane", "6415": " lied", "6416": " introduced", "6417": " firefighters", "6418": " feeding", "6419": " fascinated", "6420": " caused", "6421": " brand", "6422": " biting", "6423": " Twinkle", "6424": " Sorry", "6425": " Pam", "6426": " Friends", "6427": " Bye", "6428": "seek", "6429": "son", "6430": "rious", "6431": "ners", "6432": "etsy", "6433": "Dog", "6434": "Buzz", "6435": " younger", "6436": " weren", "6437": " wedding", "6438": " wandering", "6439": " villagers", "6440": " unf", "6441": " squeal", "6442": " solut", "6443": " snowfl", "6444": " sights", "6445": " rubs", "6446": " passing", "6447": " observed", "6448": " mes", "6449": " mast", "6450": " lungs", "6451": " lighter", "6452": " joked", "6453": " firm", "6454": " figured", "6455": " entrance", "6456": " desert", "6457": " decision", "6458": " bank", "6459": " Tara", "6460": " Larry", "6461": " June", "6462": " For", "6463": " Fish", "6464": "tuce", "6465": "ords", "6466": "acob", "6467": "Unfortunately", "6468": "Pipp", "6469": "Out", "6470": "Grandpa", "6471": "Dave", "6472": "...\"", "6473": " wrist", "6474": " waiter", "6475": " tails", "6476": " stool", "6477": " neither", "6478": " lettuce", "6479": " guys", "6480": " everyday", "6481": " deser", "6482": " darling", "6483": " crept", "6484": " cautious", "6485": " alien", "6486": " achieve", "6487": " Sure", "6488": " Our", "6489": " Jones", "6490": " Jamie", "6491": " icing", "6492": "yr", "6493": "lle", "6494": "coat", "6495": "Tina", "6496": "Run", "6497": "Days", "6498": " wires", "6499": " stole", "6500": " stern", "6501": " salty", "6502": " robber", "6503": " relief", "6504": " parked", "6505": " pout", "6506": " needles", "6507": " farther", "6508": " died", "6509": " crowd", "6510": " burst", "6511": " balanced", "6512": " backward", "6513": " Wisdom", "6514": " Spring", "6515": " Sw", "6516": " Queen", "6517": "go", "6518": "essica", "6519": "cher", "6520": "ados", "6521": "Doggy", "6522": "?'", "6523": " wraps", "6524": " wishing", "6525": " toaster", "6526": " tune", "6527": " surface", "6528": " supplies", "6529": " solution", "6530": " slowed", "6531": " scoop", "6532": " rescued", "6533": " raincoat", "6534": " pans", "6535": " owners", "6536": " instrum", "6537": " growling", "6538": " da", "6539": " celebrating", "6540": " crew", "6541": " bak", "6542": " Unfortunately", "6543": " Snap", "6544": " Shadow", "6545": "though", "6546": "ha", "6547": "elia", "6548": "bie", "6549": "atur", "6550": "ads", "6551": "Roar", "6552": "Bad", "6553": "Annie", "6554": " twice", "6555": " stumble", "6556": " stomped", "6557": " sniffs", "6558": " shoulders", "6559": " seeker", "6560": " reason", "6561": " paths", "6562": " paddle", "6563": " mission", "6564": " losing", "6565": " leaning", "6566": " however", "6567": " guns", "6568": " fuzzy", "6569": " forgets", "6570": " earn", "6571": " desp", "6572": " creating", "6573": " confl", "6574": " badge", "6575": " avocados", "6576": " Two", "6577": " Missy", "6578": " Man", "6579": " Get", "6580": " Blink", "6581": "ody", "6582": "jamas", "6583": "itely", "6584": "blings", "6585": "aren", "6586": "Yeah", "6587": "Ruby", "6588": "Pe", "6589": "Lilly", "6590": "Beep", "6591": "An", "6592": " ventured", "6593": " uns", "6594": " unp", "6595": " twisting", "6596": " twinkle", "6597": " timer", "6598": " tangled", "6599": " swans", "6600": " sponge", "6601": " siblings", "6602": " seagull", "6603": " rotting", "6604": " rockets", "6605": " rainy", "6606": " quacked", "6607": " puppet", "6608": " players", "6609": " pajamas", "6610": " objects", "6611": " least", "6612": " joking", "6613": " interested", "6614": " forehead", "6615": " dollhouse", "6616": " dod", "6617": " click", "6618": " baths", "6619": " basement", "6620": " age", "6621": " accomplish", "6622": " Try", "6623": " Snowman", "6624": " Ray", "6625": " Kids", "6626": " Brownie", "6627": " Betsy", "6628": "ledge", "6629": "adly", "6630": "Tweet", "6631": "May", "6632": "Joey", "6633": "Jerry", "6634": "Follow", "6635": "Big", "6636": " \u00e2\u0080\u0098", "6637": " workers", "6638": " untie", "6639": " thud", "6640": " symbols", "6641": " scra", "6642": " restored", "6643": " refreshed", "6644": " provided", "6645": " noses", "6646": " month", "6647": " knowledge", "6648": " healed", "6649": " hitting", "6650": " gears", "6651": " filling", "6652": " dances", "6653": " det", "6654": " crumbs", "6655": " covers", "6656": " control", "6657": " conflict", "6658": " chuck", "6659": " chips", "6660": " bakery", "6661": " Lion", "6662": " Izzy", "6663": " \n ", "6664": "uing", "6665": "tle", "6666": "stick", "6667": "onny", "6668": "fit", "6669": "eese", "6670": "Sunny", "6671": "Rose", "6672": "Milly", "6673": "Danny", "6674": " vowed", "6675": " tickled", "6676": " thorn", "6677": " snowmen", "6678": " seven", "6679": " scored", "6680": " sense", "6681": " reads", "6682": " rotten", "6683": " pumpkins", "6684": " peeking", "6685": " outfit", "6686": " leading", "6687": " kings", "6688": " improved", "6689": " gri", "6690": " geese", "6691": " flames", "6692": " freed", "6693": " dolphins", "6694": " darkness", "6695": " cheering", "6696": " buying", "6697": " bumpy", "6698": " airplane", "6699": " ast", "6700": " Whistle", "6701": " Tweety", "6702": " Princess", "6703": " Nut", "6704": " Moo", "6705": " Bloom", "6706": "rrr", "6707": "itched", "6708": "ilo", "6709": "cuse", "6710": "ctar", "6711": "ades", "6712": "Whee", "6713": "Oops", "6714": "Great", "6715": "Co", "6716": " travell", "6717": " somebody", "6718": " sewed", "6719": " scales", "6720": " roses", "6721": " preparing", "6722": " planning", "6723": " notes", "6724": " nectar", "6725": " including", "6726": " honked", "6727": " hesitated", "6728": " guessing", "6729": " creativity", "6730": " confident", "6731": " comm", "6732": " colored", "6733": " chefs", "6734": " cheeks", "6735": " bravery", "6736": " blown", "6737": " behavi", "6738": " afterwards", "6739": " Sun", "6740": " Rudy", "6741": " Luke", "6742": " Kay", "6743": " Chewy", "6744": "vin", "6745": "ky", "6746": "ibbit", "6747": "ecked", "6748": "eed", "6749": "ean", "6750": "ctions", "6751": "aura", "6752": "arth", "6753": "Sandy", "6754": "Get", "6755": "Excuse", "6756": " usually", "6757": " unpacked", "6758": " twenty", "6759": " talks", "6760": " stung", "6761": " scarves", "6762": " sway", "6763": " rewarded", "6764": " recommended", "6765": " raindrops", "6766": " risk", "6767": " princesses", "6768": " nine", "6769": " grocer", "6770": " dots", "6771": " direction", "6772": " decorating", "6773": " cushions", "6774": " choo", "6775": " center", "6776": " behaving", "6777": " beginning", "6778": " beads", "6779": " Rufus", "6780": " Rolly", "6781": " Rain", "6782": " Nutty", "6783": " Nina", "6784": " Katie", "6785": " Jump", "6786": " Holly", "6787": " Duck", "6788": " Barky", "6789": "zie", "6790": "ingo", "6791": "cl", "6792": "bric", "6793": "ampoline", "6794": "Those", "6795": "Sophie", "6796": "Sn", "6797": "Quack", "6798": " twinkling", "6799": " tunnels", "6800": " trampoline", "6801": " tum", "6802": " squealed", "6803": " screws", "6804": " performed", "6805": " pecked", "6806": " lifts", "6807": " itchy", "6808": " fact", "6809": " fabric", "6810": " doctors", "6811": " dived", "6812": " damage", "6813": " customer", "6814": " cous", "6815": " blooming", "6816": " Yesterday", "6817": " Wooly", "6818": " Wise", "6819": " Sof", "6820": " Mouse", "6821": " Enjoy", "6822": " Yes", "6823": "ophia", "6824": "jo", "6825": "ives", "6826": "isies", "6827": "immer", "6828": "fall", "6829": "ces", "6830": "Penny", "6831": "Kiki", "6832": "Am", "6833": " wobbly", "6834": " wow", "6835": " slower", "6836": " shown", "6837": " scur", "6838": " satisfied", "6839": " remembering", "6840": " recipe", "6841": " rust", "6842": " pupils", "6843": " marked", "6844": " gle", "6845": " flavor", "6846": " fins", "6847": " faced", "6848": " dent", "6849": " den", "6850": " competition", "6851": " clues", "6852": " activ", "6853": " Those", "6854": " Sc", "6855": " Rich", "6856": " Matt", "6857": " Gina", "6858": " El", "6859": "ushing", "6860": "ept", "6861": "die", "6862": "cused", "6863": "aterial", "6864": "Lulu", "6865": "Luckily", "6866": " watering", "6867": " untied", "6868": " tying", "6869": " swords", "6870": " shaped", "6871": " seconds", "6872": " rusty", "6873": " partic", "6874": " nightmares", "6875": " muscle", "6876": " material", "6877": " lifting", "6878": " lessons", "6879": " leap", "6880": " hider", "6881": " grows", "6882": " focused", "6883": " directions", "6884": " daisies", "6885": " curiously", "6886": " cott", "6887": " blinking", "6888": " achieved", "6889": " Trust", "6890": " Stay", "6891": " Other", "6892": " Mon", "6893": " Mira", "6894": " Julie", "6895": " Jessie", "6896": " Earth", "6897": " Blinky", "6898": "wk", "6899": "vroom", "6900": "ults", "6901": "river", "6902": "reg", "6903": "ouch", "6904": "omb", "6905": "oey", "6906": "irl", "6907": "ido", "6908": "cited", "6909": "aron", "6910": "agic", "6911": "Maggie", "6912": "Listen", "6913": "Clara", "6914": " wipes", "6915": " wiggly", "6916": " ties", "6917": " swept", "6918": " spins", "6919": " sobbed", "6920": " snowflakes", "6921": " scurried", "6922": " recording", "6923": " queens", "6924": " printing", "6925": " presses", "6926": " praying", "6927": " passen", "6928": " particular", "6929": " pancakes", "6930": " insects", "6931": " greet", "6932": " firefly", "6933": " cubs", "6934": " chuckled", "6935": " celebration", "6936": " blocking", "6937": " backwards", "6938": " avo", "6939": " arrows", "6940": " annoy", "6941": " adult", "6942": " activities", "6943": " ache", "6944": " Rollie", "6945": " Kit", "6946": " Joy", "6947": " Fuzzy", "6948": " Andrew", "6949": "usted", "6950": "ulp", "6951": "step", "6952": "rain", "6953": "omp", "6954": "iti", "6955": "iar", "6956": "erate", "6957": "ences", "6958": "bird", "6959": "aturday", "6960": "athan", "6961": "ans", "6962": "Moo", "6963": "Like", "6964": "Baby", "6965": " wobble", "6966": " wiping", "6967": " warnings", "6968": " unsure", "6969": " snat", "6970": " shrinking", "6971": " shovels", "6972": " shops", "6973": " reversed", "6974": " quarreled", "6975": " properly", "6976": " pleasure", "6977": " plans", "6978": " pancake", "6979": " opp", "6980": " necklaces", "6981": " labels", "6982": " instruments", "6983": " increased", "6984": " glued", "6985": " fires", "6986": " fever", "6987": " drivers", "6988": " coop", "6989": " bumps", "6990": " bodies", "6991": " beaver", "6992": " aff", "6993": " Zero", "6994": " Nothing", "6995": " Jessica", "6996": " Goodbye", "6997": " Dodo", "6998": " Bones", "6999": " Birthday", "7000": "yrup", "7001": "vy", "7002": "roat", "7003": "ptop", "7004": "orman", "7005": "ossible", "7006": "lets", "7007": "itcase", "7008": "ibi", "7009": "hi", "7010": "ering", "7011": "driver", "7012": "cho", "7013": "but", "7014": "Teddy", "7015": "Pat", "7016": "Jazz", "7017": "Betty", "7018": " windy", "7019": " waterfall", "7020": " tricycle", "7021": " tipto", "7022": " tighter", "7023": " throat", "7024": " swimmer", "7025": " suitcase", "7026": " students", "7027": " starfish", "7028": " stands", "7029": " spreading", "7030": " sprang", "7031": " syrup", "7032": " rising", "7033": " pose", "7034": " piggy", "7035": " performan", "7036": " paying", "7037": " nests", "7038": " laptop", "7039": " impossible", "7040": " hearing", "7041": " heav", "7042": " haircuts", "7043": " groceries", "7044": " explo", "7045": " encourag", "7046": " echo", "7047": " designed", "7048": " cuddly", "7049": " cubes", "7050": " completely", "7051": " clowns", "7052": " choices", "7053": " calmed", "7054": " bomb", "7055": " Toot", "7056": " Sleep", "7057": " Sl", "7058": " Saturday", "7059": " Peanut", "7060": " Play", "7061": " Cara", "7062": "\u00e2\u0080\u0094", "7063": "sequ", "7064": "ronaut", "7065": "ps", "7066": "onnie", "7067": "oll", "7068": "iding", "7069": "ently", "7070": "eds", "7071": "coon", "7072": "Vroom", "7073": "Under", "7074": "Ribbit", "7075": "Henry", "7076": "Bill", "7077": "Bear", "7078": " zebras", "7079": " yelp", "7080": " wrapping", "7081": " tricky", "7082": " tractor", "7083": " touches", "7084": " supported", "7085": " shoo", "7086": " sending", "7087": " screwdriver", "7088": " rods", "7089": " races", "7090": " rushing", "7091": " meals", "7092": " mailed", "7093": " hawk", "7094": " gardener", "7095": " forgetting", "7096": " flipped", "7097": " flas", "7098": " feast", "7099": " exha", "7100": " ends", "7101": " determination", "7102": " dancers", "7103": " consequ", "7104": " char", "7105": " cautiously", "7106": " burrow", "7107": " astronaut", "7108": " Up", "7109": " Re", "7110": " Patch", "7111": " Only", "7112": " Lizzie", "7113": " Laura", "7114": " Jilly", "7115": " Hold", "7116": " Cow", "7117": " Adam", "7118": "prin", "7119": "obody", "7120": "no", "7121": "len", "7122": "innie", "7123": "iece", "7124": "hopper", "7125": "da", "7126": "awn", "7127": "armer", "7128": "anes", "7129": "airy", "7130": "Millie", "7131": "Josh", "7132": "Always", "7133": " worries", "7134": " weapons", "7135": " thoughts", "7136": " tapped", "7137": " sweets", "7138": " stroked", "7139": " signed", "7140": " sailors", "7141": " pedaled", "7142": " paddled", "7143": " nibb", "7144": " matters", "7145": " loops", "7146": " indeed", "7147": " hiss", "7148": " grabbing", "7149": " glee", "7150": " counts", "7151": " consequences", "7152": " chop", "7153": " accomplishment", "7154": " Nick", "7155": " Fido", "7156": " Ex", "7157": " Dina", "7158": " Claire", "7159": " Amber", "7160": "ude", "7161": "rat", "7162": "paired", "7163": "ition", "7164": "iona", "7165": "illed", "7166": "igers", "7167": "fire", "7168": "affle", "7169": "ae", "7170": "Quick", "7171": "Bow", "7172": "'.\"", "7173": "',", "7174": " worrying", "7175": " unw", "7176": " tossed", "7177": " todd", "7178": " surprising", "7179": " spikes", "7180": " snatched", "7181": " singer", "7182": " rivers", "7183": " repaired", "7184": " ranger", "7185": " passengers", "7186": " minded", "7187": " markers", "7188": " mer", "7189": " hotter", "7190": " guide", "7191": " groups", "7192": " forgiven", "7193": " exhausted", "7194": " duckling", "7195": " discovering", "7196": " deal", "7197": " daring", "7198": " cousin", "7199": " conn", "7200": " Wo", "7201": " Stella", "7202": " Robert", "7203": " Jacob", "7204": " Els", "7205": " Cudd", "7206": " Car", "7207": " Bop", "7208": " Anne", "7209": " Ang", "7210": "yond", "7211": "yd", "7212": "uggles", "7213": "ters", "7214": "ongrat", "7215": "oga", "7216": "ments", "7217": "iversity", "7218": "itted", "7219": "itches", "7220": "issue", "7221": "ilda", "7222": "ilver", "7223": "ellie", "7224": "child", "7225": "brush", "7226": "andas", "7227": "Wake", "7228": " zipping", "7229": " wrigg", "7230": " widened", "7231": " trembled", "7232": " thrown", "7233": " terrified", "7234": " ty", "7235": " tissue", "7236": " tipped", "7237": " stopping", "7238": " squaw", "7239": " spits", "7240": " softer", "7241": " slips", "7242": " ropes", "7243": " respond", "7244": " relaxing", "7245": " puzzled", "7246": " puppies", "7247": " performance", "7248": " magnif", "7249": " laying", "7250": " jobs", "7251": " imagining", "7252": " guests", "7253": " grandchild", "7254": " frowning", "7255": " freedom", "7256": " forgiving", "7257": " corners", "7258": " conc", "7259": " colder", "7260": " budge", "7261": " borrowed", "7262": " bits", "7263": " beyond", "7264": " beam", "7265": " Take", "7266": " Pine", "7267": " Jay", "7268": " Copper", "7269": " Chip", "7270": " Bibi", "7271": " Abi", "7272": "vers", "7273": "using", "7274": "udience", "7275": "ubu", "7276": "uppy", "7277": "romise", "7278": "rink", "7279": "pen", "7280": "parent", "7281": "ongratul", "7282": "itude", "7283": "inger", "7284": "immering", "7285": "five", "7286": "father", "7287": "ertie", "7288": "cover", "7289": "abel", "7290": "Jan", "7291": "However", "7292": "Dear", "7293": " wisely", "7294": " wept", "7295": " warmer", "7296": " vanilla", "7297": " twists", "7298": " treehouse", "7299": " talented", "7300": " surfboard", "7301": " suffered", "7302": " stem", "7303": " squish", "7304": " sprinkled", "7305": " sparks", "7306": " spies", "7307": " sharks", "7308": " sewing", "7309": " robots", "7310": " respected", "7311": " regretted", "7312": " rains", "7313": " rather", "7314": " plain", "7315": " pills", "7316": " pandas", "7317": " nood", "7318": " mints", "7319": " humans", "7320": " genie", "7321": " fluttered", "7322": " flapping", "7323": " fif", "7324": " enthusiasm", "7325": " encouraging", "7326": " dripping", "7327": " coloured", "7328": " campfire", "7329": " coup", "7330": " bracelets", "7331": " audience", "7332": " Zee", "7333": " Without", "7334": " Titi", "7335": " Snuggles", "7336": " Patty", "7337": " Nathan", "7338": " Julia", "7339": " Henny", "7340": " Hannah", "7341": " Gray", "7342": " Farmer", "7343": " Crab", "7344": "zoom", "7345": "yes", "7346": "ya", "7347": "urious", "7348": "tha", "7349": "the", "7350": "stalk", "7351": "ribb", "7352": "prints", "7353": "osen", "7354": "mine", "7355": "iles", "7356": "erg", "7357": "ellow", "7358": "eal", "7359": "band", "7360": "arac", "7361": "ading", "7362": "Zoomy", "7363": "Tony", "7364": "Lola", "7365": "Buzzy", "7366": " wrink", "7367": " wider", "7368": " toddler", "7369": " tiptoed", "7370": " tigers", "7371": " suffering", "7372": " strips", "7373": " stored", "7374": " stolen", "7375": " squishy", "7376": " spills", "7377": " source", "7378": " single", "7379": " shady", "7380": " separated", "7381": " reapp", "7382": " pouted", "7383": " pops", "7384": " peck", "7385": " lipstick", "7386": " kites", "7387": " intr", "7388": " hopeful", "7389": " hallway", "7390": " grasshopper", "7391": " grandparent", "7392": " firmly", "7393": " firefighter", "7394": " figures", "7395": " drifted", "7396": " drawers", "7397": " couple", "7398": " cheers", "7399": " chosen", "7400": " charac", "7401": " cor", "7402": " beanstalk", "7403": " Silver", "7404": " Milo", "7405": " Match", "7406": " Linda", "7407": " Isn", "7408": " Doctor", "7409": " Ash", "7410": "worm", "7411": "verse", "7412": "tw", "7413": "reverse", "7414": "opes", "7415": "oss", "7416": "igning", "7417": "iel", "7418": "hive", "7419": "aint", "7420": "ails", "7421": "Thomas", "7422": "Spike", "7423": "Olive", "7424": "Mrs", "7425": "Jump", "7426": "Frank", "7427": "Boys", "7428": " wee", "7429": " und", "7430": " throughout", "7431": " tearing", "7432": " scribb", "7433": " purrs", "7434": " purr", "7435": " nur", "7436": " messes", "7437": " leads", "7438": " lower", "7439": " kittens", "7440": " jackets", "7441": " greeted", "7442": " gracefully", "7443": " gross", "7444": " films", "7445": " ev", "7446": " drawn", "7447": " deserve", "7448": " def", "7449": " creations", "7450": " checks", "7451": " breathed", "7452": " beehive", "7453": " antic", "7454": " among", "7455": " aimed", "7456": " Zoey", "7457": " Waffle", "7458": " Tweetie", "7459": " Sparky", "7460": " Sadly", "7461": " Pr", "7462": " Nobody", "7463": " Mic", "7464": " Mad", "7465": " Kelly", "7466": " Karen", "7467": " Gertie", "7468": " Gerry", "7469": " Elle", "7470": " Angel", "7471": " Amelia", "7472": "urtles", "7473": "rap", "7474": "ppies", "7475": "oosh", "7476": "inch", "7477": "ientist", "7478": "ivery", "7479": "hog", "7480": "athy", "7481": "arget", "7482": "Take", "7483": "Slow", "7484": "Maria", "7485": "Mat", "7486": "Hurry", "7487": "Ellie", "7488": "Dolly", "7489": "Back", "7490": " within", "7491": " twinkled", "7492": " turtles", "7493": " target", "7494": " swap", "7495": " squeak", "7496": " speeding", "7497": " slices", "7498": " scolds", "7499": " scattering", "7500": " scientist", "7501": " reass", "7502": " raising", "7503": " rumble", "7504": " rowed", "7505": " poster", "7506": " peep", "7507": " puff", "7508": " otters", "7509": " nervously", "7510": " lies", "7511": " lending", "7512": " languages", "7513": " knives", "7514": " humming", "7515": " hedgehog", "7516": " heavier", "7517": " hoo", "7518": " grandfather", "7519": " dip", "7520": " crossing", "7521": " creams", "7522": " crashing", "7523": " cracks", "7524": " countryside", "7525": " corre", "7526": " burnt", "7527": " blocked", "7528": " believing", "7529": " awoke", "7530": " Suzie", "7531": " Robo", "7532": " Nice", "7533": " Fire", "7534": " Fairy", "7535": " Cuddles", "7536": " Christ", "7537": " Chirp", "7538": " Bingo", "7539": " Along", "7540": "vant", "7541": "retty", "7542": "rough", "7543": "ousy", "7544": "onna", "7545": "izon", "7546": "isions", "7547": "ipes", "7548": "ipation", "7549": "imon", "7550": "icha", "7551": "ichael", "7552": "ening", "7553": "cept", "7554": "attered", "7555": "acky", "7556": "Pippin", "7557": "Outside", "7558": "David", "7559": "Bang", "7560": "Aunt", "7561": "Ab", "7562": "?!\"", "7563": " wakes", "7564": " tweet", "7565": " tops", "7566": " swallow", "7567": " student", "7568": " strongest", "7569": " storekeeper", "7570": " stitches", "7571": " stain", "7572": " sports", "7573": " smelling", "7574": " silent", "7575": " seasons", "7576": " scraped", "7577": " san", "7578": " sou", "7579": " rescuing", "7580": " repeating", "7581": " purpose", "7582": " pinching", "7583": " noodles", "7584": " neare", "7585": " minding", "7586": " materials", "7587": " magnets", "7588": " magician", "7589": " licking", "7590": " hunters", "7591": " horizon", "7592": " health", "7593": " hates", "7594": " grip", "7595": " gonna", "7596": " final", "7597": " faded", "7598": " envelopes", "7599": " decisions", "7600": " combed", "7601": " cloudy", "7602": " bravest", "7603": " beloved", "7604": " bathing", "7605": " anticipation", "7606": " amount", "7607": " Terry", "7608": " Sofia", "7609": " Maya", "7610": " Mousy", "7611": " Mel", "7612": " Listen", "7613": " Cloud", "7614": " Chomp", "7615": " Bubu", "7616": " Ana", "7617": "umbling", "7618": "ollen", "7619": "match", "7620": "ighting", "7621": "endy", "7622": "elie", "7623": "angles", "7624": "abby", "7625": "Red", "7626": "Hop", "7627": "Friends", "7628": "Even", "7629": "Coco", "7630": "Alex", "7631": " worn", "7632": " willing", "7633": " whispers", "7634": " whimp", "7635": " warri", "7636": " trusting", "7637": " temper", "7638": " teams", "7639": " taped", "7640": " swollen", "7641": " suits", "7642": " stroke", "7643": " slipping", "7644": " slither", "7645": " secure", "7646": " scooters", "7647": " sank", "7648": " rats", "7649": " questioned", "7650": " prayers", "7651": " poses", "7652": " napped", "7653": " munch", "7654": " joining", "7655": " inches", "7656": " hour", "7657": " grassy", "7658": " focus", "7659": " flaps", "7660": " fills", "7661": " files", "7662": " familiar", "7663": " experien", "7664": " express", "7665": " everybody", "7666": " evil", "7667": " dodged", "7668": " delivery", "7669": " cowb", "7670": " cleaner", "7671": " changes", "7672": " cert", "7673": " bride", "7674": " backed", "7675": " avoid", "7676": " aside", "7677": " adds", "7678": " ais", "7679": " Judge", "7680": " Gary", "7681": " Brain", "7682": " 2", "7683": "yan", "7684": "unched", "7685": "lied", "7686": "irty", "7687": "igued", "7688": "een", "7689": "dding", "7690": "crow", "7691": "beep", "7692": "artled", "7693": "Near", "7694": "Leave", "7695": "Kate", "7696": "Binky", "7697": "Alright", "7698": " zigzags", "7699": " yelped", "7700": " wounds", "7701": " whoever", "7702": " sweetest", "7703": " supplied", "7704": " stroll", "7705": " streets", "7706": " squeezing", "7707": " squeezes", "7708": " soda", "7709": " smashed", "7710": " simply", "7711": " seals", "7712": " scarecrow", "7713": " roars", "7714": " raccoon", "7715": " punishment", "7716": " playhouse", "7717": " panicked", "7718": " puck", "7719": " obeyed", "7720": " neatly", "7721": " nuzz", "7722": " mommies", "7723": " moo", "7724": " mate", "7725": " frowns", "7726": " footprints", "7727": " flip", "7728": " flight", "7729": " explains", "7730": " experienced", "7731": " coloring", "7732": " cond", "7733": " chocolates", "7734": " chip", "7735": " Well", "7736": " University", "7737": " Truck", "7738": " Tre", "7739": " Sophia", "7740": " Ph", "7741": " Louise", "7742": " Judy", "7743": " Joanna", "7744": " Hops", "7745": " Eva", "7746": " Dot", "7747": " Cord", "7748": " Beef", "7749": "weed", "7750": "ulpture", "7751": "udged", "7752": "steps", "7753": "rench", "7754": "mas", "7755": "liver", "7756": "hel", "7757": "ears", "7758": "boards", "7759": "bell", "7760": "asty", "7761": "arlings", "7762": "aven", "7763": "Try", "7764": "Ted", "7765": "Snow", "7766": "Speedy", "7767": "Put", "7768": "Nice", "7769": "Momma", "7770": "Mother", "7771": "Mine", "7772": "Jul", "7773": "Instead", "7774": "Chloe", "7775": "Bubb", "7776": "Bessie", "7777": " tummies", "7778": " triangles", "7779": " thorns", "7780": " thirty", "7781": " storms", "7782": " stomp", "7783": " shorts", "7784": " sheets", "7785": " sets", "7786": " seller", "7787": " seaweed", "7788": " sevent", "7789": " sculpture", "7790": " rustling", "7791": " rows", "7792": " ripe", "7793": " prove", "7794": " politely", "7795": " poppies", "7796": " poop", "7797": " overcome", "7798": " merma", "7799": " loudest", "7800": " lent", "7801": " joins", "7802": " ignoring", "7803": " height", "7804": " handsome", "7805": " hus", "7806": " groan", "7807": " giggles", "7808": " footsteps", "7809": " flavors", "7810": " encount", "7811": " doorbell", "7812": " donkey", "7813": " disob", "7814": " die", "7815": " darlings", "7816": " crowns", "7817": " covering", "7818": " cosy", "7819": " congratul", "7820": " belts", "7821": " behavior", "7822": " beetles", "7823": " beeped", "7824": " born", "7825": " astronauts", "7826": " Zeb", "7827": " Puppy", "7828": " Puffy", "7829": " Oxy", "7830": " Okay", "7831": " Martha", "7832": " Janet", "7833": " Grumpy", "7834": " Glow", "7835": " Fe", "7836": " Elsa", "7837": " Day", "7838": " Cle", "7839": " Beaky", "7840": " Bumpy", "7841": " 5", "7842": "veral", "7843": "umbled", "7844": "uess", "7845": "pecting", "7846": "ooky", "7847": "llas", "7848": "ibil", "7849": "hew", "7850": "found", "7851": "eliable", "7852": "ected", "7853": "covered", "7854": "cc", "7855": "aye", "7856": "atitude", "7857": "anne", "7858": "Uncle", "7859": "Trust", "7860": "Mad", "7861": "Kim", "7862": "Guess", "7863": "Cindy", "7864": "Carl", "7865": "By", "7866": "Boun", "7867": "Bee", "7868": "Abby", "7869": " yielded", "7870": " warmly", "7871": " wadd", "7872": " umbrellas", "7873": " tidied", "7874": " tempt", "7875": " tuck", "7876": " sweaty", "7877": " stepping", "7878": " squir", "7879": " spooky", "7880": " sped", "7881": " ships", "7882": " shinier", "7883": " shall", "7884": " several", "7885": " sadder", "7886": " quieter", "7887": " pours", "7888": " plug", "7889": " plucked", "7890": " occ", "7891": " nin", "7892": " moons", "7893": " master", "7894": " luckily", "7895": " laces", "7896": " husband", "7897": " heading", "7898": " gratitude", "7899": " gobb", "7900": " enjoyable", "7901": " encouragement", "7902": " elf", "7903": " dollars", "7904": " disturbing", "7905": " dears", "7906": " crystals", "7907": " creamy", "7908": " congratulated", "7909": " charge", "7910": " bandages", "7911": " backs", "7912": " attack", "7913": " angels", "7914": " aim", "7915": " Ugly", "7916": " Tippy", "7917": " Share", "7918": " Sean", "7919": " Puff", "7920": " Near", "7921": " Mikey", "7922": " Minnie", "7923": " Ma", "7924": " Luc", "7925": " Jean", "7926": " Jackie", "7927": " Greeny", "7928": " Greg", "7929": " Fighting", "7930": " Cozy", "7931": " Christmas", "7932": " Allie", "7933": " 10", "7934": "thest", "7935": "pples", "7936": "ortun", "7937": "ordinary", "7938": "order", "7939": "kend", "7940": "ita", "7941": "fly", "7942": "ecc", "7943": "ecca", "7944": "evin", "7945": "daughter", "7946": "cope", "7947": "bbers", "7948": "arrow", "7949": "ancy", "7950": "ably", "7951": "aa", "7952": "Two", "7953": "Rock", "7954": "Ray", "7955": "Pippa", "7956": "Mira", "7957": "Keep", "7958": "Joh", "7959": "Finn", "7960": "Elly", "7961": "Car", "7962": "Brrr", "7963": "--", "7964": " wrinkled", "7965": " winners", "7966": " whistles", "7967": " weekend", "7968": " weeds", "7969": " waking", "7970": " unlo", "7971": " surroundings", "7972": " stacked", "7973": " squeaky", "7974": " soapy", "7975": " sneezes", "7976": " sirens", "7977": " shh", "7978": " sill", "7979": " robbers", "7980": " responded", "7981": " refreshing", "7982": " picnics", "7983": " permitted", "7984": " paintbrush", "7985": " opportun", "7986": " onward", "7987": " nodding", "7988": " nearly", "7989": " months", "7990": " meows", "7991": " melons", "7992": " loses", "7993": " jets", "7994": " invites", "7995": " healing", "7996": " handful", "7997": " grandparents", "7998": " glitt", "7999": " gazing", "8000": " friendships", "8001": " floats", "8002": " flown", "8003": " fits", "8004": " farthest", "8005": " extraordinary", "8006": " erase", "8007": " echoed", "8008": " driveway", "8009": " drown", "8010": " disc", "8011": " digs", "8012": " dentist", "8013": " decl", "8014": " cuddles", "8015": " crowded", "8016": " craft", "8017": " cleared", "8018": " brushing", "8019": " bru", "8020": " bothering", "8021": " bothered", "8022": " bicycles", "8023": " benches", "8024": " banged", "8025": " bless", "8026": " aren", "8027": " appreciation", "8028": " Yoga", "8029": " Vroom", "8030": " Poor", "8031": " Marie", "8032": " More", "8033": " Make", "8034": " Jacky", "8035": " Floppy", "8036": " Excited", "8037": " Eliz", "8038": " Cr", "8039": " Candy", "8040": " CD", "8041": " Boom", "8042": " Bonnie", "8043": " Another", "8044": " ill", "8045": "ydia", "8046": "yler", "8047": "shm", "8048": "shmallow", "8049": "sie", "8050": "rice", "8051": "oring", "8052": "onies", "8053": "over", "8054": "nor", "8055": "lls", "8056": "kids", "8057": "irac", "8058": "iley", "8059": "ilted", "8060": "igger", "8061": "icate", "8062": "ggy", "8063": "esp", "8064": "elieve", "8065": "eat", "8066": "allowed", "8067": "abella", "8068": "Zip", "8069": "Which", "8070": "Very", "8071": "Sw", "8072": "Splash", "8073": "Nina", "8074": "Maya", "8075": "Goodnight", "8076": "Freddy", "8077": "Finny", "8078": "Find", "8079": "Bug", "8080": " wriggled", "8081": " visits", "8082": " understands", "8083": " travelling", "8084": " travelled", "8085": " tested", "8086": " tasting", "8087": " sweaters", "8088": " sweep", "8089": " switched", "8090": " swallowed", "8091": " surrendered", "8092": " sniffing", "8093": " snaps", "8094": " shrunk", "8095": " shimmering", "8096": " serving", "8097": " scamp", "8098": " sax", "8099": " sale", "8100": " potion", "8101": " pleaded", "8102": " peeped", "8103": " occas", "8104": " nurses", "8105": " newfound", "8106": " mosquitoes", "8107": " mesmer", "8108": " mermaid", "8109": " magnifying", "8110": " longest", "8111": " locks", "8112": " intrigued", "8113": " insisting", "8114": " inchworm", "8115": " images", "8116": " hesitant", "8117": " heels", "8118": " guarding", "8119": " grandkids", "8120": " granddaughter", "8121": " fixer", "8122": " examining", "8123": " encountered", "8124": " efforts", "8125": " discussed", "8126": " despite", "8127": " delivering", "8128": " correctly", "8129": " cons", "8130": " cloths", "8131": " certain", "8132": " becomes", "8133": " baskets", "8134": " attem", "8135": " artist", "8136": " Yet", "8137": " Yellow", "8138": " Woolly", "8139": " Whee", "8140": " Thanks", "8141": " Taking", "8142": " Say", "8143": " Rainbow", "8144": " Printy", "8145": " Orange", "8146": " Momma", "8147": " Meg", "8148": " Lenny", "8149": " Kn", "8150": " Honey", "8151": " Cut", "8152": " Boat", "8153": " Bri", "8154": "\u00e2\u0080\u00a6", "8155": "venir", "8156": "sol", "8157": "rier", "8158": "retch", "8159": "pr", "8160": "ounced", "8161": "icorn", "8162": "iving", "8163": "form", "8164": "ettle", "8165": "espite", "8166": "eek", "8167": "eve", "8168": "chievous", "8169": "ayla", "8170": "aster", "8171": "amboo", "8172": "Su", "8173": "Rosie", "8174": "Play", "8175": "Pandy", "8176": "Mo", "8177": "Lucky", "8178": "Jamie", "8179": "Honey", "8180": "Fl", "8181": "Afterwards", "8182": " \u00e2\u0080\u0094", "8183": " whispering", "8184": " unicorn", "8185": " treated", "8186": " trot", "8187": " thanking", "8188": " tests", "8189": " tapping", "8190": " swimsuit", "8191": " swir", "8192": " suns", "8193": " suggestion", "8194": " stuffing", "8195": " stew", "8196": " statues", "8197": " spells", "8198": " spears", "8199": " souvenir", "8200": " sooner", "8201": " snowy", "8202": " shortcut", "8203": " shooed", "8204": " servant", "8205": " scampered", "8206": " scen", "8207": " sandy", "8208": " risks", "8209": " reminding", "8210": " rewards", "8211": " proper", "8212": " pressing", "8213": " presented", "8214": " performing", "8215": " pound", "8216": " ponies", "8217": " overw", "8218": " numbered", "8219": " mixture", "8220": " mischievous", "8221": " marking", "8222": " marshmallow", "8223": " manag", "8224": " lowered", "8225": " kneeling", "8226": " kinder", "8227": " haird", "8228": " grandson", "8229": " glittering", "8230": " globe", "8231": " forests", "8232": " force", "8233": " fleas", "8234": " flashing", "8235": " flashed", "8236": " fireflies", "8237": " fifty", "8238": " fant", "8239": " explorer", "8240": " except", "8241": " dropping", "8242": " delayed", "8243": " declared", "8244": " dump", "8245": " customers", "8246": " court", "8247": " cotton", "8248": " cops", "8249": " characters", "8250": " cares", "8251": " brakes", "8252": " bells", "8253": " bamboo", "8254": " arr", "8255": " annoyed", "8256": " admiration", "8257": " activity", "8258": " active", "8259": " Whoever", "8260": " Wendy", "8261": " Tomorrow", "8262": " Time", "8263": " Stan", "8264": " Since", "8265": " Simon", "8266": " Robbie", "8267": " Reliable", "8268": " Pinch", "8269": " Pep", "8270": " Olly", "8271": " Nana", "8272": " Mother", "8273": " Luckily", "8274": " Lia", "8275": " Laser", "8276": " Jojo", "8277": " Jenn", "8278": " Jonny", "8279": " Ivy", "8280": " Goose", "8281": " Flutter", "8282": " Flora", "8283": " Flick", "8284": " Faye", "8285": " Everybody", "8286": " Eat", "8287": " Does", "8288": " Davey", "8289": " Chris", "8290": " Coby", "8291": " Cathy", "8292": " Cally", "8293": "wise", "8294": "vor", "8295": "under", "8296": "two", "8297": "resser", "8298": "rac", "8299": "quid", "8300": "otte", "8301": "otch", "8302": "orking", "8303": "mates", "8304": "isible", "8305": "initely", "8306": "helmed", "8307": "gain", "8308": "freeze", "8309": "ets", "8310": "emo", "8311": "emma", "8312": "elling", "8313": "atty", "8314": "arlotte", "8315": "alph", "8316": "Too", "8317": "Tara", "8318": "Rachel", "8319": "People", "8320": "Pinky", "8321": "Noah", "8322": "Nick", "8323": "Lena", "8324": "Katie", "8325": "Hmm", "8326": "Gogo", "8327": "Bo", "8328": "Ball", "8329": "Abbie", "8330": "!\u00e2\u0080\u009d.", "8331": " zooms", "8332": " yumm", "8333": " welcoming", "8334": " weighs", "8335": " wasting", "8336": " surfing", "8337": " streamers", "8338": " squinted", "8339": " spoonful", "8340": " spilling", "8341": " sleeps", "8342": " sixty", "8343": " seventy", "8344": " saxophone", "8345": " resisted", "8346": " rely", "8347": " rumbling", "8348": " peacefully", "8349": " pays", "8350": " oysters", "8351": " overwhelmed", "8352": " orders", "8353": " offering", "8354": " odd", "8355": " ninety", "8356": " movements", "8357": " moat", "8358": " miller", "8359": " matey", "8360": " marker", "8361": " liquid", "8362": " invisible", "8363": " hairdresser", "8364": " funn", "8365": " forty", "8366": " flips", "8367": " fantastic", "8368": " faith", "8369": " eighty", "8370": " earned", "8371": " ease", "8372": " dock", "8373": " detect", "8374": " destroying", "8375": " designing", "8376": " defe", "8377": " dangers", "8378": " consid", "8379": " comforting", "8380": " comets", "8381": " coach", "8382": " clicked", "8383": " cheated", "8384": " chatting", "8385": " charity", "8386": " chilly", "8387": " calmly", "8388": " blushed", "8389": " bitten", "8390": " army", "8391": " although", "8392": " aisle", "8393": " adults", "8394": " Wait", "8395": " Toys", "8396": " Tess", "8397": " Steven", "8398": " Sami", "8399": " Ready", "8400": " Ryan", "8401": " Never", "8402": " March", "8403": " Mine", "8404": " Magic", "8405": " Johnson", "8406": " Jody", "8407": " Ind", "8408": " Ginger", "8409": " Friend", "8410": " Fly", "8411": " Fiona", "8412": " Dull", "8413": " Crabby", "8414": " Bang", "8415": " Amanda", "8416": "while", "8417": "upted", "8418": "ugging", "8419": "ugar", "8420": "shadow", "8421": "pril", "8422": "orter", "8423": "onse", "8424": "ntil", "8425": "mo", "8426": "lephant", "8427": "issant", "8428": "hole", "8429": "erpiece", "8430": "barrow", "8431": "asmine", "8432": "anta", "8433": "anwhile", "8434": "ambled", "8435": "alth", "8436": "ai", "8437": "Someone", "8438": "Mouse", "8439": "Magic", "8440": "Lou", "8441": "Kids", "8442": "Ju", "8443": "Je", "8444": "Claire", "8445": "Birdy", "8446": "Behind", "8447": "Beth", "8448": "Andrew", "8449": "!\u00e2\u0080\u0099", "8450": " wheelbarrow", "8451": " webs", "8452": " wealth", "8453": " waddled", "8454": " visitors", "8455": " vibr", "8456": " uniforms", "8457": " travels", "8458": " trading", "8459": " toward", "8460": " temperature", "8461": " tin", "8462": " tilted", "8463": " stamped", "8464": " squeaked", "8465": " snug", "8466": " sincere", "8467": " shorter", "8468": " self", "8469": " scratching", "8470": " scares", "8471": " sandcastles", "8472": " sails", "8473": " response", "8474": " results", "8475": " recorder", "8476": " prevented", "8477": " owns", "8478": " oldest", "8479": " nearest", "8480": " nations", "8481": " nasty", "8482": " mustn", "8483": " masterpiece", "8484": " mood", "8485": " mirac", "8486": " miles", "8487": " insp", "8488": " handing", "8489": " groaned", "8490": " gobbled", "8491": " gasp", "8492": " gardens", "8493": " forgiveness", "8494": " forgives", "8495": " floors", "8496": " exploded", "8497": " experiences", "8498": " edges", "8499": " drying", "8500": " displayed", "8501": " discou", "8502": " demanding", "8503": " definitely", "8504": " date", "8505": " croissant", "8506": " cowboy", "8507": " cottage", "8508": " connect", "8509": " convin", "8510": " common", "8511": " carries", "8512": " coug", "8513": " business", "8514": " breathing", "8515": " brains", "8516": " bowing", "8517": " blast", "8518": " blamed", "8519": " belongings", "8520": " behaviour", "8521": " bathed", "8522": " aware", "8523": " ass", "8524": " anger", "8525": " Wolf", "8526": " Willy", "8527": " Twisty", "8528": " Show", "8529": " Pick", "8530": " Ot", "8531": " Oliver", "8532": " Nemo", "8533": " Nelly", "8534": " Nappy", "8535": " Mint", "8536": " Loop", "8537": " Jason", "8538": " Helping", "8539": " Dusty", "8540": " Dee", "8541": " Bubba", "8542": " Ali", "8543": "water", "8544": "uel", "8545": "reya", "8546": "rons", "8547": "ossy", "8548": "ornado", "8549": "meow", "8550": "ju", "8551": "izzes", "8552": "issa", "8553": "intment", "8554": "imbo", "8555": "ighing", "8556": "iens", "8557": "eyed", "8558": "ergic", "8559": "erts", "8560": "edic", "8561": "bu", "8562": "bage", "8563": "acy", "8564": "Zara", "8565": "Open", "8566": "Nothing", "8567": "NG", "8568": "Lizzie", "8569": "Liz", "8570": "Hannah", "8571": "Fifi", "8572": "Each", "8573": "Dr", "8574": "Both", "8575": "Arrr", "8576": "Adam", "8577": " yummiest", "8578": " yawning", "8579": " windowsill", "8580": " whales", "8581": " warrior", "8582": " tubes", "8583": " traveling", "8584": " tips", "8585": " tidying", "8586": " swirl", "8587": " supporting", "8588": " styles", "8589": " sternly", "8590": " spice", "8591": " solving", "8592": " snuck", "8593": " snapping", "8594": " smartest", "8595": " skunk", "8596": " shrugs", "8597": " scrambled", "8598": " scowl", "8599": " reminds", "8600": " posit", "8601": " peeled", "8602": " passports", "8603": " paddling", "8604": " nuzzled", "8605": " minds", "8606": " mattresses", "8607": " manners", "8608": " merry", "8609": " loc", "8610": " joyful", "8611": " jars", "8612": " horri", "8613": " gest", "8614": " foam", "8615": " fights", "8616": " fans", "8617": " engines", "8618": " dresser", "8619": " doorway", "8620": " dollar", "8621": " discouraged", "8622": " desserts", "8623": " designs", "8624": " deed", "8625": " cutter", "8626": " cooperate", "8627": " clue", "8628": " choosing", "8629": " cheerfully", "8630": " cheat", "8631": " cafe", "8632": " coral", "8633": " burying", "8634": " burns", "8635": " buckles", "8636": " buckled", "8637": " breaths", "8638": " braver", "8639": " beast", "8640": " bully", "8641": " automobiles", "8642": " attempt", "8643": " aprons", "8644": " annoying", "8645": " allergic", "8646": " aliens", "8647": " affect", "8648": " address", "8649": " action", "8650": " accidents", "8651": " Winky", "8652": " Through", "8653": " Tammy", "8654": " Sparkle", "8655": " Smo", "8656": " Sugar", "8657": " Rad", "8658": " Kevin", "8659": " Janey", "8660": " Janie", "8661": " Jon", "8662": " Jelly", "8663": " Isabella", "8664": " Hugo", "8665": " Fork", "8666": " Chess", "8667": " Curious", "8668": " Cari", "8669": " Although", "8670": " Alarm", "8671": " ''", "8672": " icky", "8673": "vas", "8674": "uster", "8675": "urricane", "8676": "ullaby", "8677": "upt", "8678": "three", "8679": "seven", "8680": "scotch", "8681": "six", "8682": "raw", "8683": "po", "8684": "oned", "8685": "of", "8686": "nine", "8687": "mers", "8688": "its", "8689": "istory", "8690": "inny", "8691": "inct", "8692": "icking", "8693": "four", "8694": "enses", "8695": "emies", "8696": "eight", "8697": "cat", "8698": "aty", "8699": "asta", "8700": "anny", "8701": "abeth", "8702": "Karen", "8703": "Jeff", "8704": "Jessie", "8705": "Jacob", "8706": "Fire", "8707": "Deal", "8708": "Danger", "8709": "Being", "8710": ".'\"", "8711": " whoosh", "8712": " whines", "8713": " waters", "8714": " unpacking", "8715": " unfair", "8716": " topp", "8717": " tale", "8718": " swayed", "8719": " stretches", "8720": " steer", "8721": " stun", "8722": " squawked", "8723": " spoiling", "8724": " sometime", "8725": " soot", "8726": " skies", "8727": " situations", "8728": " shrank", "8729": " scurry", "8730": " sens", "8731": " runner", "8732": " prick", "8733": " plot", "8734": " pipes", "8735": " opportunity", "8736": " messed", "8737": " mesmerized", "8738": " meowing", "8739": " marve", "8740": " lunchtime", "8741": " loyalty", "8742": " leapt", "8743": " lullaby", "8744": " limp", "8745": " killed", "8746": " invitations", "8747": " hesitation", "8748": " handles", "8749": " guardian", "8750": " gesture", "8751": " goo", "8752": " finishing", "8753": " fries", "8754": " exercises", "8755": " enthusiastically", "8756": " enemies", "8757": " dreamt", "8758": " details", "8759": " decoration", "8760": " dev", "8761": " ding", "8762": " crickets", "8763": " crackers", "8764": " convinced", "8765": " condition", "8766": " conqu", "8767": " commun", "8768": " chill", "8769": " caps", "8770": " causing", "8771": " burger", "8772": " boil", "8773": " blush", "8774": " bends", "8775": " buddy", "8776": " answering", "8777": " aband", "8778": " Whistler", "8779": " Tia", "8780": " Startled", "8781": " Spotty", "8782": " Shark", "8783": " Santa", "8784": " Roy", "8785": " Rita", "8786": " Ratty", "8787": " Prince", "8788": " Playing", "8789": " Noah", "8790": " Nurse", "8791": " Manny", "8792": " Lo", "8793": " Law", "8794": " Kayla", "8795": " Flash", "8796": " Fishy", "8797": " Fast", "8798": " Coal", "8799": " Beaver", "8800": " Buster", "8801": " Bro", "8802": " Bell", "8803": " Animal", "8804": " Ami", "8805": " ouch", "8806": "years", "8807": "what", "8808": "val", "8809": "rib", "8810": "othy", "8811": "ots", "8812": "orse", "8813": "onnor", "8814": "nnie", "8815": "nis", "8816": "jest", "8817": "ivi", "8818": "ipper", "8819": "inter", "8820": "iment", "8821": "etal", "8822": "etah", "8823": "erk", "8824": "epeat", "8825": "entr", "8826": "eling", "8827": "cycles", "8828": "chief", "8829": "ative", "8830": "acock", "8831": "act", "8832": "Twinkle", "8833": "Tree", "8834": "Sadly", "8835": "Rufus", "8836": "Ph", "8837": "Only", "8838": "Meanwhile", "8839": "Jackie", "8840": "Im", "8841": "Grow", "8842": "Got", "8843": "Excited", "8844": "Does", "8845": "Caw", "8846": "Bubbles", "8847": "Abigail", "8848": ",'", "8849": "!'\"", "8850": " wobbling", "8851": " whir", "8852": " wrench", "8853": " upside", "8854": " unwra", "8855": " undone", "8856": " unfortunately", "8857": " type", "8858": " twirls", "8859": " tumbled", "8860": " toppings", "8861": " sweeter", "8862": " successfully", "8863": " spy", "8864": " sparrow", "8865": " soaking", "8866": " snort", "8867": " royal", "8868": " reversing", "8869": " repairing", "8870": " reappeared", "8871": " rout", "8872": " rays", "8873": " quacks", "8874": " quizzes", "8875": " prizes", "8876": " polar", "8877": " poss", "8878": " planting", "8879": " plugged", "8880": " peacock", "8881": " parrots", "8882": " parted", "8883": " moonlight", "8884": " meaning", "8885": " meadows", "8886": " mashed", "8887": " lolly", "8888": " lightly", "8889": " lever", "8890": " knocking", "8891": " inspired", "8892": " increasing", "8893": " hopscotch", "8894": " hooves", "8895": " honks", "8896": " hatch", "8897": " gasps", "8898": " foreshadow", "8899": " finishes", "8900": " farmers", "8901": " failed", "8902": " faint", "8903": " expert", "8904": " elbow", "8905": " drowned", "8906": " drift", "8907": " disappointment", "8908": " cupc", "8909": " countries", "8910": " copied", "8911": " concentr", "8912": " chews", "8913": " cheetah", "8914": " cheating", "8915": " centre", "8916": " camel", "8917": " beaks", "8918": " battle", "8919": " approach", "8920": " appreciated", "8921": " afford", "8922": " accomplished", "8923": " abandoned", "8924": " actor", "8925": " Trevor", "8926": " Tyler", "8927": " Smoke", "8928": " Seeing", "8929": " Super", "8930": " Ruth", "8931": " Rina", "8932": " Pig", "8933": " Pen", "8934": " Oh", "8935": " Maddie", "8936": " Lucas", "8937": " Lydia", "8938": " Lung", "8939": " Kip", "8940": " Ice", "8941": " Hurricane", "8942": " Gas", "8943": " Daniel", "8944": " Despite", "8945": " Climb", "8946": " Cate", "8947": " Aaron", "8948": "zip", "8949": "ument", "8950": "ulf", "8951": "uity", "8952": "uum", "8953": "stand", "8954": "rent", "8955": "rum", "8956": "ooks", "8957": "mbers", "8958": "ms", "8959": "lend", "8960": "lt", "8961": "itz", "8962": "isapp", "8963": "iky", "8964": "iggle", "8965": "icious", "8966": "ici", "8967": "ibly", "8968": "han", "8969": "hanie", "8970": "guess", "8971": "good", "8972": "ephanie", "8973": "ebecca", "8974": "cutter", "8975": "cky", "8976": "bee", "8977": "bank", "8978": "aping", "8979": "antrum", "8980": "ani", "8981": "anced", "8982": "ample", "8983": "agine", "8984": "Zigzag", "8985": "Shrink", "8986": "Show", "8987": "Sun", "8988": "Sophia", "8989": "Sit", "8990": "Since", "8991": "Sc", "8992": "Pretty", "8993": "Po", "8994": "Michael", "8995": "Johny", "8996": "Jenna", "8997": "Isn", "8998": "Frog", "8999": "Catch", "9000": "Bounce", "9001": "Br", "9002": " woodcutter", "9003": " winks", "9004": " wiggling", "9005": " weighing", "9006": " vacuum", "9007": " unable", "9008": " trotted", "9009": " traps", "9010": " trigger", "9011": " toolbox", "9012": " tongues", "9013": " tickles", "9014": " tempted", "9015": " talents", "9016": " tantrum", "9017": " surfed", "9018": " structures", "9019": " steering", "9020": " stains", "9021": " stall", "9022": " sprinkle", "9023": " sprays", "9024": " spiky", "9025": " sneaks", "9026": " smelt", "9027": " shave", "9028": " seashe", "9029": " scurrying", "9030": " scrub", "9031": " scoops", "9032": " riverbank", "9033": " reappear", "9034": " report", "9035": " rebu", "9036": " ratt", "9037": " providing", "9038": " probably", "9039": " pleas", "9040": " pilots", "9041": " pedaling", "9042": " passes", "9043": " offers", "9044": " occasion", "9045": " observing", "9046": " nights", "9047": " musicians", "9048": " munching", "9049": " messier", "9050": " messages", "9051": " members", "9052": " mats", "9053": " marshmallows", "9054": " mac", "9055": " leans", "9056": " leaking", "9057": " keyhole", "9058": " intently", "9059": " improving", "9060": " honesty", "9061": " honking", "9062": " hover", "9063": " hoses", "9064": " hissing", "9065": " headache", "9066": " heaven", "9067": " hangers", "9068": " halves", "9069": " glared", "9070": " ghosts", "9071": " garbage", "9072": " flashes", "9073": " facing", "9074": " foggy", "9075": " explode", "9076": " exch", "9077": " example", "9078": " disappearing", "9079": " dou", "9080": " dips", "9081": " dial", "9082": " dedic", "9083": " croaked", "9084": " connected", "9085": " concer", "9086": " computers", "9087": " collap", "9088": " clut", "9089": " clerk", "9090": " chatted", "9091": " builders", "9092": " bluebird", "9093": " baa", "9094": " auntie", "9095": " apology", "9096": " ages", "9097": " aeroplanes", "9098": " Zippy", "9099": " Zane", "9100": " Yawn", "9101": " Wonder", "9102": " Vivi", "9103": " Until", "9104": " Thunder", "9105": " Tornado", "9106": " Stretch", "9107": " Shelly", "9108": " Sit", "9109": " Silly", "9110": " Settle", "9111": " Se", "9112": " Rick", "9113": " Pinchy", "9114": " Pops", "9115": " Owly", "9116": " Op", "9117": " Monster", "9118": " Mop", "9119": " Mindy", "9120": " Li", "9121": " Jumpy", "9122": " Jet", "9123": " Hugs", "9124": " Graceful", "9125": " Girl", "9126": " Elizabeth", "9127": " Dilly", "9128": " Cats", "9129": " Brad", "9130": " Barry", "9131": " Bad", "9132": " Animals", "9133": " April", "9134": "wis", "9135": "vi", "9136": "this", "9137": "tock", "9138": "stered", "9139": "storm", "9140": "smelling", "9141": "sn", "9142": "she", "9143": "rie", "9144": "ruct", "9145": "rant", "9146": "osite", "9147": "orsie", "9148": "oni", "9149": "off", "9150": "net", "9151": "lo", "9152": "isc", "9153": "ingly", "9154": "idi", "9155": "icles", "9156": "helle", "9157": "hile", "9158": "esse", "9159": "endant", "9160": "ddie", "9161": "byes", "9162": "berry", "9163": "ats", "9164": "asers", "9165": "arla", "9166": "apple", "9167": "aptain", "9168": "andra", "9169": "adie", "9170": "ada", "9171": "Whenever", "9172": "Tilly", "9173": "Slowly", "9174": "Pip", "9175": "Never", "9176": "Ne", "9177": "Matt", "9178": "More", "9179": "Linda", "9180": "Julie", "9181": "Fiona", "9182": "Eat", "9183": "Doctor", "9184": "Daniel", "9185": "Del", "9186": "Child", "9187": "Bluey", "9188": "Anne", "9189": "Ant", "9190": "?\u00e2\u0080\u009d.", "9191": "'?\"", "9192": "\"!", "9193": " zips", "9194": " whimpered", "9195": " uncovered", "9196": " thump", "9197": " teaspoons", "9198": " tugging", "9199": " swirls", "9200": " squirted", "9201": " sprout", "9202": " spades", "9203": " slapping", "9204": " shines", "9205": " seriously", "9206": " seagulls", "9207": " salads", "9208": " robin", "9209": " rips", "9210": " ribbit", "9211": " returning", "9212": " repeats", "9213": " realizes", "9214": " reun", "9215": " rags", "9216": " possibil", "9217": " pokes", "9218": " playd", "9219": " piglet", "9220": " pepperoni", "9221": " painful", "9222": " packages", "9223": " outfits", "9224": " opposite", "9225": " opinions", "9226": " newspapers", "9227": " neighbours", "9228": " motorcycles", "9229": " miracle", "9230": " marveled", "9231": " mailing", "9232": " munched", "9233": " lizards", "9234": " jud", "9235": " jugg", "9236": " instinct", "9237": " inter", "9238": " hisses", "9239": " heights", "9240": " haven", "9241": " grain", "9242": " goodbyes", "9243": " glittered", "9244": " forts", "9245": " folds", "9246": " flock", "9247": " fishermen", "9248": " enemy", "9249": " dripped", "9250": " dressing", "9251": " dodging", "9252": " disagreeing", "9253": " deserves", "9254": " dice", "9255": " dep", "9256": " coughed", "9257": " costs", "9258": " conquered", "9259": " communicate", "9260": " closing", "9261": " classmates", "9262": " checkout", "9263": " cheaper", "9264": " capes", "9265": " canvas", "9266": " buys", "9267": " bumping", "9268": " brightest", "9269": " brightened", "9270": " braid", "9271": " bounces", "9272": " birdhouse", "9273": " bending", "9274": " bellies", "9275": " beaming", "9276": " barrels", "9277": " backpacks", "9278": " bas", "9279": " awhile", "9280": " awful", "9281": " artwork", "9282": " apologised", "9283": " alligators", "9284": " Whale", "9285": " Vicky", "9286": " Tuesdays", "9287": " Truckie", "9288": " Tooth", "9289": " Smokey", "9290": " Rude", "9291": " Quickly", "9292": " Price", "9293": " Pl", "9294": " Otto", "9295": " Open", "9296": " Mina", "9297": " Looking", "9298": " Land", "9299": " Joh", "9300": " Joanne", "9301": " Inky", "9302": " Helen", "9303": " Hurry", "9304": " Giant", "9305": " Gemma", "9306": " Flicker", "9307": " Flap", "9308": " Freya", "9309": " Elephant", "9310": " Dotty", "9311": " Dogs", "9312": " Club", "9313": " Chick", "9314": " Charlotte", "9315": " Cake", "9316": " Butter", "9317": " Black", "9318": " Bess", "9319": " Believe", "9320": " Any", "9321": "zzle", "9322": "vince", "9323": "ustache", "9324": "stantly", "9325": "snap", "9326": "sers", "9327": "racted", "9328": "rope", "9329": "rily", "9330": "ously", "9331": "osa", "9332": "ooly", "9333": "mill", "9334": "lenda", "9335": "lings", "9336": "line", "9337": "iter", "9338": "iscuit", "9339": "isbee", "9340": "ironment", "9341": "irley", "9342": "iri", "9343": "insed", "9344": "indness", "9345": "idey", "9346": "gra", "9347": "elope", "9348": "des", "9349": "creams", "9350": "cloth", "9351": "cie", "9352": "aterina", "9353": "artin", "9354": "Terry", "9355": "Still", "9356": "Should", "9357": "Sm", "9358": "Rabbit", "9359": "Owl", "9360": "Mon", "9361": "Mittens", "9362": "Milo", "9363": "Luke", "9364": "Imagine", "9365": "HE", "9366": "Gina", "9367": "Climb", "9368": "Choo", "9369": "Ahoy", "9370": " woken", "9371": " wiser", "9372": " winds", "9373": " whipped", "9374": " whined", "9375": " waded", "9376": " visitor", "9377": " valuing", "9378": " unwrap", "9379": " unfold", "9380": " underwater", "9381": " types", "9382": " trusts", "9383": " trans", "9384": " thicker", "9385": " testing", "9386": " teapot", "9387": " taps", "9388": " tanks", "9389": " tablecloth", "9390": " swapped", "9391": " surv", "9392": " striking", "9393": " stomping", "9394": " stares", "9395": " spices", "9396": " spaces", "9397": " snowflake", "9398": " shyly", "9399": " shares", "9400": " sensation", "9401": " seashells", "9402": " scent", "9403": " sailbo", "9404": " rotted", "9405": " rocky", "9406": " rewarding", "9407": " rinsed", "9408": " quacking", "9409": " purses", "9410": " property", "9411": " prickly", "9412": " prank", "9413": " pounding", "9414": " possibilities", "9415": " petting", "9416": " peels", "9417": " particularly", "9418": " nibbled", "9419": " necks", "9420": " mustered", "9421": " momma", "9422": " missiles", "9423": " massages", "9424": " maps", "9425": " magazines", "9426": " mower", "9427": " lowers", "9428": " local", "9429": " listener", "9430": " keen", "9431": " joyfully", "9432": " intelligence", "9433": " instantly", "9434": " invent", "9435": " imaginations", "9436": " helicopters", "9437": " grumbled", "9438": " groom", "9439": " furious", "9440": " freezing", "9441": " fluttering", "9442": " fascinating", "9443": " fail", "9444": " exams", "9445": " expecting", "9446": " escaping", "9447": " erasers", "9448": " environment", "9449": " emerged", "9450": " ducklings", "9451": " dryer", "9452": " drip", "9453": " doorstep", "9454": " diamonds", "9455": " deeply", "9456": " dedication", "9457": " dumb", "9458": " cupboards", "9459": " crocodiles", "9460": " crawls", "9461": " crops", "9462": " contained", "9463": " concert", "9464": " convince", "9465": " compete", "9466": " cleans", "9467": " chicks", "9468": " challenged", "9469": " cells", "9470": " caution", "9471": " caw", "9472": " cages", "9473": " bushy", "9474": " bud", "9475": " bond", "9476": " bold", "9477": " biscuit", "9478": " arranged", "9479": " argument", "9480": " arrest", "9481": " afar", "9482": " West", "9483": " Too", "9484": " Tears", "9485": " Sweet", "9486": " Steak", "9487": " Spinny", "9488": " Sink", "9489": " School", "9490": " Poison", "9491": " Phil", "9492": " Peggy", "9493": " Pump", "9494": " Mustache", "9495": " Michael", "9496": " Math", "9497": " Mara", "9498": " Mag", "9499": " Life", "9500": " Les", "9501": " Jasmine", "9502": " Im", "9503": " Horsie", "9504": " Grand", "9505": " Freddie", "9506": " Fruity", "9507": " Fle", "9508": " Dinah", "9509": " Din", "9510": " Cocoa", "9511": " Birds", "9512": " Auntie", "9513": " Annabel", "9514": " 12", "9515": " ic", "9516": "yla", "9517": "urrender", "9518": "unes", "9519": "umbly", "9520": "umm", "9521": "udre", "9522": "udrey", "9523": "ths", "9524": "sess", "9525": "ssess", "9526": "sorry", "9527": "rowave", "9528": "remy", "9529": "ror", "9530": "pop", "9531": "per", "9532": "pan", "9533": "ordan", "9534": "munk", "9535": "lescope", "9536": "leo", "9537": "isappear", "9538": "ircle", "9539": "iffy", "9540": "ifer", "9541": "idence", "9542": "iciest", "9543": "icers", "9544": "hings", "9545": "hy", "9546": "hadow", "9547": "guise", "9548": "getic", "9549": "gar", "9550": "flowers", "9551": "etch", "9552": "dmother", "9553": "ders", "9554": "ctric", "9555": "clock", "9556": "cessary", "9557": "cled", "9558": "boos", "9559": "bble", "9560": "azy", "9561": "atted", "9562": "atic", "9563": "arold", "9564": "arissa", "9565": "aning", "9566": "ami", "9567": "alter", "9568": "acles", "9569": "Zoe", "9570": "Three", "9571": "Suzy", "9572": "Steve", "9573": "Something", "9574": "Snap", "9575": "Robbie", "9576": "Ruth", "9577": "Ring", "9578": "Rain", "9579": "Mumma", "9580": "Marie", "9581": "Many", "9582": "Hope", "9583": "Gr", "9584": "Foxy", "9585": "Freeze", "9586": "Curious", "9587": "Blink", "9588": "Bun", "9589": "Baa", "9590": "Ami", "9591": "Any", "9592": " writer", "9593": " worst", "9594": " wolves", "9595": " windmill", "9596": " wildflowers", "9597": " washes", "9598": " vinegar", "9599": " vegg", "9600": " unwrapped", "9601": " unload", "9602": " unst", "9603": " trays", "9604": " transform", "9605": " timid", "9606": " tightrope", "9607": " tickling", "9608": " threads", "9609": " tempting", "9610": " telescope", "9611": " survive", "9612": " surely", "9613": " suggests", "9614": " stomachs", "9615": " stacks", "9616": " squished", "9617": " springing", "9618": " spare", "9619": " snuggle", "9620": " singers", "9621": " sends", "9622": " scowled", "9623": " sailboat", "9624": " sacks", "9625": " reassured", "9626": " realise", "9627": " rink", "9628": " rin", "9629": " process", "9630": " praise", "9631": " postc", "9632": " positive", "9633": " possess", "9634": " popping", "9635": " playdate", "9636": " pineapple", "9637": " peeks", "9638": " peacefulness", "9639": " palms", "9640": " owls", "9641": " overhead", "9642": " origami", "9643": " officers", "9644": " notices", "9645": " microwave", "9646": " meets", "9647": " majest", "9648": " mend", "9649": " luckiest", "9650": " licenses", "9651": " lump", "9652": " kangaroos", "9653": " jumper", "9654": " journeys", "9655": " interr", "9656": " hunger", "9657": " hummed", "9658": " host", "9659": " hatched", "9660": " harmony", "9661": " halfway", "9662": " habit", "9663": " hob", "9664": " guitars", "9665": " godmother", "9666": " generosity", "9667": " funniest", "9668": " frisbee", "9669": " fourth", "9670": " formed", "9671": " form", "9672": " fluff", "9673": " fetched", "9674": " facts", "9675": " fulf", "9676": " fade", "9677": " eyeshadow", "9678": " explaining", "9679": " emb", "9680": " eleven", "9681": " electric", "9682": " discussing", "9683": " disguise", "9684": " detective", "9685": " damaged", "9686": " creak", "9687": " critter", "9688": " concerned", "9689": " convers", "9690": " competing", "9691": " compared", "9692": " collapsed", "9693": " checking", "9694": " caves", "9695": " calmer", "9696": " cuc", "9697": " bulbs", "9698": " bubbling", "9699": " applauding", "9700": " announced", "9701": " access", "9702": " abil", "9703": " Yummy", "9704": " Wiggles", "9705": " White", "9706": " Use", "9707": " Tomato", "9708": " Stephanie", "9709": " Spicy", "9710": " Slinky", "9711": " Shirley", "9712": " Skeleton", "9713": " Sid", "9714": " Ricky", "9715": " Read", "9716": " Ralph", "9717": " Promise", "9718": " Pot", "9719": " Pasta", "9720": " Paint", "9721": " Otherwise", "9722": " Nature", "9723": " Moony", "9724": " Matilda", "9725": " Magnet", "9726": " Marian", "9727": " Lollie", "9728": " Libby", "9729": " Layla", "9730": " Kindness", "9731": " Jetty", "9732": " Jellie", "9733": " Hat", "9734": " Hal", "9735": " Gilly", "9736": " Gill", "9737": " Friendship", "9738": " France", "9739": " Flossy", "9740": " Funny", "9741": " Fun", "9742": " Fix", "9743": " Find", "9744": " Clarissa", "9745": " Cross", "9746": " Cici", "9747": " Cars", "9748": " Brush", "9749": " Bobble", "9750": " Boxy", "9751": " Bebe", "9752": " Bun", "9753": " Bert", "9754": "zzly", "9755": "yle", "9756": "welcome", "9757": "war", "9758": "venture", "9759": "utely", "9760": "ushroom", "9761": "uses", "9762": "teen", "9763": "ssy", "9764": "solutely", "9765": "ruction", "9766": "rizzle", "9767": "reement", "9768": "rob", "9769": "ris", "9770": "queak", "9771": "peed", "9772": "poke", "9773": "oured", "9774": "ouqu", "9775": "osaurus", "9776": "oscope", "9777": "oard", "9778": "ngest", "9779": "mered", "9780": "lled", "9781": "lderly", "9782": "lor", "9783": "lish", "9784": "keepers", "9785": "just", "9786": "izer", "9787": "iring", "9788": "ifully", "9789": "heel", "9790": "grandma", "9791": "faction", "9792": "everse", "9793": "ethoscope", "9794": "ergus", "9795": "erms", "9796": "ercy", "9797": "ential", "9798": "elle", "9799": "elve", "9800": "eze", "9801": "even", "9802": "dventure", "9803": "bert", "9804": "ashes", "9805": "aroni", "9806": "arted", "9807": "anky", "9808": "andle", "9809": "andel", "9810": "alia", "9811": "acing", "9812": "abelle", "9813": "Whist", "9814": "Want", "9815": "Velvet", "9816": "Toto", "9817": "Tell", "9818": "Share", "9819": "Squeaky", "9820": "Squ", "9821": "Say", "9822": "Playing", "9823": "Papa", "9824": "Maddy", "9825": "Mix", "9826": "Liza", "9827": "Lizzy", "9828": "King", "9829": "Janie", "9830": "Jonny", "9831": "Jessica", "9832": "Ice", "9833": "Greg", "9834": "Fox", "9835": "Fuzzy", "9836": "Everything", "9837": "Enjoy", "9838": "Davey", "9839": "Dino", "9840": "Dare", "9841": "Ash", "9842": "Amber", "9843": "Ava", "9844": "Ally", "9845": ":\"", "9846": " zookeepers", "9847": " youngest", "9848": " whiskers", "9849": " wig", "9850": " vests", "9851": " veggies", "9852": " twitched", "9853": " twelve", "9854": " trim", "9855": " temptation", "9856": " striped", "9857": " stores", "9858": " stethoscope", "9859": " squawk", "9860": " speaks", "9861": " softened", "9862": " sobbing", "9863": " snorts", "9864": " slithered", "9865": " sleepover", "9866": " skirts", "9867": " shallow", "9868": " shaky", "9869": " shaken", "9870": " scene", "9871": " scre", "9872": " sawed", "9873": " satisfaction", "9874": " sav", "9875": " suck", "9876": " site", "9877": " ruby", "9878": " robe", "9879": " respecting", "9880": " rebuild", "9881": " realizing", "9882": " racer", "9883": " ruff", "9884": " puffed", "9885": " postman", "9886": " pleasant", "9887": " parks", "9888": " panicking", "9889": " outing", "9890": " ordering", "9891": " obediently", "9892": " mattered", "9893": " managing", "9894": " macaroni", "9895": " lookout", "9896": " loser", "9897": " limped", "9898": " lighting", "9899": " lectures", "9900": " lasers", "9901": " kissing", "9902": " kindest", "9903": " introducing", "9904": " instrument", "9905": " hey", "9906": " hangs", "9907": " hind", "9908": " grizzly", "9909": " goodness", "9910": " goodies", "9911": " germs", "9912": " foreshadowed", "9913": " fooled", "9914": " fond", "9915": " flavour", "9916": " flashlights", "9917": " erupt", "9918": " embra", "9919": " elders", "9920": " dustpan", "9921": " drags", "9922": " disagreement", "9923": " differences", "9924": " desks", "9925": " deciding", "9926": " dia", "9927": " dandel", "9928": " curve", "9929": " cursed", "9930": " crafts", "9931": " cooed", "9932": " confidence", "9933": " chipmunk", "9934": " cherish", "9935": " chin", "9936": " canes", "9937": " booth", "9938": " boast", "9939": " bled", "9940": " beautifully", "9941": " bait", "9942": " bouqu", "9943": " attaching", "9944": " attacked", "9945": " angrier", "9946": " amongst", "9947": " amused", "9948": " allowing", "9949": " aboard", "9950": " aback", "9951": " Whistling", "9952": " Which", "9953": " Working", "9954": " Was", "9955": " Timothy", "9956": " Turn", "9957": " Sundays", "9958": " Still", "9959": " Stars", "9960": " Spray", "9961": " Spidey", "9962": " Sleepy", "9963": " Should", "9964": " Scale", "9965": " Sadie", "9966": " Roxy", "9967": " Ruff", "9968": " Ron", "9969": " Roby", "9970": " Riley", "9971": " Rebecca", "9972": " Quacky", "9973": " Peep", "9974": " Pretty", "9975": " Pop", "9976": " Pippy", "9977": " Peek", "9978": " Paper", "9979": " Of", "9980": " Nancy", "9981": " Michelle", "9982": " Ms", "9983": " Lewis", "9984": " Kenny", "9985": " Jovi", "9986": " Josie", "9987": " Jeremy", "9988": " Isla", "9989": " Independent", "9990": " Immediately", "9991": " Icy", "9992": " Hello", "9993": " Ho", "9994": " Hanger", "9995": " Gracie", "9996": " Flyer", "9997": " Fold", "9998": " Fergus", "9999": " Emmy"}